{
  "version": "1.0",
  "truncation": null,
  "padding": null,
  "added_tokens": [
    {
      "id": 0,
      "content": "[UNK]",
      "single_word": false,
      "lstrip": false,
      "rstrip": false,
      "normalized": false,
      "special": true
    },
    {
      "id": 1,
      "content": "[PAD]",
      "single_word": false,
      "lstrip": false,
      "rstrip": false,
      "normalized": false,
      "special": true
    },
    {
      "id": 2,
      "content": "[SOS]",
      "single_word": false,
      "lstrip": false,
      "rstrip": false,
      "normalized": false,
      "special": true
    },
    {
      "id": 3,
      "content": "[EOS]",
      "single_word": false,
      "lstrip": false,
      "rstrip": false,
      "normalized": false,
      "special": true
    }
  ],
  "normalizer": null,
  "pre_tokenizer": {
    "type": "Whitespace"
  },
  "post_processor": null,
  "decoder": null,
  "model": {
    "type": "BPE",
    "dropout": null,
    "unk_token": "[UNK]",
    "continuing_subword_prefix": null,
    "end_of_word_suffix": null,
    "fuse_unk": false,
    "byte_fallback": false,
    "ignore_merges": false,
    "vocab": {
      "[UNK]": 0,
      "[PAD]": 1,
      "[SOS]": 2,
      "[EOS]": 3,
      "0": 4,
      "1": 5,
      "2": 6,
      "3": 7,
      "4": 8,
      "5": 9,
      "6": 10,
      "7": 11,
      "8": 12,
      "9": 13,
      "A": 14,
      "B": 15,
      "C": 16,
      "D": 17,
      "E": 18,
      "F": 19,
      "G": 20,
      "H": 21,
      "I": 22,
      "J": 23,
      "K": 24,
      "L": 25,
      "M": 26,
      "N": 27,
      "O": 28,
      "P": 29,
      "Q": 30,
      "R": 31,
      "S": 32,
      "T": 33,
      "U": 34,
      "V": 35,
      "W": 36,
      "X": 37,
      "Y": 38,
      "Z": 39,
      "a": 40,
      "b": 41,
      "c": 42,
      "d": 43,
      "e": 44,
      "f": 45,
      "g": 46,
      "h": 47,
      "i": 48,
      "j": 49,
      "k": 50,
      "l": 51,
      "m": 52,
      "n": 53,
      "o": 54,
      "p": 55,
      "q": 56,
      "r": 57,
      "s": 58,
      "t": 59,
      "u": 60,
      "v": 61,
      "w": 62,
      "x": 63,
      "y": 64,
      "z": 65,
      "é": 66,
      "ā": 67,
      "ī": 68,
      "ا": 69,
      "ب": 70,
      "ت": 71,
      "ر": 72,
      "ق": 73,
      "ی": 74,
      "அ": 75,
      "க": 76,
      "ங": 77,
      "வ": 78,
      "ṇ": 79,
      "ṛ": 80,
      "ṣ": 81,
      "th": 82,
      "in": 83,
      "an": 84,
      "er": 85,
      "the": 86,
      "on": 87,
      "re": 88,
      "at": 89,
      "is": 90,
      "en": 91,
      "or": 92,
      "es": 93,
      "al": 94,
      "ed": 95,
      "ou": 96,
      "to": 97,
      "ar": 98,
      "as": 99,
      "and": 100,
      "ing": 101,
      "it": 102,
      "of": 103,
      "he": 104,
      "il": 105,
      "ic": 106,
      "ion": 107,
      "le": 108,
      "st": 109,
      "ent": 110,
      "om": 111,
      "ve": 112,
      "be": 113,
      "am": 114,
      "se": 115,
      "id": 116,
      "ha": 117,
      "The": 118,
      "ro": 119,
      "ct": 120,
      "ay": 121,
      "ad": 122,
      "ch": 123,
      "for": 124,
      "are": 125,
      "ver": 126,
      "ol": 127,
      "im": 128,
      "ow": 129,
      "you": 130,
      "ot": 131,
      "di": 132,
      "ir": 133,
      "el": 134,
      "ter": 135,
      "ere": 136,
      "ation": 137,
      "Th": 138,
      "In": 139,
      "ill": 140,
      "ut": 141,
      "that": 142,
      "wh": 143,
      "tr": 144,
      "all": 145,
      "pe": 146,
      "ts": 147,
      "ur": 148,
      "ig": 149,
      "ce": 150,
      "has": 151,
      "ment": 152,
      "ag": 153,
      "un": 154,
      "have": 155,
      "op": 156,
      "ul": 157,
      "us": 158,
      "res": 159,
      "go": 160,
      "ak": 161,
      "et": 162,
      "ers": 163,
      "ab": 164,
      "od": 165,
      "this": 166,
      "de": 167,
      "com": 168,
      "li": 169,
      "was": 170,
      "con": 171,
      "est": 172,
      "fr": 173,
      "lo": 174,
      "so": 175,
      "pro": 176,
      "will": 177,
      "me": 178,
      "our": 179,
      "ly": 180,
      "ac": 181,
      "ne": 182,
      "ld": 183,
      "ain": 184,
      "ate": 185,
      "ith": 186,
      "sa": 187,
      "ant": 188,
      "ice": 189,
      "one": 190,
      "sh": 191,
      "we": 192,
      "Wh": 193,
      "ri": 194,
      "they": 195,
      "do": 196,
      "very": 197,
      "art": 198,
      "ap": 199,
      "00": 200,
      "Indi": 201,
      "fe": 202,
      "igh": 203,
      "not": 204,
      "ies": 205,
      "ther": 206,
      "wor": 207,
      "te": 208,
      "mo": 209,
      "su": 210,
      "oun": 211,
      "He": 212,
      "been": 213,
      "from": 214,
      "pl": 215,
      "ist": 216,
      "out": 217,
      "with": 218,
      "any": 219,
      "But": 220,
      "ople": 221,
      "ity": 222,
      "por": 223,
      "said": 224,
      "ess": 225,
      "um": 226,
      "ah": 227,
      "by": 228,
      "ex": 229,
      "ive": 230,
      "people": 231,
      "ont": 232,
      "Ch": 233,
      "can": 234,
      "ok": 235,
      "ci": 236,
      "os": 237,
      "ime": 238,
      "act": 239,
      "They": 240,
      "pol": 241,
      "inis": 242,
      "now": 243,
      "iv": 244,
      "say": 245,
      "av": 246,
      "ke": 247,
      "per": 248,
      "were": 249,
      "ell": 250,
      "ome": 251,
      "end": 252,
      "Its": 253,
      "port": 254,
      "who": 255,
      "gr": 256,
      "ans": 257,
      "ould": 258,
      "nt": 259,
      "ra": 260,
      "ong": 261,
      "20": 262,
      "vern": 263,
      "no": 264,
      "India": 265,
      "ard": 266,
      "ction": 267,
      "if": 268,
      "der": 269,
      "gh": 270,
      "his": 271,
      "ear": 272,
      "them": 273,
      "em": 274,
      "qu": 275,
      "ud": 276,
      "pr": 277,
      "ight": 278,
      "pp": 279,
      "ame": 280,
      "ure": 281,
      "ll": 282,
      "part": 283,
      "ang": 284,
      "vernment": 285,
      "age": 286,
      "amil": 287,
      "du": 288,
      "their": 289,
      "This": 290,
      "au": 291,
      "up": 292,
      "dis": 293,
      "Rs": 294,
      "ore": 295,
      "thing": 296,
      "fil": 297,
      "your": 298,
      "Minis": 299,
      "ef": 300,
      "what": 301,
      "ake": 302,
      "Pr": 303,
      "ble": 304,
      "dont": 305,
      "know": 306,
      "ident": 307,
      "ine": 308,
      "ff": 309,
      "ip": 310,
      "ust": 311,
      "about": 312,
      "ast": 313,
      "ated": 314,
      "day": 315,
      "ats": 316,
      "inc": 317,
      "its": 318,
      "We": 319,
      "ho": 320,
      "there": 321,
      "police": 322,
      "ish": 323,
      "ose": 324,
      "ev": 325,
      "It": 326,
      "Minister": 327,
      "ple": 328,
      "work": 329,
      "also": 330,
      "So": 331,
      "film": 332,
      "bo": 333,
      "ress": 334,
      "ach": 335,
      "ous": 336,
      "lot": 337,
      "co": 338,
      "ough": 339,
      "going": 340,
      "coun": 341,
      "sp": 342,
      "ank": 343,
      "government": 344,
      "did": 345,
      "way": 346,
      "time": 347,
      "ord": 348,
      "ult": 349,
      "him": 350,
      "my": 351,
      "wo": 352,
      "ink": 353,
      "There": 354,
      "What": 355,
      "ict": 356,
      "come": 357,
      "ath": 358,
      "ions": 359,
      "like": 360,
      "ful": 361,
      "try": 362,
      "ge": 363,
      "ence": 364,
      "ance": 365,
      "ater": 366,
      "get": 367,
      "ary": 368,
      "ack": 369,
      "ai": 370,
      "ep": 371,
      "form": 372,
      "ild": 373,
      "God": 374,
      "ass": 375,
      "ical": 376,
      "low": 377,
      "ase": 378,
      "ide": 379,
      "19": 380,
      "ail": 381,
      "ru": 382,
      "aj": 383,
      "An": 384,
      "happ": 385,
      "but": 386,
      "man": 387,
      "more": 388,
      "tal": 389,
      "ind": 390,
      "vel": 391,
      "inv": 392,
      "year": 393,
      "As": 394,
      "Tamil": 395,
      "hi": 396,
      "ia": 397,
      "other": 398,
      "new": 399,
      "fir": 400,
      "ctor": 401,
      "reg": 402,
      "some": 403,
      "iz": 404,
      "itt": 405,
      "ren": 406,
      "ace": 407,
      "po": 408,
      "sc": 409,
      "br": 410,
      "cial": 411,
      "those": 412,
      "cent": 413,
      "off": 414,
      "ck": 415,
      "ations": 416,
      "able": 417,
      "bl": 418,
      "ally": 419,
      "Sh": 420,
      "ree": 421,
      "Je": 422,
      "think": 423,
      "fter": 424,
      "med": 425,
      "two": 426,
      "mb": 427,
      "good": 428,
      "St": 429,
      "ser": 430,
      "Im": 431,
      "Mo": 432,
      "ial": 433,
      "cted": 434,
      "ational": 435,
      "ue": 436,
      "All": 437,
      "ich": 438,
      "You": 439,
      "aw": 440,
      "should": 441,
      "ire": 442,
      "pos": 443,
      "cr": 444,
      "arm": 445,
      "again": 446,
      "than": 447,
      "pre": 448,
      "Thats": 449,
      "many": 450,
      "then": 451,
      "comm": 452,
      "How": 453,
      "If": 454,
      "read": 455,
      "first": 456,
      "Jeho": 457,
      "ound": 458,
      "No": 459,
      "vah": 460,
      "want": 461,
      "Jehovah": 462,
      "cre": 463,
      "ition": 464,
      "201": 465,
      "Indian": 466,
      "cro": 467,
      "hel": 468,
      "how": 469,
      "cont": 470,
      "je": 471,
      "mu": 472,
      "ens": 473,
      "under": 474,
      "cl": 475,
      "had": 476,
      "need": 477,
      "giv": 478,
      "over": 479,
      "pt": 480,
      "ved": 481,
      "ates": 482,
      "ital": 483,
      "cau": 484,
      "ask": 485,
      "Go": 486,
      "ie": 487,
      "Prime": 488,
      "call": 489,
      "only": 490,
      "invest": 491,
      "ash": 492,
      "cc": 493,
      "spe": 494,
      "adu": 495,
      "ces": 496,
      "inter": 497,
      "att": 498,
      "ities": 499,
      "old": 500,
      "Is": 501,
      "ade": 502,
      "ents": 503,
      "iss": 504,
      "ele": 505,
      "import": 506,
      "Un": 507,
      "own": 508,
      "cause": 509,
      "mon": 510,
      "life": 511,
      "child": 512,
      "jo": 513,
      "help": 514,
      "every": 515,
      "when": 516,
      "world": 517,
      "De": 518,
      "ible": 519,
      "pres": 520,
      "ign": 521,
      "mar": 522,
      "ating": 523,
      "aren": 524,
      "For": 525,
      "fore": 526,
      "her": 527,
      "int": 528,
      "much": 529,
      "came": 530,
      "ased": 531,
      "diff": 532,
      "ian": 533,
      "og": 534,
      "ings": 535,
      "see": 536,
      "take": 537,
      "stud": 538,
      "wr": 539,
      "ick": 540,
      "cho": 541,
      "against": 542,
      "important": 543,
      "bu": 544,
      "tak": 545,
      "lead": 546,
      "ely": 547,
      "rest": 548,
      "state": 549,
      "Nadu": 550,
      "10": 551,
      "Com": 552,
      "ann": 553,
      "acc": 554,
      "When": 555,
      "Chr": 556,
      "says": 557,
      "given": 558,
      "water": 559,
      "investig": 560,
      "mat": 561,
      "eng": 562,
      "osp": 563,
      "ry": 564,
      "ave": 565,
      "mer": 566,
      "into": 567,
      "used": 568,
      "happen": 569,
      "col": 570,
      "give": 571,
      "reat": 572,
      "didnt": 573,
      "fin": 574,
      "use": 575,
      "case": 576,
      "Se": 577,
      "just": 578,
      "here": 579,
      "famil": 580,
      "right": 581,
      "bet": 582,
      "gu": 583,
      "vis": 584,
      "eres": 585,
      "ons": 586,
      "years": 587,
      "Modi": 588,
      "Raj": 589,
      "ise": 590,
      "does": 591,
      "ness": 592,
      "itu": 593,
      "which": 594,
      "ospital": 595,
      "Ar": 596,
      "han": 597,
      "ng": 598,
      "red": 599,
      "vers": 600,
      "ters": 601,
      "akh": 602,
      "Do": 603,
      "rel": 604,
      "velop": 605,
      "Christ": 606,
      "ced": 607,
      "ty": 608,
      "well": 609,
      "ory": 610,
      "trict": 611,
      "look": 612,
      "JP": 613,
      "Ne": 614,
      "cant": 615,
      "ite": 616,
      "talk": 617,
      "12": 618,
      "Re": 619,
      "cy": 620,
      "icult": 621,
      "und": 622,
      "dec": 623,
      "play": 624,
      "country": 625,
      "BJP": 626,
      "got": 627,
      "esus": 628,
      "alth": 629,
      "ile": 630,
      "ower": 631,
      "miss": 632,
      "would": 633,
      "chang": 634,
      "cond": 635,
      "Jesus": 636,
      "blem": 637,
      "care": 638,
      "cur": 639,
      "dra": 640,
      "ief": 641,
      "row": 642,
      "les": 643,
      "these": 644,
      "chool": 645,
      "Pro": 646,
      "called": 647,
      "children": 648,
      "ph": 649,
      "rough": 650,
      "ors": 651,
      "ouse": 652,
      "arn": 653,
      "stand": 654,
      "because": 655,
      "died": 656,
      "crore": 657,
      "Theres": 658,
      "ourt": 659,
      "And": 660,
      "Le": 661,
      "tell": 662,
      "problem": 663,
      "100": 664,
      "land": 665,
      "ments": 666,
      "comp": 667,
      "exam": 668,
      "even": 669,
      "Cong": 670,
      "air": 671,
      "ber": 672,
      "wom": 673,
      "sel": 674,
      "offic": 675,
      "Dont": 676,
      "after": 677,
      "cle": 678,
      "start": 679,
      "ollow": 680,
      "Congress": 681,
      "har": 682,
      "same": 683,
      "ubl": 684,
      "ural": 685,
      "ittle": 686,
      "par": 687,
      "pers": 688,
      "ala": 689,
      "fo": 690,
      "made": 691,
      "At": 692,
      "little": 693,
      "rain": 694,
      "told": 695,
      "dire": 696,
      "most": 697,
      "incident": 698,
      "ik": 699,
      "minis": 700,
      "beli": 701,
      "produ": 702,
      "taken": 703,
      "200": 704,
      "On": 705,
      "US": 706,
      "fl": 707,
      "Del": 708,
      "back": 709,
      "ious": 710,
      "ven": 711,
      "ship": 712,
      "Hes": 713,
      "gen": 714,
      "long": 715,
      "last": 716,
      "ject": 717,
      "fa": 718,
      "hospital": 719,
      "house": 720,
      "ative": 721,
      "serv": 722,
      "ma": 723,
      "ral": 724,
      "show": 725,
      "tem": 726,
      "sur": 727,
      "through": 728,
      "esh": 729,
      "Government": 730,
      "men": 731,
      "sto": 732,
      "leg": 733,
      "family": 734,
      "15": 735,
      "high": 736,
      "xt": 737,
      "icip": 738,
      "After": 739,
      "follow": 740,
      "home": 741,
      "lakh": 742,
      "power": 743,
      "incre": 744,
      "Bible": 745,
      "ning": 746,
      "als": 747,
      "tern": 748,
      "Then": 749,
      "ought": 750,
      "kill": 751,
      "oth": 752,
      "plo": 753,
      "enn": 754,
      "ars": 755,
      "memb": 756,
      "mor": 757,
      "ond": 758,
      "ati": 759,
      "ism": 760,
      "being": 761,
      "polit": 762,
      "His": 763,
      "cap": 764,
      "ves": 765,
      "Delhi": 766,
      "cer": 767,
      "tain": 768,
      "vent": 769,
      "too": 770,
      "book": 771,
      "differ": 772,
      "cor": 773,
      "ures": 774,
      "ording": 775,
      "gan": 776,
      "ss": 777,
      "ys": 778,
      "arrest": 779,
      "ited": 780,
      "add": 781,
      "asked": 782,
      "New": 783,
      "Naren": 784,
      "pri": 785,
      "ince": 786,
      "ices": 787,
      "before": 788,
      "conom": 789,
      "ween": 790,
      "person": 791,
      "Narendra": 792,
      "Mar": 793,
      "sent": 794,
      "school": 795,
      "inj": 796,
      "rele": 797,
      "tru": 798,
      "af": 799,
      "down": 800,
      "ility": 801,
      "still": 802,
      "meet": 803,
      "Ad": 804,
      "bro": 805,
      "make": 806,
      "put": 807,
      "ush": 808,
      "between": 809,
      "18": 810,
      "Ok": 811,
      "could": 812,
      "why": 813,
      "ways": 814,
      "My": 815,
      "Pol": 816,
      "ants": 817,
      "ages": 818,
      "mission": 819,
      "16": 820,
      "son": 821,
      "ya": 822,
      "char": 823,
      "pect": 824,
      "resident": 825,
      "Why": 826,
      "ennai": 827,
      "Sing": 828,
      "farm": 829,
      "sy": 830,
      "test": 831,
      "ics": 832,
      "imes": 833,
      "ution": 834,
      "sup": 835,
      "Chennai": 836,
      "ctions": 837,
      "students": 838,
      "13": 839,
      "ek": 840,
      "Chief": 841,
      "Gods": 842,
      "ublic": 843,
      "hum": 844,
      "ix": 845,
      "uk": 846,
      "amp": 847,
      "olog": 848,
      "develop": 849,
      "ured": 850,
      "incl": 851,
      "14": 852,
      "50": 853,
      "National": 854,
      "dom": 855,
      "ians": 856,
      "ving": 857,
      "health": 858,
      "where": 859,
      "sub": 860,
      "gram": 861,
      "particip": 862,
      "aid": 863,
      "car": 864,
      "stit": 865,
      "fri": 866,
      "istan": 867,
      "Pe": 868,
      "Tr": 869,
      "clo": 870,
      "ted": 871,
      "tur": 872,
      "tries": 873,
      "trans": 874,
      "resp": 875,
      "partment": 876,
      "arrested": 877,
      "friend": 878,
      "Dis": 879,
      "led": 880,
      "ob": 881,
      "oh": 882,
      "vie": 883,
      "three": 884,
      "ese": 885,
      "took": 886,
      "tra": 887,
      "anything": 888,
      "ific": 889,
      "quest": 890,
      "days": 891,
      "Acc": 892,
      "Can": 893,
      "Ex": 894,
      "Gand": 895,
      "che": 896,
      "ds": 897,
      "des": 898,
      "fer": 899,
      "ib": 900,
      "press": 901,
      "ual": 902,
      "went": 903,
      "head": 904,
      "oper": 905,
      "place": 906,
      "President": 907,
      "cha": 908,
      "econom": 909,
      "vi": 910,
      "rol": 911,
      "chn": 912,
      "comple": 913,
      "next": 914,
      "team": 915,
      "Co": 916,
      "Pak": 917,
      "Su": 918,
      "cus": 919,
      "sol": 920,
      "set": 921,
      "death": 922,
      "action": 923,
      "belie": 924,
      "support": 925,
      "four": 926,
      "won": 927,
      "uring": 928,
      "soon": 929,
      "fect": 930,
      "augh": 931,
      "countries": 932,
      "post": 933,
      "wrong": 934,
      "Gandhi": 935,
      "Fr": 936,
      "val": 937,
      "issu": 938,
      "road": 939,
      "illion": 940,
      "pet": 941,
      "app": 942,
      "ready": 943,
      "main": 944,
      "rit": 945,
      "ort": 946,
      "let": 947,
      "stru": 948,
      "Al": 949,
      "cation": 950,
      "law": 951,
      "min": 952,
      "national": 953,
      "pend": 954,
      "run": 955,
      "spir": 956,
      "different": 957,
      "25": 958,
      "cal": 959,
      "ife": 960,
      "she": 961,
      "ward": 962,
      "str": 963,
      "stem": 964,
      "tri": 965,
      "train": 966,
      "Chin": 967,
      "cost": 968,
      "started": 969,
      "Be": 970,
      "Con": 971,
      "Court": 972,
      "Some": 973,
      "Wor": 974,
      "lar": 975,
      "sal": 976,
      "ones": 977,
      "social": 978,
      "appro": 979,
      "000": 980,
      "theres": 981,
      "month": 982,
      "women": 983,
      "Pakistan": 984,
      "Act": 985,
      "Cent": 986,
      "Eng": 987,
      "Lo": 988,
      "bod": 989,
      "cour": 990,
      "hand": 991,
      "sm": 992,
      "sha": 993,
      "war": 994,
      "oup": 995,
      "oney": 996,
      "According": 997,
      "bal": 998,
      "ft": 999,
      "ij": 1000,
      "love": 1001,
      "Theyre": 1002,
      "happy": 1003,
      "sche": 1004,
      "understand": 1005,
      "self": 1006,
      "Lord": 1007,
      "Man": 1008,
      "Yes": 1009,
      "big": 1010,
      "bus": 1011,
      "dr": 1012,
      "ana": 1013,
      "cept": 1014,
      "ular": 1015,
      "peri": 1016,
      "ploy": 1017,
      "injured": 1018,
      "Singh": 1019,
      "17": 1020,
      "One": 1021,
      "bre": 1022,
      "far": 1023,
      "vide": 1024,
      "report": 1025,
      "ason": 1026,
      "area": 1027,
      "true": 1028,
      "teach": 1029,
      "such": 1030,
      "district": 1031,
      "example": 1032,
      "includ": 1033,
      "Par": 1034,
      "Ro": 1035,
      "cess": 1036,
      "done": 1037,
      "lish": 1038,
      "inform": 1039,
      "outh": 1040,
      "gar": 1041,
      "king": 1042,
      "ying": 1043,
      "ins": 1044,
      "order": 1045,
      "edu": 1046,
      "imple": 1047,
      "irl": 1048,
      "ety": 1049,
      "both": 1050,
      "11": 1051,
      "Off": 1052,
      "hes": 1053,
      "mod": 1054,
      "name": 1055,
      "ried": 1056,
      "few": 1057,
      "umar": 1058,
      "earth": 1059,
      "contin": 1060,
      "happened": 1061,
      "Okay": 1062,
      "fact": 1063,
      "pur": 1064,
      "ists": 1065,
      "top": 1066,
      "total": 1067,
      "That": 1068,
      "ized": 1069,
      "job": 1070,
      "believe": 1071,
      "list": 1072,
      "mit": 1073,
      "pass": 1074,
      "ref": 1075,
      "ision": 1076,
      "itness": 1077,
      "dies": 1078,
      "party": 1079,
      "Jehovahs": 1080,
      "Police": 1081,
      "farmers": 1082,
      "vot": 1083,
      "yet": 1084,
      "atch": 1085,
      "ases": 1086,
      "ided": 1087,
      "ives": 1088,
      "State": 1089,
      "present": 1090,
      "matter": 1091,
      "Ill": 1092,
      "Rah": 1093,
      "ben": 1094,
      "ivers": 1095,
      "vir": 1096,
      "week": 1097,
      "difficult": 1098,
      "investigating": 1099,
      "body": 1100,
      "40": 1101,
      "Are": 1102,
      "Res": 1103,
      "nor": 1104,
      "wal": 1105,
      "young": 1106,
      "aking": 1107,
      "sho": 1108,
      "avail": 1109,
      "things": 1110,
      "itted": 1111,
      "medi": 1112,
      "change": 1113,
      "curity": 1114,
      "released": 1115,
      "view": 1116,
      "Mah": 1117,
      "dri": 1118,
      "grow": 1119,
      "la": 1120,
      "sing": 1121,
      "iness": 1122,
      "ised": 1123,
      "heav": 1124,
      "group": 1125,
      "prom": 1126,
      "Bo": 1127,
      "Col": 1128,
      "Were": 1129,
      "bit": 1130,
      "mal": 1131,
      "tar": 1132,
      "wife": 1133,
      "another": 1134,
      "arch": 1135,
      "prote": 1136,
      "qual": 1137,
      "angu": 1138,
      "doesnt": 1139,
      "Lets": 1140,
      "food": 1141,
      "members": 1142,
      "Cor": 1143,
      "King": 1144,
      "Or": 1145,
      "To": 1146,
      "aul": 1147,
      "band": 1148,
      "det": 1149,
      "iel": 1150,
      "less": 1151,
      "money": 1152,
      "ror": 1153,
      "situ": 1154,
      "yes": 1155,
      "lect": 1156,
      "become": 1157,
      "open": 1158,
      "coming": 1159,
      "doing": 1160,
      "mother": 1161,
      "plain": 1162,
      "full": 1163,
      "arents": 1164,
      "ID": 1165,
      "Te": 1166,
      "ied": 1167,
      "pay": 1168,
      "second": 1169,
      "near": 1170,
      "umb": 1171,
      "Allah": 1172,
      "Department": 1173,
      "vision": 1174,
      "District": 1175,
      "available": 1176,
      "Ive": 1177,
      "PM": 1178,
      "line": 1179,
      "organ": 1180,
      "level": 1181,
      "els": 1182,
      "lock": 1183,
      "ples": 1184,
      "films": 1185,
      "point": 1186,
      "faith": 1187,
      "24": 1188,
      "Every": 1189,
      "Sri": 1190,
      "Tell": 1191,
      "ax": 1192,
      "mind": 1193,
      "ately": 1194,
      "tow": 1195,
      "adesh": 1196,
      "Thank": 1197,
      "pees": 1198,
      "Who": 1199,
      "ize": 1200,
      "killed": 1201,
      "political": 1202,
      "meeting": 1203,
      "small": 1204,
      "23": 1205,
      "Gr": 1206,
      "More": 1207,
      "She": 1208,
      "Vij": 1209,
      "eat": 1210,
      "found": 1211,
      "gest": 1212,
      "thor": 1213,
      "today": 1214,
      "ste": 1215,
      "ared": 1216,
      "project": 1217,
      "attack": 1218,
      "accident": 1219,
      "great": 1220,
      "public": 1221,
      "ten": 1222,
      "treat": 1223,
      "reco": 1224,
      "ister": 1225,
      "acted": 1226,
      "Union": 1227,
      "meric": 1228,
      "benef": 1229,
      "Dr": 1230,
      "away": 1231,
      "fun": 1232,
      "langu": 1233,
      "ost": 1234,
      "parents": 1235,
      "vo": 1236,
      "role": 1237,
      "unity": 1238,
      "ards": 1239,
      "special": 1240,
      "president": 1241,
      "official": 1242,
      "gener": 1243,
      "human": 1244,
      "ology": 1245,
      "turn": 1246,
      "World": 1247,
      "scheme": 1248,
      "30": 1249,
      "Mad": 1250,
      "Ram": 1251,
      "ner": 1252,
      "pop": 1253,
      "rent": 1254,
      "else": 1255,
      "usic": 1256,
      "depend": 1257,
      "pray": 1258,
      "count": 1259,
      "investigation": 1260,
      "participated": 1261,
      "including": 1262,
      "implement": 1263,
      "hist": 1264,
      "mi": 1265,
      "may": 1266,
      "beg": 1267,
      "ament": 1268,
      "thats": 1269,
      "soci": 1270,
      "program": 1271,
      "umber": 1272,
      "build": 1273,
      "clear": 1274,
      "stitut": 1275,
      "Vijay": 1276,
      "CO": 1277,
      "Not": 1278,
      "ather": 1279,
      "fight": 1280,
      "flow": 1281,
      "fire": 1282,
      "girl": 1283,
      "hard": 1284,
      "tre": 1285,
      "indi": 1286,
      "unch": 1287,
      "dem": 1288,
      "techn": 1289,
      "dust": 1290,
      "leaders": 1291,
      "High": 1292,
      "Ker": 1293,
      "Mal": 1294,
      "court": 1295,
      "five": 1296,
      "free": 1297,
      "light": 1298,
      "later": 1299,
      "rul": 1300,
      "thers": 1301,
      "anth": 1302,
      "ances": 1303,
      "reed": 1304,
      "rece": 1305,
      "ata": 1306,
      "comes": 1307,
      "proper": 1308,
      "former": 1309,
      "ails": 1310,
      "rupees": 1311,
      "Shri": 1312,
      "ccess": 1313,
      "buy": 1314,
      "Christian": 1315,
      "priv": 1316,
      "bad": 1317,
      "bank": 1318,
      "den": 1319,
      "fac": 1320,
      "lim": 1321,
      "million": 1322,
      "pain": 1323,
      "rate": 1324,
      "ination": 1325,
      "ered": 1326,
      "icle": 1327,
      "ication": 1328,
      "while": 1329,
      "lood": 1330,
      "ports": 1331,
      "Ministry": 1332,
      "ctors": 1333,
      "States": 1334,
      "Dire": 1335,
      "Nor": 1336,
      "best": 1337,
      "cord": 1338,
      "met": 1339,
      "sid": 1340,
      "wa": 1341,
      "win": 1342,
      "ines": 1343,
      "unt": 1344,
      "usband": 1345,
      "Whats": 1346,
      "ights": 1347,
      "sure": 1348,
      "success": 1349,
      "everything": 1350,
      "Develop": 1351,
      "mark": 1352,
      "icket": 1353,
      "truth": 1354,
      "system": 1355,
      "economic": 1356,
      "itnesses": 1357,
      "Rahul": 1358,
      "Kerala": 1359,
      "Americ": 1360,
      "Bank": 1361,
      "South": 1362,
      "cult": 1363,
      "fall": 1364,
      "find": 1365,
      "gy": 1366,
      "pati": 1367,
      "ric": 1368,
      "real": 1369,
      "always": 1370,
      "search": 1371,
      "oppos": 1372,
      "ended": 1373,
      "employ": 1374,
      "elect": 1375,
      "match": 1376,
      "relig": 1377,
      "Paul": 1378,
      "Sup": 1379,
      "Tel": 1380,
      "cut": 1381,
      "face": 1382,
      "left": 1383,
      "aka": 1384,
      "lives": 1385,
      "feel": 1386,
      "experi": 1387,
      "saying": 1388,
      "price": 1389,
      "due": 1390,
      "Pradesh": 1391,
      "spok": 1392,
      "reng": 1393,
      "tribut": 1394,
      "situation": 1395,
      "town": 1396,
      "22": 1397,
      "Karn": 1398,
      "Kumar": 1399,
      "Part": 1400,
      "Spe": 1401,
      "sci": 1402,
      "sign": 1403,
      "ting": 1404,
      "leave": 1405,
      "amb": 1406,
      "security": 1407,
      "immedi": 1408,
      "complain": 1409,
      "plac": 1410,
      "something": 1411,
      "bring": 1412,
      "media": 1413,
      "mber": 1414,
      "election": 1415,
      "decision": 1416,
      "others": 1417,
      "viol": 1418,
      "Joh": 1419,
      "Sha": 1420,
      "Sab": 1421,
      "hu": 1422,
      "lit": 1423,
      "mil": 1424,
      "ancial": 1425,
      "ener": 1426,
      "learn": 1427,
      "streng": 1428,
      "These": 1429,
      "avid": 1430,
      "working": 1431,
      "cret": 1432,
      "Isra": 1433,
      "announ": 1434,
      "friends": 1435,
      "China": 1436,
      "Look": 1437,
      "information": 1438,
      "Development": 1439,
      "John": 1440,
      "DM": 1441,
      "Day": 1442,
      "II": 1443,
      "Tir": 1444,
      "az": 1445,
      "ca": 1446,
      "city": 1447,
      "camp": 1448,
      "each": 1449,
      "gre": 1450,
      "gave": 1451,
      "ering": 1452,
      "became": 1453,
      "impro": 1454,
      "pected": 1455,
      "aged": 1456,
      "opport": 1457,
      "live": 1458,
      "Where": 1459,
      "words": 1460,
      "answ": 1461,
      "pped": 1462,
      "hoto": 1463,
      "ished": 1464,
      "event": 1465,
      "ousand": 1466,
      "register": 1467,
      "poss": 1468,
      "control": 1469,
      "interest": 1470,
      "problems": 1471,
      "spiritu": 1472,
      "Offic": 1473,
      "iversity": 1474,
      "IP": 1475,
      "Two": 1476,
      "husband": 1477,
      "nam": 1478,
      "number": 1479,
      "ran": 1480,
      "var": 1481,
      "vid": 1482,
      "ery": 1483,
      "redu": 1484,
      "record": 1485,
      "ences": 1486,
      "semb": 1487,
      "ayal": 1488,
      "peace": 1489,
      "ury": 1490,
      "tee": 1491,
      "move": 1492,
      "without": 1493,
      "actor": 1494,
      "avir": 1495,
      "keep": 1496,
      "Ass": 1497,
      "regard": 1498,
      "married": 1499,
      "engal": 1500,
      "iculture": 1501,
      "affe": 1502,
      "couldnt": 1503,
      "training": 1504,
      "Am": 1505,
      "Bengal": 1506,
      "Lank": 1507,
      "Our": 1508,
      "cu": 1509,
      "dest": 1510,
      "hal": 1511,
      "jud": 1512,
      "kind": 1513,
      "ms": 1514,
      "must": 1515,
      "mitted": 1516,
      "fort": 1517,
      "youre": 1518,
      "istance": 1519,
      "workers": 1520,
      "ization": 1521,
      "join": 1522,
      "study": 1523,
      "ministr": 1524,
      "People": 1525,
      "launch": 1526,
      "Karnat": 1527,
      "sembly": 1528,
      "Mumb": 1529,
      "aut": 1530,
      "based": 1531,
      "cell": 1532,
      "dam": 1533,
      "fine": 1534,
      "fish": 1535,
      "gg": 1536,
      "gone": 1537,
      "occ": 1538,
      "sed": 1539,
      "since": 1540,
      "ani": 1541,
      "reme": 1542,
      "agr": 1543,
      "ablish": 1544,
      "cong": 1545,
      "conne": 1546,
      "fru": 1547,
      "Indias": 1548,
      "plan": 1549,
      "anyone": 1550,
      "percent": 1551,
      "office": 1552,
      "ired": 1553,
      "class": 1554,
      "Commission": 1555,
      "Supreme": 1556,
      "Israel": 1557,
      "Mumbai": 1558,
      "500": 1559,
      "Au": 1560,
      "Cr": 1561,
      "Kar": 1562,
      "Sal": 1563,
      "TV": 1564,
      "ban": 1565,
      "ees": 1566,
      "sir": 1567,
      "tw": 1568,
      "times": 1569,
      "vict": 1570,
      "onavir": 1571,
      "ret": 1572,
      "ream": 1573,
      "iting": 1574,
      "lege": 1575,
      "tric": 1576,
      "itten": 1577,
      "needs": 1578,
      "United": 1579,
      "minister": 1580,
      "increase": 1581,
      "video": 1582,
      "education": 1583,
      "treatment": 1584,
      "registered": 1585,
      "Karnataka": 1586,
      "congreg": 1587,
      "onavirus": 1588,
      "Ab": 1589,
      "Aust": 1590,
      "Gu": 1591,
      "Har": 1592,
      "ever": 1593,
      "hon": 1594,
      "vice": 1595,
      "thought": 1596,
      "requ": 1597,
      "ature": 1598,
      "ests": 1599,
      "arri": 1600,
      "around": 1601,
      "ami": 1602,
      "ross": 1603,
      "terror": 1604,
      "uram": 1605,
      "oday": 1606,
      "dead": 1607,
      "defin": 1608,
      "conf": 1609,
      "lost": 1610,
      "ours": 1611,
      "theyre": 1612,
      "sum": 1613,
      "expected": 1614,
      "2019": 1615,
      "parties": 1616,
      "anger": 1617,
      "agement": 1618,
      "author": 1619,
      "gether": 1620,
      "wanted": 1621,
      "written": 1622,
      "Christians": 1623,
      "father": 1624,
      "development": 1625,
      "Director": 1626,
      "27": 1627,
      "En": 1628,
      "Fin": 1629,
      "del": 1630,
      "fiel": 1631,
      "ged": 1632,
      "ling": 1633,
      "lab": 1634,
      "music": 1635,
      "reason": 1636,
      "atives": 1637,
      "enough": 1638,
      "ilar": 1639,
      "icy": 1640,
      "ional": 1641,
      "oting": 1642,
      "Those": 1643,
      "respect": 1644,
      "activ": 1645,
      "better": 1646,
      "looking": 1647,
      "immediately": 1648,
      "spiritual": 1649,
      "60": 1650,
      "99": 1651,
      "Brit": 1652,
      "IC": 1653,
      "Li": 1654,
      "MP": 1655,
      "Ser": 1656,
      "fam": 1657,
      "mir": 1658,
      "mess": 1659,
      "na": 1660,
      "six": 1661,
      "ton": 1662,
      "uro": 1663,
      "aring": 1664,
      "andid": 1665,
      "imilar": 1666,
      "ird": 1667,
      "uru": 1668,
      "ago": 1669,
      "ulation": 1670,
      "result": 1671,
      "establish": 1672,
      "process": 1673,
      "saw": 1674,
      "early": 1675,
      "que": 1676,
      "works": 1677,
      "ajor": 1678,
      "crit": 1679,
      "2018": 1680,
      "elections": 1681,
      "financial": 1682,
      "runs": 1683,
      "Austral": 1684,
      "Cha": 1685,
      "IS": 1686,
      "Ke": 1687,
      "With": 1688,
      "aim": 1689,
      "cri": 1690,
      "during": 1691,
      "daugh": 1692,
      "fund": 1693,
      "hy": 1694,
      "oil": 1695,
      "wel": 1696,
      "atic": 1697,
      "lets": 1698,
      "seen": 1699,
      "uture": 1700,
      "lik": 1701,
      "liament": 1702,
      "condu": 1703,
      "constru": 1704,
      "never": 1705,
      "ump": 1706,
      "2020": 1707,
      "discus": 1708,
      "fully": 1709,
      "everyone": 1710,
      "officers": 1711,
      "increased": 1712,
      "member": 1713,
      "ibility": 1714,
      "issue": 1715,
      "petition": 1716,
      "strong": 1717,
      "business": 1718,
      "Kingdom": 1719,
      "experience": 1720,
      "Sabha": 1721,
      "28": 1722,
      "Her": 1723,
      "Just": 1724,
      "Son": 1725,
      "Your": 1726,
      "bas": 1727,
      "glo": 1728,
      "iah": 1729,
      "night": 1730,
      "ris": 1731,
      "uv": 1732,
      "ues": 1733,
      "together": 1734,
      "itions": 1735,
      "leep": 1736,
      "seats": 1737,
      "adi": 1738,
      "admitted": 1739,
      "accept": 1740,
      "Theyve": 1741,
      "effect": 1742,
      "governments": 1743,
      "prevent": 1744,
      "undred": 1745,
      "current": 1746,
      "questions": 1747,
      "months": 1748,
      "Central": 1749,
      "details": 1750,
      "DMK": 1751,
      "affected": 1752,
      "Bhar": 1753,
      "David": 1754,
      "Khan": 1755,
      "Lok": 1756,
      "Med": 1757,
      "Many": 1758,
      "bat": 1759,
      "bir": 1760,
      "fare": 1761,
      "kar": 1762,
      "ned": 1763,
      "photo": 1764,
      "vill": 1765,
      "ene": 1766,
      "lection": 1767,
      "lebr": 1768,
      "roy": 1769,
      "celebr": 1770,
      "agar": 1771,
      "mean": 1772,
      "appoint": 1773,
      "Health": 1774,
      "express": 1775,
      "ems": 1776,
      "filed": 1777,
      "news": 1778,
      "thinking": 1779,
      "commit": 1780,
      "ieve": 1781,
      "international": 1782,
      "joy": 1783,
      "talking": 1784,
      "service": 1785,
      "temple": 1786,
      "stopped": 1787,
      "respons": 1788,
      "question": 1789,
      "stead": 1790,
      "until": 1791,
      "cretary": 1792,
      "tricts": 1793,
      "70": 1794,
      "AI": 1795,
      "Agr": 1796,
      "Coun": 1797,
      "Oh": 1798,
      "Pl": 1799,
      "School": 1800,
      "Since": 1801,
      "Today": 1802,
      "Well": 1803,
      "aff": 1804,
      "bor": 1805,
      "fic": 1806,
      "future": 1807,
      "hip": 1808,
      "major": 1809,
      "pan": 1810,
      "rich": 1811,
      "side": 1812,
      "ugu": 1813,
      "thousand": 1814,
      "anch": 1815,
      "ator": 1816,
      "already": 1817,
      "aries": 1818,
      "ites": 1819,
      "areas": 1820,
      "trad": 1821,
      "using": 1822,
      "deep": 1823,
      "appl": 1824,
      "pract": 1825,
      "spot": 1826,
      "medical": 1827,
      "series": 1828,
      "create": 1829,
      "engine": 1830,
      "families": 1831,
      "direct": 1832,
      "director": 1833,
      "brother": 1834,
      "language": 1835,
      "market": 1836,
      "places": 1837,
      "GS": 1838,
      "Per": 1839,
      "VID": 1840,
      "West": 1841,
      "afr": 1842,
      "bought": 1843,
      "cases": 1844,
      "fill": 1845,
      "hundred": 1846,
      "ove": 1847,
      "phe": 1848,
      "pare": 1849,
      "sk": 1850,
      "san": 1851,
      "thank": 1852,
      "era": 1853,
      "recent": 1854,
      "aster": 1855,
      "ily": 1856,
      "states": 1857,
      "stars": 1858,
      "veh": 1859,
      "idence": 1860,
      "room": 1861,
      "cture": 1862,
      "administr": 1863,
      "chief": 1864,
      "vered": 1865,
      "imum": 1866,
      "akes": 1867,
      "means": 1868,
      "short": 1869,
      "ext": 1870,
      "acter": 1871,
      "ived": 1872,
      "ified": 1873,
      "prof": 1874,
      "achieve": 1875,
      "phone": 1876,
      "flu": 1877,
      "legal": 1878,
      "COVID": 1879,
      "North": 1880,
      "Party": 1881,
      "afraid": 1882,
      "21": 1883,
      "26": 1884,
      "Air": 1885,
      "CB": 1886,
      "Euro": 1887,
      "Jan": 1888,
      "Kash": 1889,
      "Mat": 1890,
      "Tri": 1891,
      "rid": 1892,
      "inal": 1893,
      "onment": 1894,
      "really": 1895,
      "ense": 1896,
      "itely": 1897,
      "ilities": 1898,
      "ids": 1899,
      "Their": 1900,
      "trust": 1901,
      "allow": 1902,
      "une": 1903,
      "uss": 1904,
      "acy": 1905,
      "suff": 1906,
      "grand": 1907,
      "ground": 1908,
      "nothing": 1909,
      "spread": 1910,
      "invol": 1911,
      "someone": 1912,
      "serious": 1913,
      "ashtra": 1914,
      "University": 1915,
      "changed": 1916,
      "coronavirus": 1917,
      "Add": 1918,
      "close": 1919,
      "operation": 1920,
      "From": 1921,
      "Parliament": 1922,
      "Mahar": 1923,
      "private": 1924,
      "Telugu": 1925,
      "definitely": 1926,
      "Europe": 1927,
      "29": 1928,
      "32": 1929,
      "35": 1930,
      "Em": 1931,
      "Even": 1932,
      "Ger": 1933,
      "Here": 1934,
      "May": 1935,
      "Sy": 1936,
      "eas": 1937,
      "ji": 1938,
      "nat": 1939,
      "inet": 1940,
      "inning": 1941,
      "ories": 1942,
      "outs": 1943,
      "itary": 1944,
      "icide": 1945,
      "omet": 1946,
      "sever": 1947,
      "sector": 1948,
      "seven": 1949,
      "above": 1950,
      "loss": 1951,
      "account": 1952,
      "key": 1953,
      "udd": 1954,
      "pris": 1955,
      "knows": 1956,
      "aterial": 1957,
      "arma": 1958,
      "2017": 1959,
      "lands": 1960,
      "drink": 1961,
      "shooting": 1962,
      "function": 1963,
      "Special": 1964,
      "half": 1965,
      "global": 1966,
      "Kashmir": 1967,
      "80": 1968,
      "Cro": 1969,
      "Did": 1970,
      "Fir": 1971,
      "Have": 1972,
      "Hospital": 1973,
      "Sun": 1974,
      "Take": 1975,
      "Will": 1976,
      "cies": 1977,
      "candid": 1978,
      "gn": 1979,
      "hor": 1980,
      "ham": 1981,
      "pal": 1982,
      "tour": 1983,
      "tax": 1984,
      "whe": 1985,
      "ern": 1986,
      "oud": 1987,
      "held": 1988,
      "heart": 1989,
      "ically": 1990,
      "beaut": 1991,
      "roles": 1992,
      "div": 1993,
      "urder": 1994,
      "ults": 1995,
      "mocr": 1996,
      "moved": 1997,
      "grap": 1998,
      "ange": 1999,
      "districts": 2000,
      "boy": 2001,
      "posed": 2002,
      "created": 2003,
      "personal": 2004,
      "stitution": 2005,
      "completed": 2006,
      "Road": 2007,
      "vironment": 2008,
      "dustri": 2009,
      "answer": 2010,
      "famous": 2011,
      "Maharashtra": 2012,
      "CM": 2013,
      "Edu": 2014,
      "Me": 2015,
      "Ph": 2016,
      "Pri": 2017,
      "Russ": 2018,
      "SE": 2019,
      "San": 2020,
      "Sam": 2021,
      "Test": 2022,
      "bur": 2023,
      "cil": 2024,
      "hur": 2025,
      "mes": 2026,
      "mag": 2027,
      "material": 2028,
      "ners": 2029,
      "pict": 2030,
      "sun": 2031,
      "ties": 2032,
      "wont": 2033,
      "ators": 2034,
      "ency": 2035,
      "eds": 2036,
      "arr": 2037,
      "asing": 2038,
      "itor": 2039,
      "ilt": 2040,
      "leav": 2041,
      "station": 2042,
      "amal": 2043,
      "cts": 2044,
      "imp": 2045,
      "Intern": 2046,
      "unities": 2047,
      "expect": 2048,
      "avi": 2049,
      "avo": 2050,
      "perform": 2051,
      "dise": 2052,
      "known": 2053,
      "trying": 2054,
      "region": 2055,
      "score": 2056,
      "itional": 2057,
      "2016": 2058,
      "taking": 2059,
      "Rajin": 2060,
      "decided": 2061,
      "compan": 2062,
      "raining": 2063,
      "production": 2064,
      "capital": 2065,
      "ification": 2066,
      "economy": 2067,
      "large": 2068,
      "refused": 2069,
      "Techn": 2070,
      "stitute": 2071,
      "American": 2072,
      "spoke": 2073,
      "announced": 2074,
      "improve": 2075,
      "destroy": 2076,
      "launched": 2077,
      "COVID19": 2078,
      "31": 2079,
      "Both": 2080,
      "Hel": 2081,
      "Hindi": 2082,
      "Sat": 2083,
      "Sar": 2084,
      "bs": 2085,
      "ium": 2086,
      "lu": 2087,
      "murder": 2088,
      "net": 2089,
      "pun": 2090,
      "sat": 2091,
      "ufact": 2092,
      "though": 2093,
      "astru": 2094,
      "itive": 2095,
      "itiz": 2096,
      "stu": 2097,
      "tract": 2098,
      "uly": 2099,
      "abinet": 2100,
      "frastru": 2101,
      "local": 2102,
      "ources": 2103,
      "doctor": 2104,
      "thern": 2105,
      "suicide": 2106,
      "grat": 2107,
      "199": 2108,
      "poor": 2109,
      "ission": 2110,
      "visit": 2111,
      "woman": 2112,
      "shows": 2113,
      "politics": 2114,
      "brothers": 2115,
      "character": 2116,
      "English": 2117,
      "teachers": 2118,
      "heavy": 2119,
      "possible": 2120,
      "reduce": 2121,
      "arrived": 2122,
      "AN": 2123,
      "CE": 2124,
      "Dev": 2125,
      "Hy": 2126,
      "Kann": 2127,
      "Other": 2128,
      "Sw": 2129,
      "aign": 2130,
      "bi": 2131,
      "bed": 2132,
      "bill": 2133,
      "card": 2134,
      "dy": 2135,
      "don": 2136,
      "date": 2137,
      "gress": 2138,
      "hous": 2139,
      "iver": 2140,
      "laugh": 2141,
      "mis": 2142,
      "paid": 2143,
      "rish": 2144,
      "sw": 2145,
      "sleep": 2146,
      "third": 2147,
      "inci": 2148,
      "ica": 2149,
      "below": 2150,
      "havent": 2151,
      "alli": 2152,
      "aper": 2153,
      "appe": 2154,
      "supp": 2155,
      "poll": 2156,
      "whole": 2157,
      "gry": 2158,
      "earch": 2159,
      "quar": 2160,
      "lling": 2161,
      "wood": 2162,
      "regular": 2163,
      "jected": 2164,
      "accused": 2165,
      "See": 2166,
      "Read": 2167,
      "company": 2168,
      "airs": 2169,
      "ikanth": 2170,
      "maam": 2171,
      "lakhs": 2172,
      "maintain": 2173,
      "largest": 2174,
      "continue": 2175,
      "listen": 2176,
      "history": 2177,
      "Shah": 2178,
      "First": 2179,
      "Rajinikanth": 2180,
      "300": 2181,
      "65": 2182,
      "75": 2183,
      "Afr": 2184,
      "CC": 2185,
      "Gener": 2186,
      "Ko": 2187,
      "Lu": 2188,
      "Ma": 2189,
      "Now": 2190,
      "Public": 2191,
      "Witnesses": 2192,
      "bab": 2193,
      "dou": 2194,
      "dict": 2195,
      "fell": 2196,
      "ges": 2197,
      "ging": 2198,
      "hol": 2199,
      "jar": 2200,
      "mot": 2201,
      "mist": 2202,
      "nu": 2203,
      "publ": 2204,
      "vil": 2205,
      "inst": 2206,
      "independ": 2207,
      "thew": 2208,
      "research": 2209,
      "itation": 2210,
      "step": 2211,
      "ada": 2212,
      "adv": 2213,
      "Thir": 2214,
      "agree": 2215,
      "ops": 2216,
      "protest": 2217,
      "weet": 2218,
      "iful": 2219,
      "emic": 2220,
      "prices": 2221,
      "Ministers": 2222,
      "award": 2223,
      "2011": 2224,
      "asking": 2225,
      "final": 2226,
      "relation": 2227,
      "icultural": 2228,
      "directed": 2229,
      "services": 2230,
      "books": 2231,
      "protect": 2232,
      "quality": 2233,
      "Everyone": 2234,
      "officials": 2235,
      "demand": 2236,
      "electric": 2237,
      "congregation": 2238,
      "field": 2239,
      "British": 2240,
      "daughter": 2241,
      "Matthew": 2242,
      "ometimes": 2243,
      "frastructure": 2244,
      "Cl": 2245,
      "Four": 2246,
      "GB": 2247,
      "IT": 2248,
      "Jam": 2249,
      "Of": 2250,
      "Red": 2251,
      "Sur": 2252,
      "UN": 2253,
      "blood": 2254,
      "cing": 2255,
      "fur": 2256,
      "fans": 2257,
      "gold": 2258,
      "lap": 2259,
      "mass": 2260,
      "making": 2261,
      "ron": 2262,
      "sou": 2263,
      "send": 2264,
      "uel": 2265,
      "vation": 2266,
      "vest": 2267,
      "thod": 2268,
      "init": 2269,
      "onse": 2270,
      "reli": 2271,
      "encour": 2272,
      "ali": 2273,
      "asion": 2274,
      "amin": 2275,
      "resol": 2276,
      "deal": 2277,
      "riage": 2278,
      "fear": 2279,
      "cially": 2280,
      "kets": 2281,
      "whats": 2282,
      "central": 2283,
      "century": 2284,
      "Sharma": 2285,
      "cricket": 2286,
      "reading": 2287,
      "speed": 2288,
      "built": 2289,
      "Secretary": 2290,
      "foot": 2291,
      "rains": 2292,
      "followed": 2293,
      "morning": 2294,
      "respond": 2295,
      "Engine": 2296,
      "course": 2297,
      "break": 2298,
      "driver": 2299,
      "growth": 2300,
      "Board": 2301,
      "beginning": 2302,
      "religion": 2303,
      "campaign": 2304,
      "Lanka": 2305,
      "likely": 2306,
      "involved": 2307,
      "natural": 2308,
      "beautiful": 2309,
      "38": 2310,
      "Ak": 2311,
      "By": 2312,
      "Bha": 2313,
      "Ira": 2314,
      "Jo": 2315,
      "ML": 2316,
      "Mr": 2317,
      "Met": 2318,
      "Wom": 2319,
      "Yog": 2320,
      "cul": 2321,
      "ger": 2322,
      "hours": 2323,
      "jour": 2324,
      "late": 2325,
      "mun": 2326,
      "pand": 2327,
      "sin": 2328,
      "wro": 2329,
      "wise": 2330,
      "wants": 2331,
      "yal": 2332,
      "income": 2333,
      "once": 2334,
      "rep": 2335,
      "reach": 2336,
      "along": 2337,
      "ark": 2338,
      "iced": 2339,
      "icles": 2340,
      "ioned": 2341,
      "least": 2342,
      "forts": 2343,
      "forces": 2344,
      "Institute": 2345,
      "ager": 2346,
      "const": 2347,
      "across": 2348,
      "ateg": 2349,
      "itha": 2350,
      "theyve": 2351,
      "word": 2352,
      "worth": 2353,
      "worship": 2354,
      "super": 2355,
      "ession": 2356,
      "Child": 2357,
      "policy": 2358,
      "rail": 2359,
      "efforts": 2360,
      "eved": 2361,
      "Assembly": 2362,
      "ension": 2363,
      "claim": 2364,
      "speak": 2365,
      "10000": 2366,
      "evening": 2367,
      "schools": 2368,
      "check": 2369,
      "approved": 2370,
      "Research": 2371,
      "heaven": 2372,
      "population": 2373,
      "strength": 2374,
      "opportunity": 2375,
      "Gujar": 2376,
      "village": 2377,
      "outside": 2378,
      "Education": 2379,
      "gratul": 2380,
      "relationship": 2381,
      "Iraq": 2382,
      "wrote": 2383,
      "Gujarat": 2384,
      "44": 2385,
      "90": 2386,
      "Bol": 2387,
      "Election": 2388,
      "Farm": 2389,
      "Give": 2390,
      "Kan": 2391,
      "MS": 2392,
      "Rail": 2393,
      "Ut": 2394,
      "Vir": 2395,
      "cam": 2396,
      "cated": 2397,
      "game": 2398,
      "non": 2399,
      "oes": 2400,
      "ps": 2401,
      "pen": 2402,
      "pow": 2403,
      "ta": 2404,
      "tific": 2405,
      "watch": 2406,
      "witnesses": 2407,
      "anim": 2408,
      "tom": 2409,
      "stay": 2410,
      "separ": 2411,
      "season": 2412,
      "die": 2413,
      "uty": 2414,
      "govern": 2415,
      "abad": 2416,
      "decl": 2417,
      "department": 2418,
      "front": 2419,
      "prov": 2420,
      "provide": 2421,
      "meas": 2422,
      "save": 2423,
      "worry": 2424,
      "ount": 2425,
      "poration": 2426,
      "inish": 2427,
      "udget": 2428,
      "disci": 2429,
      "box": 2430,
      "board": 2431,
      "198": 2432,
      "manufact": 2433,
      "brought": 2434,
      "Shiv": 2435,
      "Nothing": 2436,
      "crores": 2437,
      "needed": 2438,
      "Good": 2439,
      "leader": 2440,
      "according": 2441,
      "changes": 2442,
      "Trump": 2443,
      "teams": 2444,
      "Super": 2445,
      "issued": 2446,
      "letter": 2447,
      "Because": 2448,
      "continu": 2449,
      "diesel": 2450,
      "groups": 2451,
      "male": 2452,
      "projects": 2453,
      "benefit": 2454,
      "building": 2455,
      "successful": 2456,
      "culture": 2457,
      "scient": 2458,
      "complaint": 2459,
      "caused": 2460,
      "fruit": 2461,
      "established": 2462,
      "construction": 2463,
      "birth": 2464,
      "Council": 2465,
      "International": 2466,
      "General": 2467,
      "Ap": 2468,
      "Bi": 2469,
      "Bl": 2470,
      "Bang": 2471,
      "Cabinet": 2472,
      "East": 2473,
      "Fore": 2474,
      "Hin": 2475,
      "IN": 2476,
      "Krish": 2477,
      "Nav": 2478,
      "Sp": 2479,
      "Sci": 2480,
      "Sep": 2481,
      "Wel": 2482,
      "batt": 2483,
      "cru": 2484,
      "dro": 2485,
      "eyes": 2486,
      "gif": 2487,
      "hot": 2488,
      "ior": 2489,
      "lad": 2490,
      "page": 2491,
      "past": 2492,
      "pose": 2493,
      "sl": 2494,
      "warn": 2495,
      "angry": 2496,
      "reen": 2497,
      "rect": 2498,
      "return": 2499,
      "aly": 2500,
      "alore": 2501,
      "ara": 2502,
      "arth": 2503,
      "arts": 2504,
      "story": 2505,
      "ama": 2506,
      "urch": 2507,
      "urai": 2508,
      "agreed": 2509,
      "ull": 2510,
      "ability": 2511,
      "deb": 2512,
      "safe": 2513,
      "door": 2514,
      "article": 2515,
      "apt": 2516,
      "tele": 2517,
      "tegr": 2518,
      "mob": 2519,
      "istant": 2520,
      "within": 2521,
      "ival": 2522,
      "bodies": 2523,
      "assistance": 2524,
      "rug": 2525,
      "forest": 2526,
      "Commit": 2527,
      "Rajas": 2528,
      "Reg": 2529,
      "played": 2530,
      "Only": 2531,
      "gency": 2532,
      "Trans": 2533,
      "ledge": 2534,
      "jobs": 2535,
      "walk": 2536,
      "promot": 2537,
      "College": 2538,
      "popular": 2539,
      "rules": 2540,
      "received": 2541,
      "military": 2542,
      "authorities": 2543,
      "several": 2544,
      "AR": 2545,
      "Award": 2546,
      "CP": 2547,
      "Ge": 2548,
      "Isa": 2549,
      "Law": 2550,
      "Mon": 2551,
      "Mom": 2552,
      "Pun": 2553,
      "Right": 2554,
      "Tal": 2555,
      "block": 2556,
      "citiz": 2557,
      "ech": 2558,
      "fav": 2559,
      "fast": 2560,
      "hold": 2561,
      "io": 2562,
      "ient": 2563,
      "ipp": 2564,
      "ler": 2565,
      "lic": 2566,
      "moun": 2567,
      "nal": 2568,
      "pie": 2569,
      "ses": 2570,
      "sil": 2571,
      "sad": 2572,
      "sus": 2573,
      "similar": 2574,
      "tor": 2575,
      "tro": 2576,
      "ually": 2577,
      "vol": 2578,
      "ws": 2579,
      "ined": 2580,
      "anj": 2581,
      "erc": 2582,
      "rejected": 2583,
      "isl": 2584,
      "tomat": 2585,
      "aram": 2586,
      "asons": 2587,
      "stor": 2588,
      "rodu": 2589,
      "chall": 2590,
      "force": 2591,
      "mentioned": 2592,
      "lif": 2593,
      "lies": 2594,
      "living": 2595,
      "confir": 2596,
      "load": 2597,
      "memor": 2598,
      "weak": 2599,
      "feet": 2600,
      "oses": 2601,
      "yourself": 2602,
      "hope": 2603,
      "hood": 2604,
      "athi": 2605,
      "rule": 2606,
      "community": 2607,
      "introdu": 2608,
      "color": 2609,
      "phys": 2610,
      "stop": 2611,
      "onda": 2612,
      "captain": 2613,
      "difference": 2614,
      "release": 2615,
      "participate": 2616,
      "ference": 2617,
      "complet": 2618,
      "value": 2619,
      "England": 2620,
      "reported": 2621,
      "modern": 2622,
      "languages": 2623,
      "implemented": 2624,
      "technology": 2625,
      "property": 2626,
      "violence": 2627,
      "strengthen": 2628,
      "green": 2629,
      "message": 2630,
      "Australia": 2631,
      "Medical": 2632,
      "committee": 2633,
      "houses": 2634,
      "Uttar": 2635,
      "App": 2636,
      "Br": 2637,
      "Home": 2638,
      "Pand": 2639,
      "Sen": 2640,
      "Siv": 2641,
      "Ve": 2642,
      "War": 2643,
      "aver": 2644,
      "bar": 2645,
      "bow": 2646,
      "billion": 2647,
      "ding": 2648,
      "dream": 2649,
      "finish": 2650,
      "hra": 2651,
      "kil": 2652,
      "pat": 2653,
      "rup": 2654,
      "rights": 2655,
      "song": 2656,
      "tit": 2657,
      "ude": 2658,
      "warm": 2659,
      "za": 2660,
      "ini": 2661,
      "inary": 2662,
      "online": 2663,
      "isf": 2664,
      "espe": 2665,
      "ley": 2666,
      "lected": 2667,
      "stat": 2668,
      "ides": 2669,
      "ched": 2670,
      "imm": 2671,
      "otal": 2672,
      "opt": 2673,
      "democr": 2674,
      "prophe": 2675,
      "ource": 2676,
      "saf": 2677,
      "weight": 2678,
      "Whos": 2679,
      "doctors": 2680,
      "text": 2681,
      "plant": 2682,
      "explo": 2683,
      "cannot": 2684,
      "cancer": 2685,
      "ends": 2686,
      "ify": 2687,
      "fulfill": 2688,
      "yearold": 2689,
      "Mohan": 2690,
      "cris": 2691,
      "foreign": 2692,
      "statement": 2693,
      "happening": 2694,
      "correct": 2695,
      "transfer": 2696,
      "response": 2697,
      "Sub": 2698,
      "soldi": 2699,
      "France": 2700,
      "petrol": 2701,
      "approach": 2702,
      "period": 2703,
      "model": 2704,
      "shock": 2705,
      "single": 2706,
      "faithful": 2707,
      "Grand": 2708,
      "reedom": 2709,
      "patients": 2710,
      "litre": 2711,
      "opportunities": 2712,
      "Officer": 2713,
      "IPL": 2714,
      "activities": 2715,
      "cript": 2716,
      "discuss": 2717,
      "application": 2718,
      "leaving": 2719,
      "avoid": 2720,
      "soul": 2721,
      "Women": 2722,
      "camera": 2723,
      "Hindu": 2724,
      "Committee": 2725,
      "Rajasthan": 2726,
      "36": 2727,
      "Aj": 2728,
      "Ano": 2729,
      "Bu": 2730,
      "Ed": 2731,
      "Jer": 2732,
      "Jayal": 2733,
      "Mor": 2734,
      "Mus": 2735,
      "Mem": 2736,
      "Po": 2737,
      "Pan": 2738,
      "Pre": 2739,
      "Pal": 2740,
      "Rel": 2741,
      "Ravi": 2742,
      "SC": 2743,
      "TN": 2744,
      "Ze": 2745,
      "aud": 2746,
      "bot": 2747,
      "cities": 2748,
      "hom": 2749,
      "harm": 2750,
      "km": 2751,
      "ks": 2752,
      "mp": 2753,
      "mom": 2754,
      "nut": 2755,
      "pot": 2756,
      "round": 2757,
      "sis": 2758,
      "environment": 2759,
      "alse": 2760,
      "alitha": 2761,
      "stri": 2762,
      "vey": 2763,
      "ayan": 2764,
      "imate": 2765,
      "youth": 2766,
      "def": 2767,
      "consid": 2768,
      "loved": 2769,
      "lywood": 2770,
      "necess": 2771,
      "shot": 2772,
      "apuram": 2773,
      "movie": 2774,
      "plann": 2775,
      "raised": 2776,
      "proud": 2777,
      "partments": 2778,
      "knowledge": 2779,
      "Soci": 2780,
      "ankar": 2781,
      "aily": 2782,
      "Stud": 2783,
      "positive": 2784,
      "preci": 2785,
      "common": 2786,
      "committed": 2787,
      "contain": 2788,
      "gives": 2789,
      "giving": 2790,
      "worlds": 2791,
      "Former": 2792,
      "investigated": 2793,
      "justice": 2794,
      "talked": 2795,
      "decis": 2796,
      "plays": 2797,
      "Program": 2798,
      "clean": 2799,
      "ministry": 2800,
      "highest": 2801,
      "ternal": 2802,
      "address": 2803,
      "affect": 2804,
      "charge": 2805,
      "apply": 2806,
      "Centre": 2807,
      "share": 2808,
      "target": 2809,
      "nearly": 2810,
      "recovered": 2811,
      "recogn": 2812,
      "banks": 2813,
      "patient": 2814,
      "joined": 2815,
      "occasion": 2816,
      "require": 2817,
      "Justice": 2818,
      "currently": 2819,
      "responsibility": 2820,
      "sanction": 2821,
      "System": 2822,
      "Russia": 2823,
      "satisf": 2824,
      "mountain": 2825,
      "34": 2826,
      "37": 2827,
      "600": 2828,
      "AS": 2829,
      "AT": 2830,
      "Ac": 2831,
      "Ag": 2832,
      "Bh": 2833,
      "Bef": 2834,
      "Dep": 2835,
      "Dhan": 2836,
      "ED": 2837,
      "Elect": 2838,
      "Fil": 2839,
      "Fund": 2840,
      "Honda": 2841,
      "Koh": 2842,
      "Last": 2843,
      "Mu": 2844,
      "Mod": 2845,
      "Oc": 2846,
      "Pat": 2847,
      "Psal": 2848,
      "Ru": 2849,
      "Rom": 2850,
      "Wash": 2851,
      "cop": 2852,
      "cast": 2853,
      "cash": 2854,
      "flood": 2855,
      "iy": 2856,
      "ja": 2857,
      "ox": 2858,
      "uary": 2859,
      "van": 2860,
      "vit": 2861,
      "wish": 2862,
      "yl": 2863,
      "threat": 2864,
      "integr": 2865,
      "atory": 2866,
      "isnt": 2867,
      "encies": 2868,
      "aled": 2869,
      "alone": 2870,
      "tober": 2871,
      "assembly": 2872,
      "heard": 2873,
      "ici": 2874,
      "omb": 2875,
      "older": 2876,
      "Inform": 2877,
      "Industri": 2878,
      "allo": 2879,
      "usal": 2880,
      "resign": 2881,
      "etc": 2882,
      "ables": 2883,
      "devot": 2884,
      "cons": 2885,
      "provid": 2886,
      "progress": 2887,
      "except": 2888,
      "okay": 2889,
      "active": 2890,
      "achi": 2891,
      "195": 2892,
      "scri": 2893,
      "position": 2894,
      "2013": 2895,
      "2015": 2896,
      "contest": 2897,
      "interview": 2898,
      "attended": 2899,
      "studying": 2900,
      "icked": 2901,
      "Comp": 2902,
      "college": 2903,
      "talks": 2904,
      "playing": 2905,
      "careful": 2906,
      "draw": 2907,
      "Andhra": 2908,
      "Leg": 2909,
      "1000": 2910,
      "2000": 2911,
      "Once": 2912,
      "max": 2913,
      "tempt": 2914,
      "increasing": 2915,
      "certain": 2916,
      "Mark": 2917,
      "testing": 2918,
      "Peter": 2919,
      "operative": 2920,
      "complete": 2921,
      "custo": 2922,
      "issues": 2923,
      "informed": 2924,
      "Office": 2925,
      "normal": 2926,
      "Madurai": 2927,
      "histor": 2928,
      "society": 2929,
      "fighting": 2930,
      "Malayal": 2931,
      "wait": 2932,
      "waiting": 2933,
      "opposition": 2934,
      "appointed": 2935,
      "published": 2936,
      "install": 2937,
      "initi": 2938,
      "Welfare": 2939,
      "completely": 2940,
      "Another": 2941,
      "Jayalalitha": 2942,
      "Before": 2943,
      "Kohli": 2944,
      "October": 2945,
      "Malayalam": 2946,
      "AF": 2947,
      "AM": 2948,
      "Aff": 2949,
      "Best": 2950,
      "DP": 2951,
      "Kap": 2952,
      "Min": 2953,
      "Ra": 2954,
      "Rural": 2955,
      "Tw": 2956,
      "athe": 2957,
      "bul": 2958,
      "bread": 2959,
      "ded": 2960,
      "danger": 2961,
      "drug": 2962,
      "equ": 2963,
      "fix": 2964,
      "jun": 2965,
      "mas": 2966,
      "mach": 2967,
      "ns": 2968,
      "nant": 2969,
      "path": 2970,
      "sac": 2971,
      "tree": 2972,
      "vacc": 2973,
      "ye": 2974,
      "ze": 2975,
      "ints": 2976,
      "infe": 2977,
      "inem": 2978,
      "institut": 2979,
      "influ": 2980,
      "anath": 2981,
      "ongoing": 2982,
      "represent": 2983,
      "removed": 2984,
      "reasons": 2985,
      "alam": 2986,
      "eder": 2987,
      "anda": 2988,
      "itter": 2989,
      "often": 2990,
      "staff": 2991,
      "ention": 2992,
      "veget": 2993,
      "amy": 2994,
      "among": 2995,
      "sec": 2996,
      "seems": 2997,
      "iri": 2998,
      "urre": 2999,
      "goes": 3000,
      "comb": 3001,
      "concer": 3002,
      "contribut": 3003,
      "estic": 3004,
      "method": 3005,
      "shop": 3006,
      "river": 3007,
      "fee": 3008,
      "tember": 3009,
      "sugar": 3010,
      "porters": 3011,
      "exc": 3012,
      "permission": 3013,
      "Weve": 3014,
      "host": 3015,
      "orders": 3016,
      "athers": 3017,
      "forms": 3018,
      "197": 3019,
      "cky": 3020,
      "bless": 3021,
      "Show": 3022,
      "command": 3023,
      "commun": 3024,
      "crow": 3025,
      "helped": 3026,
      "marriage": 3027,
      "leading": 3028,
      "Security": 3029,
      "conditions": 3030,
      "Produ": 3031,
      "selves": 3032,
      "park": 3033,
      "products": 3034,
      "surv": 3035,
      "following": 3036,
      "object": 3037,
      "posted": 3038,
      "Management": 3039,
      "programme": 3040,
      "cultural": 3041,
      "employment": 3042,
      "huge": 3043,
      "Assam": 3044,
      "Bengaluru": 3045,
      "damaged": 3046,
      "connection": 3047,
      "fruits": 3048,
      "Finance": 3049,
      "Like": 3050,
      "conduct": 3051,
      "Bharat": 3052,
      "practice": 3053,
      "CBI": 3054,
      "scored": 3055,
      "Hello": 3056,
      "supply": 3057,
      "Africa": 3058,
      "baby": 3059,
      "nuclear": 3060,
      "Children": 3061,
      "September": 3062,
      "Isaiah": 3063,
      "especially": 3064,
      "crisis": 3065,
      "necessary": 3066,
      "Che": 3067,
      "Come": 3068,
      "Eas": 3069,
      "Fo": 3070,
      "Famil": 3071,
      "Gold": 3072,
      "Heres": 3073,
      "IM": 3074,
      "Jay": 3075,
      "Kamal": 3076,
      "Lakh": 3077,
      "Lond": 3078,
      "Mot": 3079,
      "Moses": 3080,
      "Post": 3081,
      "Sche": 3082,
      "Similar": 3083,
      "Tim": 3084,
      "UP": 3085,
      "Watch": 3086,
      "cot": 3087,
      "cir": 3088,
      "cum": 3089,
      "cational": 3090,
      "daily": 3091,
      "fail": 3092,
      "false": 3093,
      "gl": 3094,
      "gather": 3095,
      "hall": 3096,
      "hya": 3097,
      "ias": 3098,
      "ique": 3099,
      "jab": 3100,
      "kids": 3101,
      "mult": 3102,
      "phas": 3103,
      "rise": 3104,
      "sor": 3105,
      "smo": 3106,
      "squ": 3107,
      "sons": 3108,
      "tweet": 3109,
      "ub": 3110,
      "wide": 3111,
      "ina": 3112,
      "onal": 3113,
      "remember": 3114,
      "ening": 3115,
      "enjoy": 3116,
      "ork": 3117,
      "ari": 3118,
      "araj": 3119,
      "amed": 3120,
      "amount": 3121,
      "sea": 3122,
      "sex": 3123,
      "sequ": 3124,
      "ays": 3125,
      "church": 3126,
      "forget": 3127,
      "uries": 3128,
      "igr": 3129,
      "aging": 3130,
      "dev": 3131,
      "congratul": 3132,
      "ained": 3133,
      "shown": 3134,
      "While": 3135,
      "female": 3136,
      "exerc": 3137,
      "acts": 3138,
      "kept": 3139,
      "perfect": 3140,
      "gradu": 3141,
      "ght": 3142,
      "emot": 3143,
      "princi": 3144,
      "audi": 3145,
      "effort": 3146,
      "getting": 3147,
      "scene": 3148,
      "brah": 3149,
      "cred": 3150,
      "caught": 3151,
      "speech": 3152,
      "pressure": 3153,
      "write": 3154,
      "mercy": 3155,
      "colour": 3156,
      "guid": 3157,
      "Art": 3158,
      "condition": 3159,
      "Project": 3160,
      "parts": 3161,
      "focus": 3162,
      "produced": 3163,
      "hospitals": 3164,
      "leges": 3165,
      "higher": 3166,
      "humans": 3167,
      "closed": 3168,
      "chay": 3169,
      "solution": 3170,
      "laws": 3171,
      "spirit": 3172,
      "Chinese": 3173,
      "shared": 3174,
      "passed": 3175,
      "viral": 3176,
      "drive": 3177,
      "Corporation": 3178,
      "girls": 3179,
      "dustry": 3180,
      "America": 3181,
      "agriculture": 3182,
      "terrorism": 3183,
      "labor": 3184,
      "Agricultural": 3185,
      "born": 3186,
      "vehicles": 3187,
      "administration": 3188,
      "prison": 3189,
      "Crores": 3190,
      "companies": 3191,
      "Technology": 3192,
      "steps": 3193,
      "Jammu": 3194,
      "pandemic": 3195,
      "Bollywood": 3196,
      "Virat": 3197,
      "measures": 3198,
      "gift": 3199,
      "Punjab": 3200,
      "islative": 3201,
      "challeng": 3202,
      "safety": 3203,
      "Jerusal": 3204,
      "decisions": 3205,
      "Affairs": 3206,
      "45": 3207,
      "48": 3208,
      "Ali": 3209,
      "ADMK": 3210,
      "Cont": 3211,
      "Civ": 3212,
      "Cup": 3213,
      "During": 3214,
      "Host": 3215,
      "Jap": 3216,
      "Kol": 3217,
      "Mess": 3218,
      "Nar": 3219,
      "Nep": 3220,
      "Nagar": 3221,
      "Pet": 3222,
      "Up": 3223,
      "Water": 3224,
      "cas": 3225,
      "cere": 3226,
      "cold": 3227,
      "dad": 3228,
      "dist": 3229,
      "data": 3230,
      "eight": 3231,
      "ecut": 3232,
      "freedom": 3233,
      "ga": 3234,
      "ier": 3235,
      "jail": 3236,
      "ka": 3237,
      "nel": 3238,
      "pack": 3239,
      "size": 3240,
      "tou": 3241,
      "table": 3242,
      "isation": 3243,
      "estern": 3244,
      "aland": 3245,
      "edding": 3246,
      "ione": 3247,
      "bey": 3248,
      "beat": 3249,
      "seeds": 3250,
      "idd": 3251,
      "hair": 3252,
      "rog": 3253,
      "ford": 3254,
      "forgot": 3255,
      "irman": 3256,
      "ague": 3257,
      "units": 3258,
      "oples": 3259,
      "uses": 3260,
      "resh": 3261,
      "reser": 3262,
      "resources": 3263,
      "goal": 3264,
      "depos": 3265,
      "comfort": 3266,
      "composed": 3267,
      "condem": 3268,
      "log": 3269,
      "loving": 3270,
      "neg": 3271,
      "ney": 3272,
      "ither": 3273,
      "feat": 3274,
      "cient": 3275,
      "civil": 3276,
      "ivity": 3277,
      "distribut": 3278,
      "file": 3279,
      "events": 3280,
      "evidence": 3281,
      "cover": 3282,
      "spend": 3283,
      "gets": 3284,
      "happens": 3285,
      "newsp": 3286,
      "points": 3287,
      "Shankar": 3288,
      "awards": 3289,
      "2012": 3290,
      "2014": 3291,
      "speaking": 3292,
      "joint": 3293,
      "helps": 3294,
      "engers": 3295,
      "Arab": 3296,
      "Army": 3297,
      "looked": 3298,
      "condol": 3299,
      "surance": 3300,
      "followers": 3301,
      "March": 3302,
      "ushed": 3303,
      "developed": 3304,
      "include": 3305,
      "traff": 3306,
      "sett": 3307,
      "salt": 3308,
      "schemes": 3309,
      "teacher": 3310,
      "kingdom": 3311,
      "purpose": 3312,
      "vote": 3313,
      "votes": 3314,
      "promise": 3315,
      "Book": 3316,
      "general": 3317,
      "generation": 3318,
      "treated": 3319,
      "technical": 3320,
      "facility": 3321,
      "facilities": 3322,
      "sides": 3323,
      "opposed": 3324,
      "science": 3325,
      "signed": 3326,
      "energy": 3327,
      "named": 3328,
      "recorded": 3329,
      "Assistant": 3330,
      "activity": 3331,
      "Service": 3332,
      "critical": 3333,
      "conducted": 3334,
      "photos": 3335,
      "AIADMK": 3336,
      "Agriculture": 3337,
      "GST": 3338,
      "vehicle": 3339,
      "allowed": 3340,
      "candidate": 3341,
      "alliance": 3342,
      "independence": 3343,
      "Class": 3344,
      "railway": 3345,
      "Farmers": 3346,
      "confirmed": 3347,
      "average": 3348,
      "explos": 3349,
      "soldiers": 3350,
      "Muslim": 3351,
      "sanctioned": 3352,
      "Dhanush": 3353,
      "Washing": 3354,
      "maximum": 3355,
      "Twitter": 3356,
      "Family": 3357,
      "London": 3358,
      "Scheme": 3359,
      "Japan": 3360,
      "33": 3361,
      "46": 3362,
      "400": 3363,
      "69": 3364,
      "79": 3365,
      "Ah": 3366,
      "Ash": 3367,
      "Apart": 3368,
      "Actor": 3369,
      "Abrah": 3370,
      "BS": 3371,
      "Ban": 3372,
      "Bal": 3373,
      "Bab": 3374,
      "Back": 3375,
      "CS": 3376,
      "Car": 3377,
      "Cle": 3378,
      "City": 3379,
      "Div": 3380,
      "Earth": 3381,
      "Gang": 3382,
      "Hum": 3383,
      "Land": 3384,
      "List": 3385,
      "Muk": 3386,
      "Nag": 3387,
      "Power": 3388,
      "SS": 3389,
      "Sometimes": 3390,
      "Tur": 3391,
      "Times": 3392,
      "Training": 3393,
      "Vice": 3394,
      "York": 3395,
      "bh": 3396,
      "ball": 3397,
      "bapt": 3398,
      "cou": 3399,
      "cue": 3400,
      "ders": 3401,
      "eth": 3402,
      "gent": 3403,
      "hit": 3404,
      "iet": 3405,
      "iya": 3406,
      "lat": 3407,
      "link": 3408,
      "mine": 3409,
      "nes": 3410,
      "nation": 3411,
      "rice": 3412,
      "rap": 3413,
      "rank": 3414,
      "sn": 3415,
      "slow": 3416,
      "simple": 3417,
      "uter": 3418,
      "vin": 3419,
      "wid": 3420,
      "wind": 3421,
      "inam": 3422,
      "inch": 3423,
      "infrastructure": 3424,
      "ancient": 3425,
      "recomm": 3426,
      "reports": 3427,
      "enced": 3428,
      "ale": 3429,
      "ality": 3430,
      "asan": 3431,
      "associ": 3432,
      "oftw": 3433,
      "lex": 3434,
      "star": 3435,
      "entire": 3436,
      "select": 3437,
      "idge": 3438,
      "adem": 3439,
      "chol": 3440,
      "vert": 3441,
      "ims": 3442,
      "image": 3443,
      "territ": 3444,
      "Through": 3445,
      "Invest": 3446,
      "uti": 3447,
      "trade": 3448,
      "cember": 3449,
      "akumar": 3450,
      "ode": 3451,
      "deter": 3452,
      "demon": 3453,
      "comed": 3454,
      "comment": 3455,
      "wash": 3456,
      "propos": 3457,
      "ighte": 3458,
      "worried": 3459,
      "exper": 3460,
      "Chand": 3461,
      "acting": 3462,
      "endra": 3463,
      "raz": 3464,
      "partners": 3465,
      "Prab": 3466,
      "worked": 3467,
      "ousness": 3468,
      "coast": 3469,
      "space": 3470,
      "idea": 3471,
      "management": 3472,
      "scared": 3473,
      "branch": 3474,
      "Most": 3475,
      "commod": 3476,
      "calls": 3477,
      "December": 3478,
      "enger": 3479,
      "itude": 3480,
      "decide": 3481,
      "officer": 3482,
      "direction": 3483,
      "serving": 3484,
      "temples": 3485,
      "surpr": 3486,
      "mortem": 3487,
      "transl": 3488,
      "travel": 3489,
      "design": 3490,
      "solved": 3491,
      "Colle": 3492,
      "Organ": 3493,
      "voice": 3494,
      "trees": 3495,
      "religious": 3496,
      "liter": 3497,
      "announce": 3498,
      "judge": 3499,
      "thousands": 3500,
      "directly": 3501,
      "Germany": 3502,
      "candidates": 3503,
      "whether": 3504,
      "picture": 3505,
      "diseases": 3506,
      "punish": 3507,
      "studies": 3508,
      "Maha": 3509,
      "powder": 3510,
      "tificate": 3511,
      "television": 3512,
      "Memor": 3513,
      "sisters": 3514,
      "Programme": 3515,
      "Industrial": 3516,
      "Jayalalithaa": 3517,
      "institutions": 3518,
      "Eastern": 3519,
      "newspaper": 3520,
      "Abraham": 3521,
      "oftware": 3522,
      "67": 3523,
      "Ay": 3524,
      "Amit": 3525,
      "Budd": 3526,
      "Des": 3527,
      "Due": 3528,
      "ES": 3529,
      "Econom": 3530,
      "Gen": 3531,
      "June": 3532,
      "Kal": 3533,
      "Let": 3534,
      "Music": 3535,
      "Nath": 3536,
      "PO": 3537,
      "PS": 3538,
      "Ref": 3539,
      "Rep": 3540,
      "Sm": 3541,
      "Sir": 3542,
      "Script": 3543,
      "Total": 3544,
      "Use": 3545,
      "Val": 3546,
      "Vill": 3547,
      "bon": 3548,
      "budget": 3549,
      "categ": 3550,
      "equal": 3551,
      "fit": 3552,
      "fuel": 3553,
      "gment": 3554,
      "gard": 3555,
      "gust": 3556,
      "hid": 3557,
      "lin": 3558,
      "mic": 3559,
      "mus": 3560,
      "might": 3561,
      "nice": 3562,
      "nings": 3563,
      "pa": 3564,
      "preg": 3565,
      "pens": 3566,
      "ti": 3567,
      "tests": 3568,
      "ug": 3569,
      "vind": 3570,
      "vious": 3571,
      "wicked": 3572,
      "thi": 3573,
      "inth": 3574,
      "ane": 3575,
      "error": 3576,
      "ony": 3577,
      "review": 3578,
      "ises": 3579,
      "escap": 3580,
      "asad": 3581,
      "ander": 3582,
      "hear": 3583,
      "ilater": 3584,
      "icated": 3585,
      "ickets": 3586,
      "ently": 3587,
      "vember": 3588,
      "bear": 3589,
      "began": 3590,
      "sets": 3591,
      "section": 3592,
      "roll": 3593,
      "adha": 3594,
      "adav": 3595,
      "advice": 3596,
      "ows": 3597,
      "elder": 3598,
      "tery": 3599,
      "terday": 3600,
      "ills": 3601,
      "illions": 3602,
      "white": 3603,
      "trial": 3604,
      "hasnt": 3605,
      "ung": 3606,
      "results": 3607,
      "aksh": 3608,
      "eting": 3609,
      "conference": 3610,
      "neigh": 3611,
      "apost": 3612,
      "feed": 3613,
      "teen": 3614,
      "anymore": 3615,
      "exist": 3616,
      "actors": 3617,
      "Theyll": 3618,
      "endment": 3619,
      "raise": 3620,
      "ardhan": 3621,
      "ifty": 3622,
      "emer": 3623,
      "quick": 3624,
      "angels": 3625,
      "arya": 3626,
      "Asia": 3627,
      "itting": 3628,
      "scream": 3629,
      "medic": 3630,
      "mbol": 3631,
      "serve": 3632,
      "prepare": 3633,
      "commission": 3634,
      "November": 3635,
      "jee": 3636,
      "cles": 3637,
      "herit": 3638,
      "collap": 3639,
      "Second": 3640,
      "guy": 3641,
      "examination": 3642,
      "produce": 3643,
      "addition": 3644,
      "domestic": 3645,
      "healthy": 3646,
      "transport": 3647,
      "deaths": 3648,
      "roads": 3649,
      "inside": 3650,
      "weeks": 3651,
      "north": 3652,
      "Everything": 3653,
      "prayers": 3654,
      "implementation": 3655,
      "flowers": 3656,
      "leadership": 3657,
      "privile": 3658,
      "Tiruv": 3659,
      "damage": 3660,
      "fisher": 3661,
      "Author": 3662,
      "critic": 3663,
      "basic": 3664,
      "risk": 3665,
      "parent": 3666,
      "Employ": 3667,
      "German": 3668,
      "drinking": 3669,
      "Crore": 3670,
      "Phil": 3671,
      "disease": 3672,
      "destroyed": 3673,
      "Kannada": 3674,
      "quarters": 3675,
      "fellow": 3676,
      "relief": 3677,
      "resolution": 3678,
      "MLAs": 3679,
      "constitu": 3680,
      "animals": 3681,
      "disciples": 3682,
      "continued": 3683,
      "birthday": 3684,
      "battle": 3685,
      "mobile": 3686,
      "favor": 3687,
      "torque": 3688,
      "troops": 3689,
      "rupt": 3690,
      "defence": 3691,
      "planning": 3692,
      "Society": 3693,
      "Students": 3694,
      "Psalm": 3695,
      "vitamin": 3696,
      "Legislative": 3697,
      "sacri": 3698,
      "urrection": 3699,
      "Similarly": 3700,
      "tweeted": 3701,
      "Jerusalem": 3702,
      "Hostel": 3703,
      "Nepal": 3704,
      "ceremon": 3705,
      "ilateral": 3706,
      "39": 3707,
      "3000": 3708,
      "Apr": 3709,
      "Bro": 3710,
      "DS": 3711,
      "Di": 3712,
      "ER": 3713,
      "El": 3714,
      "Fe": 3715,
      "Fren": 3716,
      "Father": 3717,
      "Ha": 3718,
      "Happ": 3719,
      "Id": 3720,
      "Ji": 3721,
      "Job": 3722,
      "July": 3723,
      "Mun": 3724,
      "Mission": 3725,
      "NA": 3726,
      "Nam": 3727,
      "Nir": 3728,
      "PR": 3729,
      "Put": 3730,
      "Pers": 3731,
      "Sa": 3732,
      "Sum": 3733,
      "Sures": 3734,
      "Word": 3735,
      "Yadav": 3736,
      "bes": 3737,
      "border": 3738,
      "cat": 3739,
      "cake": 3740,
      "dress": 3741,
      "either": 3742,
      "fest": 3743,
      "fathers": 3744,
      "gun": 3745,
      "hat": 3746,
      "ken": 3747,
      "ming": 3748,
      "mad": 3749,
      "makes": 3750,
      "ped": 3751,
      "rin": 3752,
      "ras": 3753,
      "rural": 3754,
      "sul": 3755,
      "sound": 3756,
      "sens": 3757,
      "skill": 3758,
      "south": 3759,
      "session": 3760,
      "va": 3761,
      "vac": 3762,
      "wis": 3763,
      "wedding": 3764,
      "yell": 3765,
      "thus": 3766,
      "ising": 3767,
      "enem": 3768,
      "orig": 3769,
      "ority": 3770,
      "tomor": 3771,
      "argu": 3772,
      "iture": 3773,
      "iles": 3774,
      "ications": 3775,
      "ster": 3776,
      "stone": 3777,
      "stress": 3778,
      "seat": 3779,
      "sell": 3780,
      "iday": 3781,
      "chill": 3782,
      "arent": 3783,
      "imbat": 3784,
      "diag": 3785,
      "elders": 3786,
      "Inter": 3787,
      "Instead": 3788,
      "whom": 3789,
      "iger": 3790,
      "agiri": 3791,
      "unit": 3792,
      "university": 3793,
      "ula": 3794,
      "lie": 3795,
      "conut": 3796,
      "loans": 3797,
      "lying": 3798,
      "weap": 3799,
      "rief": 3800,
      "theyll": 3801,
      "docu": 3802,
      "plans": 3803,
      "oke": 3804,
      "cific": 3805,
      "osop": 3806,
      "actress": 3807,
      "raft": 3808,
      "angana": 3809,
      "dismiss": 3810,
      "ipur": 3811,
      "ishw": 3812,
      "pleas": 3813,
      "Social": 3814,
      "cool": 3815,
      "counts": 3816,
      "spent": 3817,
      "aik": 3818,
      "lower": 3819,
      "brand": 3820,
      "cks": 3821,
      "blame": 3822,
      "black": 3823,
      "goods": 3824,
      "Youre": 3825,
      "shouldnt": 3826,
      "crime": 3827,
      "cross": 3828,
      "undergoing": 3829,
      "ption": 3830,
      "importance": 3831,
      "monitor": 3832,
      "forever": 3833,
      "takes": 3834,
      "Commun": 3835,
      "colleges": 3836,
      "guar": 3837,
      "Arun": 3838,
      "version": 3839,
      "relations": 3840,
      "relatives": 3841,
      "125": 3842,
      "rown": 3843,
      "phil": 3844,
      "airport": 3845,
      "incidents": 3846,
      "ika": 3847,
      "belief": 3848,
      "producer": 3849,
      "temper": 3850,
      "survey": 3851,
      "Maruti": 3852,
      "meetings": 3853,
      "Singap": 3854,
      "symbol": 3855,
      "ological": 3856,
      "Coimbat": 3857,
      "believers": 3858,
      "wonder": 3859,
      "aught": 3860,
      "postmortem": 3861,
      "Actress": 3862,
      "hands": 3863,
      "garlic": 3864,
      "facts": 3865,
      "tops": 3866,
      "Mahind": 3867,
      "protection": 3868,
      "situations": 3869,
      "nearby": 3870,
      "organization": 3871,
      "benefits": 3872,
      "ruling": 3873,
      "receip": 3874,
      "badly": 3875,
      "fallen": 3876,
      "Telangana": 3877,
      "spoken": 3878,
      "milk": 3879,
      "Official": 3880,
      "various": 3881,
      "victory": 3882,
      "honor": 3883,
      "fields": 3884,
      "discussed": 3885,
      "basis": 3886,
      "effective": 3887,
      "expressed": 3888,
      "skin": 3889,
      "suffering": 3890,
      "European": 3891,
      "easy": 3892,
      "Sunday": 3893,
      "hurt": 3894,
      "Hyder": 3895,
      "CCTV": 3896,
      "doub": 3897,
      "mistake": 3898,
      "electricity": 3899,
      "further": 3900,
      "massive": 3901,
      "Metro": 3902,
      "separate": 3903,
      "declared": 3904,
      "provided": 3905,
      "scientific": 3906,
      "Appl": 3907,
      "Krishn": 3908,
      "Navy": 3909,
      "Geor": 3910,
      "title": 3911,
      "democracy": 3912,
      "fulfilled": 3913,
      "Deputy": 3914,
      "Information": 3915,
      "devotees": 3916,
      "credit": 3917,
      "Civil": 3918,
      "ecutive": 3919,
      "condolences": 3920,
      "traffic": 3921,
      "Washington": 3922,
      "Economic": 3923,
      "Scriptures": 3924,
      "quickly": 3925,
      "French": 3926,
      "Suresh": 3927,
      "tomorrow": 3928,
      "Coimbatore": 3929,
      "120": 3930,
      "55": 3931,
      "78": 3932,
      "AP": 3933,
      "Ant": 3934,
      "Ben": 3935,
      "Bar": 3936,
      "CA": 3937,
      "Cap": 3938,
      "Dan": 3939,
      "Def": 3940,
      "Ez": 3941,
      "FI": 3942,
      "Follow": 3943,
      "Get": 3944,
      "Girl": 3945,
      "Green": 3946,
      "Hol": 3947,
      "Him": 3948,
      "Kam": 3949,
      "Kore": 3950,
      "La": 3951,
      "MC": 3952,
      "Ms": 3953,
      "Mic": 3954,
      "Main": 3955,
      "Nm": 3956,
      "Next": 3957,
      "OR": 3958,
      "Out": 3959,
      "Ran": 3960,
      "Rev": 3961,
      "Roh": 3962,
      "Ste": 3963,
      "Select": 3964,
      "Time": 3965,
      "Tem": 3966,
      "UT": 3967,
      "Ur": 3968,
      "Ven": 3969,
      "Vardhan": 3970,
      "bra": 3971,
      "base": 3972,
      "bomb": 3973,
      "cel": 3974,
      "ets": 3975,
      "figh": 3976,
      "frequ": 3977,
      "gur": 3978,
      "hind": 3979,
      "knew": 3980,
      "lam": 3981,
      "lod": 3982,
      "oor": 3983,
      "obey": 3984,
      "ping": 3985,
      "pione": 3986,
      "righte": 3987,
      "sen": 3988,
      "sam": 3989,
      "sick": 3990,
      "sometimes": 3991,
      "tai": 3992,
      "tty": 3993,
      "taught": 3994,
      "udi": 3995,
      "ww": 3996,
      "wing": 3997,
      "tha": 3998,
      "inqu": 3999,
      "instru": 4000,
      "industri": 4001,
      "ansa": 4002,
      "reet": 4003,
      "refer": 4004,
      "reporters": 4005,
      "isha": 4006,
      "istr": 4007,
      "ened": 4008,
      "ouble": 4009,
      "iter": 4010,
      "ilk": 4011,
      "ental": 4012,
      "veli": 4013,
      "seem": 4014,
      "seized": 4015,
      "selling": 4016,
      "chan": 4017,
      "chance": 4018,
      "forward": 4019,
      "verse": 4020,
      "imin": 4021,
      "youve": 4022,
      "ots": 4023,
      "irs": 4024,
      "elveli": 4025,
      "Independ": 4026,
      "Infrastructure": 4027,
      "ute": 4028,
      "track": 4029,
      "transa": 4030,
      "igation": 4031,
      "unelveli": 4032,
      "opin": 4033,
      "rescu": 4034,
      "rescue": 4035,
      "gods": 4036,
      "akk": 4037,
      "akash": 4038,
      "departments": 4039,
      "competition": 4040,
      "lied": 4041,
      "loan": 4042,
      "lose": 4043,
      "logy": 4044,
      "Indians": 4045,
      "note": 4046,
      "notification": 4047,
      "suit": 4048,
      "istic": 4049,
      "oss": 4050,
      "actions": 4051,
      "polic": 4052,
      "ava": 4053,
      "perman": 4054,
      "ender": 4055,
      "grad": 4056,
      "ghan": 4057,
      "Prasad": 4058,
      "Prakash": 4059,
      "covered": 4060,
      "cooperation": 4061,
      "counsel": 4062,
      "happiness": 4063,
      "velation": 4064,
      "Ask": 4065,
      "brain": 4066,
      "centre": 4067,
      "preach": 4068,
      "predict": 4069,
      "contact": 4070,
      "clash": 4071,
      "Isnt": 4072,
      "Under": 4073,
      "worldwide": 4074,
      "icks": 4075,
      "choose": 4076,
      "collabor": 4077,
      "Doctor": 4078,
      "carefully": 4079,
      "compens": 4080,
      "womens": 4081,
      "2007": 4082,
      "flight": 4083,
      "ships": 4084,
      "servation": 4085,
      "powerful": 4086,
      "capac": 4087,
      "charges": 4088,
      "subst": 4089,
      "friendship": 4090,
      "desc": 4091,
      "headed": 4092,
      "complex": 4093,
      "Cooperative": 4094,
      "strugg": 4095,
      "Constitution": 4096,
      "Someone": 4097,
      "Acts": 4098,
      "smart": 4099,
      "biggest": 4100,
      "growing": 4101,
      "Corinth": 4102,
      "opened": 4103,
      "levels": 4104,
      "benefici": 4105,
      "prayer": 4106,
      "individ": 4107,
      "opposite": 4108,
      "employees": 4109,
      "matches": 4110,
      "feeling": 4111,
      "learning": 4112,
      "Tirunelveli": 4113,
      "possibility": 4114,
      "Officers": 4115,
      "reduced": 4116,
      "movement": 4117,
      "August": 4118,
      "Salem": 4119,
      "congregations": 4120,
      "Harsh": 4121,
      "confidence": 4122,
      "labour": 4123,
      "Keep": 4124,
      "Sonia": 4125,
      "accepted": 4126,
      "responsible": 4127,
      "administrative": 4128,
      "January": 4129,
      "tourism": 4130,
      "magaz": 4131,
      "pictures": 4132,
      "Engineering": 4133,
      "journal": 4134,
      "manufacturing": 4135,
      "cruel": 4136,
      "drop": 4137,
      "lady": 4138,
      "Transport": 4139,
      "promote": 4140,
      "citizens": 4141,
      "introduced": 4142,
      "physical": 4143,
      "finished": 4144,
      "prophecy": 4145,
      "bottom": 4146,
      "requirements": 4147,
      "mountains": 4148,
      "custody": 4149,
      "inema": 4150,
      "ederation": 4151,
      "exercise": 4152,
      "touch": 4153,
      "iddle": 4154,
      "forgotten": 4155,
      "bhp": 4156,
      "latest": 4157,
      "recommend": 4158,
      "proposal": 4159,
      "escaped": 4160,
      "ceremony": 4161,
      "April": 4162,
      "philosop": 4163,
      "Singapore": 4164,
      "receipt": 4165,
      "Girls": 4166,
      "lodged": 4167,
      "permanent": 4168,
      "42": 4169,
      "54": 4170,
      "Af": 4171,
      "Amb": 4172,
      "Aishw": 4173,
      "Ber": 4174,
      "Bre": 4175,
      "Bush": 4176,
      "Braz": 4177,
      "DI": 4178,
      "Dad": 4179,
      "Donal": 4180,
      "Fans": 4181,
      "Face": 4182,
      "Gree": 4183,
      "Great": 4184,
      "Hist": 4185,
      "House": 4186,
      "Jud": 4187,
      "Kur": 4188,
      "Kings": 4189,
      "Lad": 4190,
      "Lab": 4191,
      "Life": 4192,
      "Mand": 4193,
      "NC": 4194,
      "Ob": 4195,
      "Odis": 4196,
      "Pad": 4197,
      "Pul": 4198,
      "Sel": 4199,
      "TT": 4200,
      "Tor": 4201,
      "Ud": 4202,
      "Vel": 4203,
      "ba": 4204,
      "bail": 4205,
      "bound": 4206,
      "bann": 4207,
      "catch": 4208,
      "dated": 4209,
      "dark": 4210,
      "duty": 4211,
      "ee": 4212,
      "eating": 4213,
      "fig": 4214,
      "ires": 4215,
      "iant": 4216,
      "ially": 4217,
      "kg": 4218,
      "kers": 4219,
      "leng": 4220,
      "mand": 4221,
      "millions": 4222,
      "pil": 4223,
      "pter": 4224,
      "pair": 4225,
      "rally": 4226,
      "source": 4227,
      "till": 4228,
      "vant": 4229,
      "wan": 4230,
      "wat": 4231,
      "west": 4232,
      "wine": 4233,
      "witness": 4234,
      "yan": 4235,
      "yle": 4236,
      "inno": 4237,
      "instead": 4238,
      "innings": 4239,
      "ancing": 4240,
      "erve": 4241,
      "repe": 4242,
      "reven": 4243,
      "request": 4244,
      "remain": 4245,
      "remove": 4246,
      "ena": 4247,
      "alog": 4248,
      "alleg": 4249,
      "aste": 4250,
      "ita": 4251,
      "hell": 4252,
      "illegal": 4253,
      "ican": 4254,
      "bel": 4255,
      "belong": 4256,
      "becoming": 4257,
      "ams": 4258,
      "selected": 4259,
      "habit": 4260,
      "ayam": 4261,
      "advis": 4262,
      "chi": 4263,
      "ches": 4264,
      "oted": 4265,
      "dig": 4266,
      "iry": 4267,
      "Thousand": 4268,
      "Thanj": 4269,
      "urs": 4270,
      "opal": 4271,
      "abs": 4272,
      "abilities": 4273,
      "dece": 4274,
      "lier": 4275,
      "wasnt": 4276,
      "convict": 4277,
      "estim": 4278,
      "acqu": 4279,
      "shipp": 4280,
      "web": 4281,
      "noticed": 4282,
      "moving": 4283,
      "Hebre": 4284,
      "plants": 4285,
      "ahs": 4286,
      "avur": 4287,
      "grant": 4288,
      "empt": 4289,
      "empower": 4290,
      "print": 4291,
      "effic": 4292,
      "Prof": 4293,
      "Price": 4294,
      "Princi": 4295,
      "astro": 4296,
      "ishing": 4297,
      "evil": 4298,
      "ously": 4299,
      "coot": 4300,
      "coconut": 4301,
      "myself": 4302,
      "aji": 4303,
      "Ang": 4304,
      "manual": 4305,
      "taluk": 4306,
      "invited": 4307,
      "hib": 4308,
      "centres": 4309,
      "Moham": 4310,
      "crying": 4311,
      "arms": 4312,
      "prepar": 4313,
      "ensive": 4314,
      "specific": 4315,
      "internet": 4316,
      "helpful": 4317,
      "marry": 4318,
      "Force": 4319,
      "hero": 4320,
      "investigate": 4321,
      "related": 4322,
      "type": 4323,
      "cycl": 4324,
      "cycle": 4325,
      "players": 4326,
      "wouldnt": 4327,
      "changing": 4328,
      "harvest": 4329,
      "believ": 4330,
      "2009": 4331,
      "othy": 4332,
      "venture": 4333,
      "personnel": 4334,
      "broken": 4335,
      "puts": 4336,
      "Polit": 4337,
      "subject": 4338,
      "Executive": 4339,
      "operations": 4340,
      "valid": 4341,
      "values": 4342,
      "minimum": 4343,
      "sheep": 4344,
      "wards": 4345,
      "costs": 4346,
      "courage": 4347,
      "garh": 4348,
      "continues": 4349,
      "reflect": 4350,
      "difficulties": 4351,
      "younger": 4352,
      "promised": 4353,
      "organiz": 4354,
      "recovery": 4355,
      "implementing": 4356,
      "receive": 4357,
      "learned": 4358,
      "interested": 4359,
      "Amendment": 4360,
      "Lankan": 4361,
      "judgment": 4362,
      "cells": 4363,
      "fishing": 4364,
      "connected": 4365,
      "victims": 4366,
      "About": 4367,
      "honest": 4368,
      "201920": 4369,
      "Environment": 4370,
      "delay": 4371,
      "daughters": 4372,
      "welcome": 4373,
      "celebrated": 4374,
      "meaning": 4375,
      "profit": 4376,
      "suffered": 4377,
      "seriously": 4378,
      "graph": 4379,
      "impact": 4380,
      "performed": 4381,
      "performance": 4382,
      "Satan": 4383,
      "thoughts": 4384,
      "double": 4385,
      "Engineer": 4386,
      "Bhag": 4387,
      "Yoga": 4388,
      "Yogi": 4389,
      "claimed": 4390,
      "heavenly": 4391,
      "Railway": 4392,
      "Bihar": 4393,
      "Bangalore": 4394,
      "Foreign": 4395,
      "Science": 4396,
      "Taluk": 4397,
      "pieces": 4398,
      "silver": 4399,
      "storage": 4400,
      "memorial": 4401,
      "bowl": 4402,
      "status": 4403,
      "transferred": 4404,
      "shocked": 4405,
      "Build": 4406,
      "Panchay": 4407,
      "Zealand": 4408,
      "Modis": 4409,
      "Roman": 4410,
      "achieved": 4411,
      "script": 4412,
      "vaccine": 4413,
      "Food": 4414,
      "emotional": 4415,
      "negative": 4416,
      "Division": 4417,
      "couple": 4418,
      "announcement": 4419,
      "punishment": 4420,
      "micro": 4421,
      "pregnant": 4422,
      "privilege": 4423,
      "temperature": 4424,
      "Hyderabad": 4425,
      "rescued": 4426,
      "policies": 4427,
      "Aishwarya": 4428,
      "Brazil": 4429,
      "Donald": 4430,
      "Facebook": 4431,
      "Thanjavur": 4432,
      "250": 4433,
      "58": 4434,
      "64": 4435,
      "76": 4436,
      "700": 4437,
      "AC": 4438,
      "Alex": 4439,
      "BI": 4440,
      "Big": 4441,
      "Budget": 4442,
      "Cer": 4443,
      "Cudd": 4444,
      "Det": 4445,
      "Gal": 4446,
      "HE": 4447,
      "Hall": 4448,
      "Il": 4449,
      "Jal": 4450,
      "Jaw": 4451,
      "Lt": 4452,
      "LED": 4453,
      "ME": 4454,
      "Mag": 4455,
      "Mary": 4456,
      "Nal": 4457,
      "Opp": 4458,
      "Pict": 4459,
      "Port": 4460,
      "Photo": 4461,
      "Qual": 4462,
      "River": 4463,
      "Sas": 4464,
      "Sim": 4465,
      "Sush": 4466,
      "Six": 4467,
      "Ter": 4468,
      "Tele": 4469,
      "Town": 4470,
      "Tax": 4471,
      "Vi": 4472,
      "Vive": 4473,
      "ae": 4474,
      "aur": 4475,
      "bing": 4476,
      "bath": 4477,
      "bilateral": 4478,
      "cof": 4479,
      "cards": 4480,
      "cinema": 4481,
      "dol": 4482,
      "dry": 4483,
      "distance": 4484,
      "een": 4485,
      "eye": 4486,
      "fat": 4487,
      "fair": 4488,
      "gam": 4489,
      "gain": 4490,
      "gap": 4491,
      "ggest": 4492,
      "iety": 4493,
      "jan": 4494,
      "jana": 4495,
      "kin": 4496,
      "len": 4497,
      "lal": 4498,
      "lack": 4499,
      "ladesh": 4500,
      "mut": 4501,
      "nur": 4502,
      "nav": 4503,
      "pm": 4504,
      "pared": 4505,
      "rat": 4506,
      "ration": 4507,
      "sit": 4508,
      "sold": 4509,
      "site": 4510,
      "sweet": 4511,
      "tes": 4512,
      "twent": 4513,
      "uth": 4514,
      "wake": 4515,
      "wickets": 4516,
      "thy": 4517,
      "thik": 4518,
      "inau": 4519,
      "inated": 4520,
      "insurance": 4521,
      "anced": 4522,
      "erate": 4523,
      "rev": 4524,
      "attract": 4525,
      "ison": 4526,
      "ensure": 4527,
      "oration": 4528,
      "esca": 4529,
      "altern": 4530,
      "tood": 4531,
      "toll": 4532,
      "todays": 4533,
      "asw": 4534,
      "items": 4535,
      "icate": 4536,
      "lections": 4537,
      "stations": 4538,
      "enter": 4539,
      "ential": 4540,
      "sectors": 4541,
      "secretary": 4542,
      "rock": 4543,
      "aya": 4544,
      "ayer": 4545,
      "ador": 4546,
      "verbs": 4547,
      "oles": 4548,
      "iment": 4549,
      "imper": 4550,
      "images": 4551,
      "iminal": 4552,
      "dia": 4553,
      "division": 4554,
      "elimin": 4555,
      "term": 4556,
      "Three": 4557,
      "Inst": 4558,
      "truly": 4559,
      "tsun": 4560,
      "agon": 4561,
      "agine": 4562,
      "erstood": 4563,
      "abuse": 4564,
      "abled": 4565,
      "abroad": 4566,
      "defe": 4567,
      "deploy": 4568,
      "deeds": 4569,
      "compet": 4570,
      "soil": 4571,
      "acres": 4572,
      "ainable": 4573,
      "ateful": 4574,
      "sharing": 4575,
      "wealth": 4576,
      "ries": 4577,
      "dog": 4578,
      "notice": 4579,
      "mothers": 4580,
      "ounder": 4581,
      "Heav": 4582,
      "outbreak": 4583,
      "withdraw": 4584,
      "anywhere": 4585,
      "explain": 4586,
      "Char": 4587,
      "cancell": 4588,
      "grateful": 4589,
      "raw": 4590,
      "priced": 4591,
      "anges": 4592,
      "automat": 4593,
      "discount": 4594,
      "Prince": 4595,
      "boys": 4596,
      "achal": 4597,
      "ordinary": 4598,
      "icals": 4599,
      "Anush": 4600,
      "Asian": 4601,
      "Associ": 4602,
      "regul": 4603,
      "screen": 4604,
      "center": 4605,
      "offer": 4606,
      "Shall": 4607,
      "Short": 4608,
      "Stand": 4609,
      "preced": 4610,
      "previous": 4611,
      "prepared": 4612,
      "creating": 4613,
      "crops": 4614,
      "content": 4615,
      "jection": 4616,
      "ensions": 4617,
      "Govern": 4618,
      "Goog": 4619,
      "investment": 4620,
      "interests": 4621,
      "attend": 4622,
      "attention": 4623,
      "Islam": 4624,
      "everywhere": 4625,
      "Deep": 4626,
      "Democr": 4627,
      "Common": 4628,
      "Commer": 4629,
      "annual": 4630,
      "finally": 4631,
      "Rajiv": 4632,
      "Arjun": 4633,
      "Argent": 4634,
      "Does": 4635,
      "Revelation": 4636,
      "undai": 4637,
      "understood": 4638,
      "missing": 4639,
      "Proverbs": 4640,
      "standing": 4641,
      "League": 4642,
      "hara": 4643,
      "ministers": 4644,
      "believed": 4645,
      "product": 4646,
      "produces": 4647,
      "flict": 4648,
      "venant": 4649,
      "showed": 4650,
      "surface": 4651,
      "legs": 4652,
      "politic": 4653,
      "certificate": 4654,
      "injury": 4655,
      "injuries": 4656,
      "relevant": 4657,
      "Adity": 4658,
      "Administr": 4659,
      "charged": 4660,
      "developing": 4661,
      "subsid": 4662,
      "headquarters": 4663,
      "solve": 4664,
      "Also": 4665,
      "running": 4666,
      "Pakistani": 4667,
      "handed": 4668,
      "breast": 4669,
      "ordered": 4670,
      "earthqu": 4671,
      "passengers": 4672,
      "northern": 4673,
      "walking": 4674,
      "medium": 4675,
      "detail": 4676,
      "opening": 4677,
      "Teach": 4678,
      "organized": 4679,
      "lockdown": 4680,
      "Group": 4681,
      "voc": 4682,
      "Madhya": 4683,
      "properties": 4684,
      "Shak": 4685,
      "Johnson": 4686,
      "Tiru": 4687,
      "names": 4688,
      "agram": 4689,
      "agricultural": 4690,
      "Cricket": 4691,
      "Salman": 4692,
      "retail": 4693,
      "Abd": 4694,
      "summer": 4695,
      "cribe": 4696,
      "welfare": 4697,
      "uvan": 4698,
      "thanks": 4699,
      "profess": 4700,
      "stitutional": 4701,
      "Priv": 4702,
      "sung": 4703,
      "arrange": 4704,
      "amalai": 4705,
      "Technical": 4706,
      "Hyundai": 4707,
      "laughed": 4708,
      "polls": 4709,
      "pollution": 4710,
      "Lucky": 4711,
      "ginger": 4712,
      "motor": 4713,
      "independent": 4714,
      "advant": 4715,
      "advance": 4716,
      "agreement": 4717,
      "encourage": 4718,
      "footage": 4719,
      "reached": 4720,
      "Railways": 4721,
      "governor": 4722,
      "Black": 4723,
      "Bangladesh": 4724,
      "Forest": 4725,
      "citizen": 4726,
      "Sena": 4727,
      "kilo": 4728,
      "homes": 4729,
      "moment": 4730,
      "strike": 4731,
      "Film": 4732,
      "resigned": 4733,
      "providing": 4734,
      "initiatives": 4735,
      "Kapoor": 4736,
      "dedicated": 4737,
      "vegetables": 4738,
      "communication": 4739,
      "Check": 4740,
      "Timothy": 4741,
      "guidance": 4742,
      "prisoners": 4743,
      "challenges": 4744,
      "Kolk": 4745,
      "features": 4746,
      "explosion": 4747,
      "Human": 4748,
      "baptism": 4749,
      "cholar": 4750,
      "territory": 4751,
      "surprised": 4752,
      "Collector": 4753,
      "Memorial": 4754,
      "hidden": 4755,
      "elderly": 4756,
      "neighb": 4757,
      "emergency": 4758,
      "heritage": 4759,
      "Authority": 4760,
      "sacrif": 4761,
      "Haasan": 4762,
      "chillies": 4763,
      "weapons": 4764,
      "Daniel": 4765,
      "Rohit": 4766,
      "Urban": 4767,
      "brave": 4768,
      "righteousness": 4769,
      "senior": 4770,
      "Corinthians": 4771,
      "beneficiaries": 4772,
      "Odisha": 4773,
      "Thousands": 4774,
      "Cuddalore": 4775,
      "Vivek": 4776,
      "escape": 4777,
      "tsunami": 4778,
      "Anushka": 4779,
      "49": 4780,
      "59": 4781,
      "800": 4782,
      "Az": 4783,
      "Block": 4784,
      "Ce": 4785,
      "Cy": 4786,
      "Cre": 4787,
      "Cam": 4788,
      "Cur": 4789,
      "Cult": 4790,
      "Clim": 4791,
      "DE": 4792,
      "Fri": 4793,
      "Fish": 4794,
      "Gl": 4795,
      "Gan": 4796,
      "Gav": 4797,
      "HD": 4798,
      "Hon": 4799,
      "Hary": 4800,
      "Hind": 4801,
      "IV": 4802,
      "Ja": 4803,
      "Jag": 4804,
      "Kir": 4805,
      "Line": 4806,
      "Mer": 4807,
      "Nat": 4808,
      "Nil": 4809,
      "Net": 4810,
      "Oil": 4811,
      "Oly": 4812,
      "Pay": 4813,
      "Pur": 4814,
      "Rai": 4815,
      "Sad": 4816,
      "Sol": 4817,
      "Stal": 4818,
      "Seven": 4819,
      "Srin": 4820,
      "Tom": 4821,
      "Tha": 4822,
      "T20": 4823,
      "Tower": 4824,
      "UK": 4825,
      "Vin": 4826,
      "Wa": 4827,
      "Wal": 4828,
      "Wed": 4829,
      "Whe": 4830,
      "Western": 4831,
      "ahead": 4832,
      "bats": 4833,
      "bicy": 4834,
      "cup": 4835,
      "cars": 4836,
      "code": 4837,
      "craft": 4838,
      "dates": 4839,
      "eep": 4840,
      "egg": 4841,
      "flo": 4842,
      "fles": 4843,
      "gas": 4844,
      "gree": 4845,
      "hin": 4846,
      "hour": 4847,
      "ivery": 4848,
      "ko": 4849,
      "kid": 4850,
      "mm": 4851,
      "mak": 4852,
      "mouth": 4853,
      "nations": 4854,
      "pu": 4855,
      "pes": 4856,
      "pond": 4857,
      "pump": 4858,
      "rac": 4859,
      "rates": 4860,
      "rushed": 4861,
      "sow": 4862,
      "spl": 4863,
      "sper": 4864,
      "sins": 4865,
      "sources": 4866,
      "software": 4867,
      "til": 4868,
      "tic": 4869,
      "ua": 4870,
      "vs": 4871,
      "vices": 4872,
      "wall": 4873,
      "zes": 4874,
      "inar": 4875,
      "inent": 4876,
      "inspe": 4877,
      "inspir": 4878,
      "industry": 4879,
      "eries": 4880,
      "onions": 4881,
      "rear": 4882,
      "reve": 4883,
      "renew": 4884,
      "reward": 4885,
      "reforms": 4886,
      "enthus": 4887,
      "esis": 4888,
      "esha": 4889,
      "aling": 4890,
      "almost": 4891,
      "editor": 4892,
      "toms": 4893,
      "aran": 4894,
      "army": 4895,
      "arian": 4896,
      "asi": 4897,
      "asters": 4898,
      "ingly": 4899,
      "hearing": 4900,
      "iled": 4901,
      "ilty": 4902,
      "stage": 4903,
      "stable": 4904,
      "ented": 4905,
      "beha": 4906,
      "behind": 4907,
      "aman": 4908,
      "seed": 4909,
      "idamb": 4910,
      "hab": 4911,
      "rob": 4912,
      "rot": 4913,
      "rolling": 4914,
      "ades": 4915,
      "chances": 4916,
      "ottai": 4917,
      "dign": 4918,
      "allur": 4919,
      "peoples": 4920,
      "cean": 4921,
      "ceed": 4922,
      "mental": 4923,
      "unal": 4924,
      "unique": 4925,
      "ulam": 4926,
      "usion": 4927,
      "usually": 4928,
      "goals": 4929,
      "etary": 4930,
      "debut": 4931,
      "lihood": 4932,
      "lore": 4933,
      "accommod": 4934,
      "webs": 4935,
      "Which": 4936,
      "White": 4937,
      "rible": 4938,
      "rivers": 4939,
      "apart": 4940,
      "appreci": 4941,
      "fever": 4942,
      "worshipp": 4943,
      "tea": 4944,
      "mohan": 4945,
      "sust": 4946,
      "suggest": 4947,
      "Heat": 4948,
      "plom": 4949,
      "plus": 4950,
      "extra": 4951,
      "Chir": 4952,
      "Chidamb": 4953,
      "grade": 4954,
      "earlier": 4955,
      "themselves": 4956,
      "quiet": 4957,
      "urely": 4958,
      "display": 4959,
      "disappe": 4960,
      "himself": 4961,
      "iction": 4962,
      "acks": 4963,
      "formed": 4964,
      "Anand": 4965,
      "manager": 4966,
      "Shar": 4967,
      "Station": 4968,
      "ichy": 4969,
      "awaren": 4970,
      "cry": 4971,
      "commer": 4972,
      "attinam": 4973,
      "helping": 4974,
      "seeing": 4975,
      "student": 4976,
      "access": 4977,
      "collect": 4978,
      "guilty": 4979,
      "BJPs": 4980,
      "standard": 4981,
      "Level": 4982,
      "examples": 4983,
      "starting": 4984,
      "persons": 4985,
      "2001": 4986,
      "2006": 4987,
      "flag": 4988,
      "flights": 4989,
      "background": 4990,
      "longer": 4991,
      "tempor": 4992,
      "150": 4993,
      "icipal": 4994,
      "increases": 4995,
      "moral": 4996,
      "atio": 4997,
      "added": 4998,
      "additional": 4999,
      "priate": 5000,
      "180": 5001,
      "Trichy": 5002,
      "External": 5003,
      "destru": 5004,
      "chaired": 5005,
      "Suz": 5006,
      "supported": 5007,
      "posts": 5008,
      "Friday": 5009,
      "valu": 5010,
      "applies": 5011,
      "orticulture": 5012,
      "Although": 5013,
      "tried": 5014,
      "salary": 5015,
      "bodys": 5016,
      "Manmohan": 5017,
      "includes": 5018,
      "included": 5019,
      "Roy": 5020,
      "Royal": 5021,
      "virus": 5022,
      "difficulty": 5023,
      "wali": 5024,
      "driving": 5025,
      "protected": 5026,
      "Coronavirus": 5027,
      "yesterday": 5028,
      "payment": 5029,
      "umbers": 5030,
      "Allahs": 5031,
      "tower": 5032,
      "attacked": 5033,
      "greatest": 5034,
      "Dravid": 5035,
      "turned": 5036,
      "begun": 5037,
      "clearly": 5038,
      "Highways": 5039,
      "ruled": 5040,
      "banking": 5041,
      "religions": 5042,
      "feelings": 5043,
      "Speaking": 5044,
      "complained": 5045,
      "placed": 5046,
      "answered": 5047,
      "connect": 5048,
      "percentage": 5049,
      "Israelites": 5050,
      "twice": 5051,
      "terrorists": 5052,
      "authority": 5053,
      "ICC": 5054,
      "Australian": 5055,
      "Chairman": 5056,
      "Kej": 5057,
      "Bharati": 5058,
      "battery": 5059,
      "tradition": 5060,
      "deepest": 5061,
      "recently": 5062,
      "extended": 5063,
      "profession": 5064,
      "Janata": 5065,
      "Trib": 5066,
      "201718": 5067,
      "horse": 5068,
      "divor": 5069,
      "divided": 5070,
      "graphy": 5071,
      "materials": 5072,
      "leaves": 5073,
      "201617": 5074,
      "laughing": 5075,
      "holy": 5076,
      "Redmi": 5077,
      "ronic": 5078,
      "constant": 5079,
      "penal": 5080,
      "powers": 5081,
      "watching": 5082,
      "debate": 5083,
      "piece": 5084,
      "songs": 5085,
      "chedul": 5086,
      "immigr": 5087,
      "discussion": 5088,
      "Ajay": 5089,
      "environmental": 5090,
      "consider": 5091,
      "floods": 5092,
      "allocated": 5093,
      "consult": 5094,
      "201516": 5095,
      "Company": 5096,
      "fixed": 5097,
      "Golden": 5098,
      "circum": 5099,
      "smoke": 5100,
      "sexual": 5101,
      "graduate": 5102,
      "Article": 5103,
      "Control": 5104,
      "distributed": 5105,
      "settle": 5106,
      "Classes": 5107,
      "Muslims": 5108,
      "Ahmed": 5109,
      "Baner": 5110,
      "Backward": 5111,
      "Listen": 5112,
      "nesday": 5113,
      "determin": 5114,
      "partnership": 5115,
      "Genesis": 5116,
      "rolled": 5117,
      "fishermen": 5118,
      "Philipp": 5119,
      "Diwali": 5120,
      "wisdom": 5121,
      "original": 5122,
      "argument": 5123,
      "beliefs": 5124,
      "doubt": 5125,
      "Temple": 5126,
      "capacity": 5127,
      "descend": 5128,
      "Afghan": 5129,
      "length": 5130,
      "hibition": 5131,
      "Ltd": 5132,
      "Oppos": 5133,
      "coffee": 5134,
      "inaugur": 5135,
      "Association": 5136,
      "Private": 5137,
      "Kolkata": 5138,
      "Friends": 5139,
      "Gavin": 5140,
      "Haryana": 5141,
      "Olymp": 5142,
      "Wednesday": 5143,
      "bicycle": 5144,
      "inspiration": 5145,
      "website": 5146,
      "Chidambaram": 5147,
      "awareness": 5148,
      "43": 5149,
      "52": 5150,
      "61": 5151,
      "85": 5152,
      "87": 5153,
      "Av": 5154,
      "Avo": 5155,
      "BC": 5156,
      "Bas": 5157,
      "Bel": 5158,
      "Cour": 5159,
      "Could": 5160,
      "Cred": 5161,
      "Camp": 5162,
      "Cali": 5163,
      "DC": 5164,
      "Dig": 5165,
      "Dell": 5166,
      "Eat": 5167,
      "Egy": 5168,
      "Fire": 5169,
      "Gosp": 5170,
      "Has": 5171,
      "Iran": 5172,
      "IAF": 5173,
      "Jere": 5174,
      "Jose": 5175,
      "Know": 5176,
      "Lal": 5177,
      "Lake": 5178,
      "Mex": 5179,
      "Make": 5180,
      "Mother": 5181,
      "Master": 5182,
      "Milk": 5183,
      "NE": 5184,
      "NR": 5185,
      "Naw": 5186,
      "Number": 5187,
      "Others": 5188,
      "Ps": 5189,
      "Pud": 5190,
      "Pune": 5191,
      "Que": 5192,
      "RS": 5193,
      "RT": 5194,
      "SA": 5195,
      "Sn": 5196,
      "Sor": 5197,
      "Sou": 5198,
      "Sand": 5199,
      "Set": 5200,
      "Sain": 5201,
      "Sach": 5202,
      "Sik": 5203,
      "Saul": 5204,
      "Spain": 5205,
      "TI": 5206,
      "Ti": 5207,
      "Tata": 5208,
      "Vis": 5209,
      "Vas": 5210,
      "Vid": 5211,
      "Vad": 5212,
      "Vik": 5213,
      "Very": 5214,
      "ape": 5215,
      "aith": 5216,
      "core": 5217,
      "ec": 5218,
      "eper": 5219,
      "fis": 5220,
      "fant": 5221,
      "fifty": 5222,
      "hun": 5223,
      "hatt": 5224,
      "honey": 5225,
      "iam": 5226,
      "ius": 5227,
      "ju": 5228,
      "mans": 5229,
      "mally": 5230,
      "mates": 5231,
      "master": 5232,
      "ni": 5233,
      "nan": 5234,
      "nic": 5235,
      "nine": 5236,
      "nath": 5237,
      "nature": 5238,
      "oo": 5239,
      "pag": 5240,
      "pul": 5241,
      "pite": 5242,
      "push": 5243,
      "paper": 5244,
      "pension": 5245,
      "rout": 5246,
      "rah": 5247,
      "rance": 5248,
      "swe": 5249,
      "sport": 5250,
      "sense": 5251,
      "scoot": 5252,
      "tension": 5253,
      "ube": 5254,
      "ware": 5255,
      "wages": 5256,
      "wicket": 5257,
      "xy": 5258,
      "yog": 5259,
      "zz": 5260,
      "zen": 5261,
      "thir": 5262,
      "eral": 5263,
      "onom": 5264,
      "react": 5265,
      "reject": 5266,
      "ato": 5267,
      "atin": 5268,
      "atma": 5269,
      "edge": 5270,
      "aria": 5271,
      "itch": 5272,
      "hearts": 5273,
      "iling": 5274,
      "icular": 5275,
      "sters": 5276,
      "stab": 5277,
      "starts": 5278,
      "ames": 5279,
      "sem": 5280,
      "secre": 5281,
      "hai": 5282,
      "rode": 5283,
      "adise": 5284,
      "adults": 5285,
      "forn": 5286,
      "forced": 5287,
      "verdict": 5288,
      "impossible": 5289,
      "diplom": 5290,
      "ela": 5291,
      "elt": 5292,
      "Industry": 5293,
      "trag": 5294,
      "trouble": 5295,
      "peak": 5296,
      "tsp": 5297,
      "ura": 5298,
      "uri": 5299,
      "igence": 5300,
      "agencies": 5301,
      "union": 5302,
      "resurrection": 5303,
      "eties": 5304,
      "degree": 5305,
      "compos": 5306,
      "waste": 5307,
      "conv": 5308,
      "consci": 5309,
      "consum": 5310,
      "contract": 5311,
      "frame": 5312,
      "loyal": 5313,
      "located": 5314,
      "proced": 5315,
      "mem": 5316,
      "ourselves": 5317,
      "atever": 5318,
      "saved": 5319,
      "apattinam": 5320,
      "ighth": 5321,
      "Hey": 5322,
      "plate": 5323,
      "istics": 5324,
      "expl": 5325,
      "iving": 5326,
      "aving": 5327,
      "keys": 5328,
      "portion": 5329,
      "race": 5330,
      "partys": 5331,
      "partner": 5332,
      "dual": 5333,
      "auto": 5334,
      "eft": 5335,
      "identity": 5336,
      "identified": 5337,
      "uster": 5338,
      "astic": 5339,
      "Soon": 5340,
      "coord": 5341,
      "myst": 5342,
      "atha": 5343,
      "assass": 5344,
      "assign": 5345,
      "1999": 5346,
      "rua": 5347,
      "talent": 5348,
      "render": 5349,
      "scar": 5350,
      "bridge": 5351,
      "bles": 5352,
      "Shes": 5353,
      "Jews": 5354,
      "Imran": 5355,
      "MoU": 5356,
      "Youth": 5357,
      "premi": 5358,
      "pretty": 5359,
      "overse": 5360,
      "asks": 5361,
      "Gov": 5362,
      "Unit": 5363,
      "writes": 5364,
      "choice": 5365,
      "buying": 5366,
      "restr": 5367,
      "105": 5368,
      "108": 5369,
      "annel": 5370,
      "annamalai": 5371,
      "Christs": 5372,
      "finance": 5373,
      "Seth": 5374,
      "visions": 5375,
      "Christmas": 5376,
      "128": 5377,
      "career": 5378,
      "standards": 5379,
      "aircraft": 5380,
      "2003": 5381,
      "2004": 5382,
      "genet": 5383,
      "lasting": 5384,
      "servants": 5385,
      "stolen": 5386,
      "highlight": 5387,
      "killing": 5388,
      "capt": 5389,
      "truck": 5390,
      "afford": 5391,
      "Adam": 5392,
      "broad": 5393,
      "160": 5394,
      "symp": 5395,
      "tested": 5396,
      "uki": 5397,
      "healthcare": 5398,
      "submit": 5399,
      "carbon": 5400,
      "clock": 5401,
      "transmission": 5402,
      "chem": 5403,
      "operate": 5404,
      "Cost": 5405,
      "Coast": 5406,
      "Such": 5407,
      "supporting": 5408,
      "penditure": 5409,
      "strict": 5410,
      "trains": 5411,
      "Chinas": 5412,
      "Congratul": 5413,
      "approval": 5414,
      "appropriate": 5415,
      "balance": 5416,
      "understanding": 5417,
      "selfish": 5418,
      "educational": 5419,
      "singing": 5420,
      "minds": 5421,
      "accidents": 5422,
      "Madam": 5423,
      "begins": 5424,
      "amental": 5425,
      "Note": 5426,
      "properly": 5427,
      "denied": 5428,
      "limit": 5429,
      "limited": 5430,
      "Northern": 5431,
      "winning": 5432,
      "employed": 5433,
      "signific": 5434,
      "immediate": 5435,
      "Tirup": 5436,
      "improved": 5437,
      "livelihood": 5438,
      "interesting": 5439,
      "occup": 5440,
      "Commissioner": 5441,
      "50000": 5442,
      "Auto": 5443,
      "Karthik": 5444,
      "retire": 5445,
      "summit": 5446,
      "Financial": 5447,
      "Britain": 5448,
      "Libr": 5449,
      "MPs": 5450,
      "Services": 5451,
      "messages": 5452,
      "fundamental": 5453,
      "welcomed": 5454,
      "constructed": 5455,
      "birds": 5456,
      "expression": 5457,
      "steady": 5458,
      "traditional": 5459,
      "sky": 5460,
      "eastern": 5461,
      "easily": 5462,
      "prising": 5463,
      "palm": 5464,
      "personality": 5465,
      "Phone": 5466,
      "magic": 5467,
      "punished": 5468,
      "iverse": 5469,
      "Luke": 5470,
      "protesting": 5471,
      "Reddy": 5472,
      "responded": 5473,
      "Joint": 5474,
      "culpr": 5475,
      "journey": 5476,
      "repent": 5477,
      "discipl": 5478,
      "scientists": 5479,
      "Krishna": 5480,
      "hotel": 5481,
      "warned": 5482,
      "ullah": 5483,
      "forests": 5484,
      "holds": 5485,
      "tomatoes": 5486,
      "storm": 5487,
      "Veer": 5488,
      "considered": 5489,
      "precious": 5490,
      "Electric": 5491,
      "iyar": 5492,
      "ylon": 5493,
      "provides": 5494,
      "historical": 5495,
      "dangerous": 5496,
      "infection": 5497,
      "influence": 5498,
      "representatives": 5499,
      "concerned": 5500,
      "methods": 5501,
      "blessings": 5502,
      "Watchtower": 5503,
      "distress": 5504,
      "Nagapattinam": 5505,
      "demonstr": 5506,
      "experts": 5507,
      "branches": 5508,
      "Village": 5509,
      "collapsed": 5510,
      "Tiruvannamalai": 5511,
      "constituency": 5512,
      "ruption": 5513,
      "festival": 5514,
      "yellow": 5515,
      "dismissed": 5516,
      "Mahindra": 5517,
      "Application": 5518,
      "Venk": 5519,
      "frequent": 5520,
      "samples": 5521,
      "inquiry": 5522,
      "industries": 5523,
      "Independence": 5524,
      "transactions": 5525,
      "opinion": 5526,
      "compensation": 5527,
      "recommendations": 5528,
      "Greek": 5529,
      "Ladakh": 5530,
      "Vellore": 5531,
      "banned": 5532,
      "revenue": 5533,
      "alogue": 5534,
      "estimated": 5535,
      "Principal": 5536,
      "Mohammed": 5537,
      "Political": 5538,
      "Building": 5539,
      "Google": 5540,
      "Democratic": 5541,
      "Adityanath": 5542,
      "Administrative": 5543,
      "subsidy": 5544,
      "flesh": 5545,
      "destruction": 5546,
      "Suzuki": 5547,
      "Opposition": 5548,
      "inaugurated": 5549,
      "Avoid": 5550,
      "Credit": 5551,
      "Californ": 5552,
      "Egypt": 5553,
      "Joseph": 5554,
      "Sachin": 5555,
      "assassination": 5556,
      "Congratulations": 5557,
      "110": 5558,
      "47": 5559,
      "5000": 5560,
      "68": 5561,
      "6000": 5562,
      "83": 5563,
      "89": 5564,
      "AL": 5565,
      "Ari": 5566,
      "Aadha": 5567,
      "BR": 5568,
      "Bor": 5569,
      "Bes": 5570,
      "Bur": 5571,
      "Bag": 5572,
      "BCC": 5573,
      "Cele": 5574,
      "Candid": 5575,
      "DA": 5576,
      "Dar": 5577,
      "Das": 5578,
      "Dhon": 5579,
      "DNA": 5580,
      "Eli": 5581,
      "Erode": 5582,
      "FC": 5583,
      "Fl": 5584,
      "Federation": 5585,
      "Faith": 5586,
      "GO": 5587,
      "Gul": 5588,
      "Glo": 5589,
      "Gup": 5590,
      "Ham": 5591,
      "Hell": 5592,
      "Jon": 5593,
      "Jack": 5594,
      "Kum": 5595,
      "Laksh": 5596,
      "Men": 5597,
      "Mam": 5598,
      "Muse": 5599,
      "Middle": 5600,
      "NH": 5601,
      "NO": 5602,
      "Nearly": 5603,
      "Niger": 5604,
      "Over": 5605,
      "Oper": 5606,
      "Open": 5607,
      "PG": 5608,
      "Phara": 5609,
      "Qu": 5610,
      "RD": 5611,
      "RI": 5612,
      "Rat": 5613,
      "Rav": 5614,
      "Reven": 5615,
      "Sin": 5616,
      "Say": 5617,
      "Sch": 5618,
      "Sah": 5619,
      "Swar": 5620,
      "Selection": 5621,
      "Surely": 5622,
      "Tend": 5623,
      "Tra": 5624,
      "UA": 5625,
      "VP": 5626,
      "Ver": 5627,
      "Vict": 5628,
      "WD": 5629,
      "Year": 5630,
      "bag": 5631,
      "cers": 5632,
      "da": 5633,
      "dim": 5634,
      "dden": 5635,
      "eor": 5636,
      "east": 5637,
      "fan": 5638,
      "fere": 5639,
      "fate": 5640,
      "fought": 5641,
      "flock": 5642,
      "gments": 5643,
      "gery": 5644,
      "ito": 5645,
      "iqu": 5646,
      "iber": 5647,
      "jas": 5648,
      "jay": 5649,
      "kes": 5650,
      "kur": 5651,
      "ls": 5652,
      "mala": 5653,
      "mix": 5654,
      "nos": 5655,
      "numbers": 5656,
      "oclock": 5657,
      "pth": 5658,
      "pill": 5659,
      "piv": 5660,
      "psy": 5661,
      "rom": 5662,
      "rans": 5663,
      "rics": 5664,
      "rigation": 5665,
      "sle": 5666,
      "sister": 5667,
      "sites": 5668,
      "scholar": 5669,
      "tip": 5670,
      "tack": 5671,
      "tons": 5672,
      "uge": 5673,
      "vul": 5674,
      "wage": 5675,
      "wild": 5676,
      "winter": 5677,
      "wives": 5678,
      "western": 5679,
      "xiety": 5680,
      "inations": 5681,
      "infl": 5682,
      "inlaw": 5683,
      "ano": 5684,
      "anis": 5685,
      "ert": 5686,
      "theat": 5687,
      "theast": 5688,
      "rees": 5689,
      "reform": 5690,
      "reck": 5691,
      "remind": 5692,
      "revol": 5693,
      "attempt": 5694,
      "isgarh": 5695,
      "eness": 5696,
      "orities": 5697,
      "alon": 5698,
      "altar": 5699,
      "edia": 5700,
      "toss": 5701,
      "toler": 5702,
      "asts": 5703,
      "assu": 5704,
      "ascertain": 5705,
      "hect": 5706,
      "ico": 5707,
      "icial": 5708,
      "stra": 5709,
      "stones": 5710,
      "stances": 5711,
      "stream": 5712,
      "entrance": 5713,
      "vement": 5714,
      "velo": 5715,
      "becomes": 5716,
      "amar": 5717,
      "ambit": 5718,
      "secret": 5719,
      "selection": 5720,
      "haz": 5721,
      "rose": 5722,
      "rovers": 5723,
      "ctive": 5724,
      "admi": 5725,
      "ademic": 5726,
      "adoles": 5727,
      "cher": 5728,
      "chos": 5729,
      "ares": 5730,
      "verty": 5731,
      "verted": 5732,
      "olf": 5733,
      "ols": 5734,
      "olic": 5735,
      "ima": 5736,
      "imal": 5737,
      "imary": 5738,
      "iments": 5739,
      "youll": 5740,
      "dian": 5741,
      "eler": 5742,
      "eline": 5743,
      "Ind": 5744,
      "utes": 5745,
      "trip": 5746,
      "trib": 5747,
      "pee": 5748,
      "god": 5749,
      "oda": 5750,
      "depress": 5751,
      "depth": 5752,
      "liqu": 5753,
      "liance": 5754,
      "convent": 5755,
      "fright": 5756,
      "los": 5757,
      "loves": 5758,
      "sover": 5759,
      "provision": 5760,
      "protes": 5761,
      "willing": 5762,
      "mechan": 5763,
      "acle": 5764,
      "academic": 5765,
      "anta": 5766,
      "shi": 5767,
      "shall": 5768,
      "shif": 5769,
      "shops": 5770,
      "wear": 5771,
      "riwal": 5772,
      "artists": 5773,
      "apak": 5774,
      "0000": 5775,
      "worse": 5776,
      "sudden": 5777,
      "essential": 5778,
      "export": 5779,
      "expens": 5780,
      "expenditure": 5781,
      "Champ": 5782,
      "Chhatt": 5783,
      "oky": 5784,
      "ciful": 5785,
      "polling": 5786,
      "aves": 5787,
      "avings": 5788,
      "portant": 5789,
      "gran": 5790,
      "novel": 5791,
      "ifying": 5792,
      "earn": 5793,
      "emb": 5794,
      "prime": 5795,
      "upset": 5796,
      "disput": 5797,
      "disasters": 5798,
      "ipuram": 5799,
      "astically": 5800,
      "evi": 5801,
      "Italy": 5802,
      "plea": 5803,
      "boost": 5804,
      "lots": 5805,
      "coal": 5806,
      "cope": 5807,
      "cook": 5808,
      "cohol": 5809,
      "cooperative": 5810,
      "covenant": 5811,
      "counter": 5812,
      "Anna": 5813,
      "happily": 5814,
      "tality": 5815,
      "firm": 5816,
      "regime": 5817,
      "somewhere": 5818,
      "izes": 5819,
      "poverty": 5820,
      "scale": 5821,
      "bright": 5822,
      "cently": 5823,
      "centuries": 5824,
      "Should": 5825,
      "reement": 5826,
      "thinks": 5827,
      "medal": 5828,
      "Street": 5829,
      "Important": 5830,
      "Mob": 5831,
      "poses": 5832,
      "criminal": 5833,
      "communities": 5834,
      "reads": 5835,
      "creates": 5836,
      "2010": 5837,
      "underway": 5838,
      "clim": 5839,
      "climate": 5840,
      "overall": 5841,
      "iew": 5842,
      "species": 5843,
      "interpre": 5844,
      "atti": 5845,
      "attle": 5846,
      "attitude": 5847,
      "oldest": 5848,
      "Islands": 5849,
      "adequ": 5850,
      "elected": 5851,
      "owner": 5852,
      "owners": 5853,
      "everyones": 5854,
      "Departments": 5855,
      "markets": 5856,
      "heroes": 5857,
      "icken": 5858,
      "annivers": 5859,
      "matters": 5860,
      "engines": 5861,
      "useful": 5862,
      "Sever": 5863,
      "Section": 5864,
      "visited": 5865,
      "Rajya": 5866,
      "Rajapak": 5867,
      "Archa": 5868,
      "124": 5869,
      "cylin": 5870,
      "decade": 5871,
      "player": 5872,
      "rows": 5873,
      "Prote": 5874,
      "Prophe": 5875,
      "tells": 5876,
      "telling": 5877,
      "compare": 5878,
      "examine": 5879,
      "offices": 5880,
      "officially": 5881,
      "mostly": 5882,
      "fault": 5883,
      "showing": 5884,
      "store": 5885,
      "stock": 5886,
      "follows": 5887,
      "booked": 5888,
      "corporation": 5889,
      "News": 5890,
      "priests": 5891,
      "Marathi": 5892,
      "broke": 5893,
      "farming": 5894,
      "130": 5895,
      "ologies": 5896,
      "Peace": 5897,
      "Peoples": 5898,
      "Trust": 5899,
      "turning": 5900,
      "Exam": 5901,
      "Express": 5902,
      "desol": 5903,
      "chairman": 5904,
      "chapter": 5905,
      "Cooperation": 5906,
      "fourth": 5907,
      "letters": 5908,
      "minutes": 5909,
      "pending": 5910,
      "differently": 5911,
      "2500": 5912,
      "calm": 5913,
      "trained": 5914,
      "Conne": 5915,
      "larger": 5916,
      "sales": 5917,
      "approves": 5918,
      "Center": 5919,
      "Local": 5920,
      "shay": 5921,
      "shares": 5922,
      "Lords": 5923,
      "busy": 5924,
      "videos": 5925,
      "teaching": 5926,
      "Paris": 5927,
      "edule": 5928,
      "mode": 5929,
      "Rahman": 5930,
      "bench": 5931,
      "iversities": 5932,
      "Resp": 5933,
      "protein": 5934,
      "detained": 5935,
      "lesson": 5936,
      "lessons": 5937,
      "Thanks": 5938,
      "eaten": 5939,
      "gestion": 5940,
      "attacks": 5941,
      "recover": 5942,
      "benefited": 5943,
      "presidential": 5944,
      "turns": 5945,
      "miah": 5946,
      "programmes": 5947,
      "buildings": 5948,
      "demise": 5949,
      "lightly": 5950,
      "ruler": 5951,
      "antha": 5952,
      "painful": 5953,
      "economically": 5954,
      "falls": 5955,
      "patience": 5956,
      "Pauls": 5957,
      "experiences": 5958,
      "ambul": 5959,
      "violent": 5960,
      "affection": 5961,
      "occur": 5962,
      "classes": 5963,
      "Karun": 5964,
      "retired": 5965,
      "ministerial": 5966,
      "confident": 5967,
      "Directorate": 5968,
      "deliver": 5969,
      "labs": 5970,
      "201819": 5971,
      "Australias": 5972,
      "funds": 5973,
      "funding": 5974,
      "adium": 5975,
      "effects": 5976,
      "Lokesh": 5977,
      "villages": 5978,
      "celebration": 5979,
      "Schools": 5980,
      "applic": 5981,
      "practical": 5982,
      "Peram": 5983,
      "filled": 5984,
      "rooms": 5985,
      "achievement": 5986,
      "achievements": 5987,
      "fluid": 5988,
      "ridor": 5989,
      "Additional": 5990,
      "uddin": 5991,
      "divine": 5992,
      "Russian": 5993,
      "burned": 5994,
      "magn": 5995,
      "expecting": 5996,
      "Help": 5997,
      "Satur": 5998,
      "studied": 5999,
      "Kanniy": 6000,
      "Otherwise": 6001,
      "Swami": 6002,
      "bike": 6003,
      "dynam": 6004,
      "listening": 6005,
      "Rajinikanths": 6006,
      "African": 6007,
      "demands": 6008,
      "furn": 6009,
      "Akshay": 6010,
      "Meteor": 6011,
      "ategic": 6012,
      "Iraqi": 6013,
      "tificates": 6014,
      "manufactur": 6015,
      "Space": 6016,
      "Scient": 6017,
      "warning": 6018,
      "returned": 6019,
      "blocks": 6020,
      "favour": 6021,
      "suspect": 6022,
      "suspend": 6023,
      "Siva": 6024,
      "options": 6025,
      "democratic": 6026,
      "Grandma": 6027,
      "Relief": 6028,
      "audit": 6029,
      "nutr": 6030,
      "rounds": 6031,
      "cleaning": 6032,
      "recognized": 6033,
      "Academ": 6034,
      "Agreement": 6035,
      "Patel": 6036,
      "Rupees": 6037,
      "201314": 6038,
      "Marketing": 6039,
      "Rao": 6040,
      "equip": 6041,
      "crowd": 6042,
      "Lakhs": 6043,
      "Motor": 6044,
      "glass": 6045,
      "gathered": 6046,
      "gathering": 6047,
      "multip": 6048,
      "phase": 6049,
      "sorry": 6050,
      "sequences": 6051,
      "congratulate": 6052,
      "audience": 6053,
      "CSK": 6054,
      "Clear": 6055,
      "Mukher": 6056,
      "Turkey": 6057,
      "Organization": 6058,
      "literature": 6059,
      "Republic": 6060,
      "categories": 6061,
      "mighty": 6062,
      "screaming": 6063,
      "medicine": 6064,
      "Employment": 6065,
      "Employees": 6066,
      "Happy": 6067,
      "Summit": 6068,
      "hatred": 6069,
      "skills": 6070,
      "enemies": 6071,
      "diagnos": 6072,
      "document": 6073,
      "pleasure": 6074,
      "cooled": 6075,
      "Communist": 6076,
      "guarant": 6077,
      "Officials": 6078,
      "Defence": 6079,
      "Following": 6080,
      "Korea": 6081,
      "fighter": 6082,
      "preaching": 6083,
      "individual": 6084,
      "Labour": 6085,
      "figure": 6086,
      "allegations": 6087,
      "Hebrews": 6088,
      "empty": 6089,
      "organizations": 6090,
      "Panchayat": 6091,
      "imperial": 6092,
      "eliminate": 6093,
      "Instagram": 6094,
      "defeated": 6095,
      "deployed": 6096,
      "Heavy": 6097,
      "Governor": 6098,
      "Commercial": 6099,
      "Argentina": 6100,
      "politician": 6101,
      "arrangements": 6102,
      "Vivekan": 6103,
      "Hindus": 6104,
      "Whether": 6105,
      "behavi": 6106,
      "commercial": 6107,
      "temporary": 6108,
      "Kejriwal": 6109,
      "Banerjee": 6110,
      "descendants": 6111,
      "Courts": 6112,
      "Digital": 6113,
      "Nawaz": 6114,
      "Sorry": 6115,
      "yoga": 6116,
      "semif": 6117,
      "memory": 6118,
      "chemicals": 6119,
      "California": 6120,
      "Celebr": 6121,
      "Dhoni": 6122,
      "Museum": 6123,
      "Pharaoh": 6124,
      "Swaraj": 6125,
      "Tendul": 6126,
      "pivotal": 6127,
      "vulner": 6128,
      "inflation": 6129,
      "velocity": 6130,
      "ambitious": 6131,
      "chosen": 6132,
      "protesters": 6133,
      "Chhattisgarh": 6134,
      "Archae": 6135,
      "cylinder": 6136,
      "116": 6137,
      "214": 6138,
      "51": 6139,
      "56": 6140,
      "57": 6141,
      "63": 6142,
      "71": 6143,
      "72": 6144,
      "94": 6145,
      "AD": 6146,
      "Aam": 6147,
      "Adi": 6148,
      "Action": 6149,
      "Ama": 6150,
      "AII": 6151,
      "Agency": 6152,
      "BO": 6153,
      "Ba": 6154,
      "Bob": 6155,
      "Brown": 6156,
      "CR": 6157,
      "Citiz": 6158,
      "Den": 6159,
      "Dal": 6160,
      "Dha": 6161,
      "EE": 6162,
      "EU": 6163,
      "Eph": 6164,
      "Fur": 6165,
      "Fac": 6166,
      "GC": 6167,
      "Gar": 6168,
      "Gur": 6169,
      "Gard": 6170,
      "Grow": 6171,
      "Guru": 6172,
      "Games": 6173,
      "HC": 6174,
      "HO": 6175,
      "Husband": 6176,
      "Jin": 6177,
      "Kh": 6178,
      "Ki": 6179,
      "Kon": 6180,
      "Kis": 6181,
      "Kul": 6182,
      "Kath": 6183,
      "Lim": 6184,
      "Langu": 6185,
      "Latin": 6186,
      "Left": 6187,
      "MT": 6188,
      "Mi": 6189,
      "Mut": 6190,
      "Mac": 6191,
      "Mart": 6192,
      "Mally": 6193,
      "Muru": 6194,
      "MAN": 6195,
      "Na": 6196,
      "Nay": 6197,
      "None": 6198,
      "ON": 6199,
      "ODI": 6200,
      "PL": 6201,
      "Pop": 6202,
      "Path": 6203,
      "Parents": 6204,
      "PAN": 6205,
      "Rag": 6206,
      "Rul": 6207,
      "Rak": 6208,
      "Rash": 6209,
      "RAM": 6210,
      "SD": 6211,
      "SP": 6212,
      "SU": 6213,
      "Sto": 6214,
      "Sid": 6215,
      "Str": 6216,
      "Sith": 6217,
      "Sath": 6218,
      "Sign": 6219,
      "Saf": 6220,
      "Scot": 6221,
      "Software": 6222,
      "Ten": 6223,
      "Tro": 6224,
      "TDP": 6225,
      "Toky": 6226,
      "Vo": 6227,
      "Var": 6228,
      "Wr": 6229,
      "Wing": 6230,
      "Wall": 6231,
      "Yo": 6232,
      "Youn": 6233,
      "Yuvan": 6234,
      "athing": 6235,
      "bid": 6236,
      "bers": 6237,
      "bru": 6238,
      "bones": 6239,
      "brief": 6240,
      "cand": 6241,
      "cow": 6242,
      "cabinet": 6243,
      "cattle": 6244,
      "ey": 6245,
      "eager": 6246,
      "eternal": 6247,
      "fol": 6248,
      "faster": 6249,
      "gul": 6250,
      "gear": 6251,
      "gross": 6252,
      "grief": 6253,
      "hr": 6254,
      "hate": 6255,
      "ipe": 6256,
      "iency": 6257,
      "kings": 6258,
      "lay": 6259,
      "lake": 6260,
      "lars": 6261,
      "mid": 6262,
      "map": 6263,
      "nd": 6264,
      "ov": 6265,
      "oon": 6266,
      "ocr": 6267,
      "pit": 6268,
      "pic": 6269,
      "pent": 6270,
      "pha": 6271,
      "pure": 6272,
      "pip": 6273,
      "pire": 6274,
      "pick": 6275,
      "praised": 6276,
      "rd": 6277,
      "ring": 6278,
      "ram": 6279,
      "rare": 6280,
      "rine": 6281,
      "rho": 6282,
      "ratio": 6283,
      "sar": 6284,
      "scan": 6285,
      "tle": 6286,
      "tel": 6287,
      "tong": 6288,
      "tail": 6289,
      "task": 6290,
      "uals": 6291,
      "wound": 6292,
      "wrest": 6293,
      "wami": 6294,
      "yer": 6295,
      "yar": 6296,
      "yas": 6297,
      "zon": 6298,
      "zones": 6299,
      "thro": 6300,
      "thick": 6301,
      "ining": 6302,
      "insp": 6303,
      "inals": 6304,
      "anid": 6305,
      "erthy": 6306,
      "thes": 6307,
      "oned": 6308,
      "rew": 6309,
      "rebe": 6310,
      "reci": 6311,
      "reno": 6312,
      "repre": 6313,
      "atoes": 6314,
      "island": 6315,
      "enge": 6316,
      "oram": 6317,
      "orient": 6318,
      "esperson": 6319,
      "ald": 6320,
      "alle": 6321,
      "alive": 6322,
      "alcohol": 6323,
      "eding": 6324,
      "tomb": 6325,
      "armed": 6326,
      "arlal": 6327,
      "asleep": 6328,
      "itaries": 6329,
      "hey": 6330,
      "heat": 6331,
      "icke": 6332,
      "stories": 6333,
      "style": 6334,
      "entered": 6335,
      "veter": 6336,
      "behave": 6337,
      "beings": 6338,
      "amaz": 6339,
      "sect": 6340,
      "semin": 6341,
      "hav": 6342,
      "roid": 6343,
      "root": 6344,
      "ayana": 6345,
      "adult": 6346,
      "adjust": 6347,
      "adhan": 6348,
      "advert": 6349,
      "chased": 6350,
      "imports": 6351,
      "imposed": 6352,
      "imagine": 6353,
      "oty": 6354,
      "otic": 6355,
      "iris": 6356,
      "irrigation": 6357,
      "terms": 6358,
      "terrible": 6359,
      "Thess": 6360,
      "Indo": 6361,
      "Inspe": 6362,
      "illa": 6363,
      "illust": 6364,
      "trave": 6365,
      "alla": 6366,
      "urban": 6367,
      "igers": 6368,
      "igations": 6369,
      "igible": 6370,
      "agu": 6371,
      "aggress": 6372,
      "unve": 6373,
      "unable": 6374,
      "unemployment": 6375,
      "universe": 6376,
      "opted": 6377,
      "resto": 6378,
      "resist": 6379,
      "resource": 6380,
      "deed": 6381,
      "deleg": 6382,
      "compl": 6383,
      "commemor": 6384,
      "lip": 6385,
      "lived": 6386,
      "concl": 6387,
      "conven": 6388,
      "conspir": 6389,
      "conflict": 6390,
      "consequences": 6391,
      "estate": 6392,
      "fraud": 6393,
      "losing": 6394,
      "proof": 6395,
      "prosper": 6396,
      "provisions": 6397,
      "accounts": 6398,
      "weve": 6399,
      "weather": 6400,
      "riev": 6401,
      "Indies": 6402,
      "fees": 6403,
      "teas": 6404,
      "moon": 6405,
      "mock": 6406,
      "sumer": 6407,
      "output": 6408,
      "essions": 6409,
      "umph": 6410,
      "aharlal": 6411,
      "exchange": 6412,
      "exports": 6413,
      "excell": 6414,
      "expand": 6415,
      "Change": 6416,
      "Church": 6417,
      "osis": 6418,
      "avati": 6419,
      "ellite": 6420,
      "omegran": 6421,
      "raj": 6422,
      "nore": 6423,
      "noise": 6424,
      "earned": 6425,
      "email": 6426,
      "pping": 6427,
      "particular": 6428,
      "auth": 6429,
      "upon": 6430,
      "disaster": 6431,
      "Web": 6432,
      "eva": 6433,
      "boot": 6434,
      "coach": 6435,
      "spark": 6436,
      "ankind": 6437,
      "ultimate": 6438,
      "icted": 6439,
      "athan": 6440,
      "aiah": 6441,
      "epuram": 6442,
      "format": 6443,
      "formation": 6444,
      "formula": 6445,
      "assing": 6446,
      "assment": 6447,
      "assador": 6448,
      "190": 6449,
      "rupee": 6450,
      "hik": 6451,
      "scen": 6452,
      "brings": 6453,
      "offers": 6454,
      "cket": 6455,
      "Image": 6456,
      "Youve": 6457,
      "awar": 6458,
      "crimes": 6459,
      "cricke": 6460,
      "Noah": 6461,
      "creation": 6462,
      "creator": 6463,
      "crop": 6464,
      "clar": 6465,
      "cluster": 6466,
      "investors": 6467,
      "ashed": 6468,
      "specially": 6469,
      "interim": 6470,
      "interfere": 6471,
      "attach": 6472,
      "preser": 6473,
      "presence": 6474,
      "intell": 6475,
      "intend": 6476,
      "iants": 6477,
      "seeking": 6478,
      "writing": 6479,
      "leads": 6480,
      "102": 6481,
      "103": 6482,
      "104": 6483,
      "Competition": 6484,
      "anna": 6485,
      "accus": 6486,
      "merciful": 6487,
      "colle": 6488,
      "collected": 6489,
      "Sea": 6490,
      "Sector": 6491,
      "guest": 6492,
      "visiting": 6493,
      "Raja": 6494,
      "Rajput": 6495,
      "Rajnath": 6496,
      "isement": 6497,
      "Arvind": 6498,
      "Doctors": 6499,
      "relax": 6500,
      "types": 6501,
      "looks": 6502,
      "Neh": 6503,
      "126": 6504,
      "Report": 6505,
      "Recently": 6506,
      "goti": 6507,
      "Prov": 6508,
      "phones": 6509,
      "Leave": 6510,
      "100000": 6511,
      "compress": 6512,
      "compared": 6513,
      "computer": 6514,
      "bert": 6515,
      "berth": 6516,
      "womans": 6517,
      "rainy": 6518,
      "surve": 6519,
      "throughout": 6520,
      "Governments": 6521,
      "stood": 6522,
      "stomach": 6523,
      "legit": 6524,
      "156": 6525,
      "1500": 6526,
      "vessel": 6527,
      "corruption": 6528,
      "addy": 6529,
      "prize": 6530,
      "priority": 6531,
      "prizes": 6532,
      "download": 6533,
      "169": 6534,
      "residents": 6535,
      "ekiel": 6536,
      "humble": 6537,
      "submitted": 6538,
      "subscri": 6539,
      "grams": 6540,
      "aidu": 6541,
      "Trade": 6542,
      "clothes": 6543,
      "obed": 6544,
      "Canad": 6545,
      "cheepuram": 6546,
      "heads": 6547,
      "Coord": 6548,
      "solar": 6549,
      "Front": 6550,
      "appan": 6551,
      "ritious": 6552,
      "struct": 6553,
      "Alliance": 6554,
      "mining": 6555,
      "calcul": 6556,
      "Conf": 6557,
      "Conference": 6558,
      "salvation": 6559,
      "Love": 6560,
      "Mano": 6561,
      "buses": 6562,
      "drastically": 6563,
      "170": 6564,
      "breathe": 6565,
      "teachings": 6566,
      "Park": 6567,
      "continent": 6568,
      "factors": 6569,
      "purposes": 6570,
      "refresh": 6571,
      "refuge": 6572,
      "presented": 6573,
      "Resurrection": 6574,
      "normally": 6575,
      "youngsters": 6576,
      "shoot": 6577,
      "views": 6578,
      "Mahatma": 6579,
      "heavens": 6580,
      "prominent": 6581,
      "Boil": 6582,
      "qualities": 6583,
      "Order": 6584,
      "dete": 6585,
      "IDS": 6586,
      "payments": 6587,
      "Everybodys": 6588,
      "smaller": 6589,
      "foundation": 6590,
      "generally": 6591,
      "Ramanath": 6592,
      "prayed": 6593,
      "praying": 6594,
      "flower": 6595,
      "technologies": 6596,
      "Malays": 6597,
      "deny": 6598,
      "metro": 6599,
      "winner": 6600,
      "realize": 6601,
      "towns": 6602,
      "complaints": 6603,
      "bringing": 6604,
      "III": 6605,
      "improving": 6606,
      "answers": 6607,
      "spiritually": 6608,
      "variants": 6609,
      "peaceful": 6610,
      "keeps": 6611,
      "Lankas": 6612,
      "kindness": 6613,
      "mustard": 6614,
      "plane": 6615,
      "Sale": 6616,
      "required": 6617,
      "terrorist": 6618,
      "Enter": 6619,
      "delivery": 6620,
      "famine": 6621,
      "sixth": 6622,
      "Chak": 6623,
      "Keerthy": 6624,
      "hydr": 6625,
      "liked": 6626,
      "Hero": 6627,
      "rising": 6628,
      "agaraj": 6629,
      "appointment": 6630,
      "commitment": 6631,
      "affairs": 6632,
      "boring": 6633,
      "majority": 6634,
      "panchay": 6635,
      "Periyar": 6636,
      "Tribal": 6637,
      "ridge": 6638,
      "suffer": 6639,
      "spreading": 6640,
      "severe": 6641,
      "William": 6642,
      "horror": 6643,
      "hammad": 6644,
      "tourists": 6645,
      "wheat": 6646,
      "wheel": 6647,
      "hurry": 6648,
      "companions": 6649,
      "network": 6650,
      "satellite": 6651,
      "CEO": 6652,
      "Devi": 6653,
      "Devil": 6654,
      "housing": 6655,
      "sleeping": 6656,
      "quarter": 6657,
      "Kovind": 6658,
      "diction": 6659,
      "mistakes": 6660,
      "publish": 6661,
      "researchers": 6662,
      "Thirum": 6663,
      "Thiruv": 6664,
      "awarded": 6665,
      "demanded": 6666,
      "James": 6667,
      "responding": 6668,
      "Josh": 6669,
      "sinful": 6670,
      "superb": 6671,
      "Kancheepuram": 6672,
      "animal": 6673,
      "stayed": 6674,
      "separately": 6675,
      "governance": 6676,
      "province": 6677,
      "boxes": 6678,
      "1987": 6679,
      "Superintend": 6680,
      "gifts": 6681,
      "debt": 6682,
      "Region": 6683,
      "Regional": 6684,
      "Awards": 6685,
      "CPWD": 6686,
      "araman": 6687,
      "lifes": 6688,
      "introduce": 6689,
      "Pandit": 6690,
      "kilos": 6691,
      "pattern": 6692,
      "warming": 6693,
      "option": 6694,
      "prophet": 6695,
      "souls": 6696,
      "Buy": 6697,
      "Edapp": 6698,
      "potatoes": 6699,
      "Societies": 6700,
      "addressed": 6701,
      "affects": 6702,
      "recognised": 6703,
      "satisfying": 6704,
      "Bhut": 6705,
      "Muth": 6706,
      "Muhammad": 6707,
      "copper": 6708,
      "flooded": 6709,
      "oxide": 6710,
      "wishes": 6711,
      "integrity": 6712,
      "consist": 6713,
      "historic": 6714,
      "drugs": 6715,
      "junction": 6716,
      "machine": 6717,
      "secution": 6718,
      "secular": 6719,
      "concern": 6720,
      "contribute": 6721,
      "excited": 6722,
      "exciting": 6723,
      "blessing": 6724,
      "survive": 6725,
      "objective": 6726,
      "conducting": 6727,
      "Motors": 6728,
      "cumin": 6729,
      "failed": 6730,
      "failure": 6731,
      "phases": 6732,
      "squad": 6733,
      "enjoyed": 6734,
      "devices": 6735,
      "congratulated": 6736,
      "principles": 6737,
      "Messenger": 6738,
      "Narayan": 6739,
      "Petrol": 6740,
      "deposits": 6741,
      "condemn": 6742,
      "settled": 6743,
      "Ashok": 6744,
      "Babylon": 6745,
      "Ganga": 6746,
      "balls": 6747,
      "ethnic": 6748,
      "rapid": 6749,
      "snacks": 6750,
      "Investment": 6751,
      "akumari": 6752,
      "Prabhas": 6753,
      "Prabhu": 6754,
      "Buddhist": 6755,
      "Despite": 6756,
      "Small": 6757,
      "Valley": 6758,
      "garden": 6759,
      "gardens": 6760,
      "apostle": 6761,
      "apostles": 6762,
      "constituencies": 6763,
      "Febru": 6764,
      "Nirmala": 6765,
      "vacation": 6766,
      "enemy": 6767,
      "documents": 6768,
      "monitoring": 6769,
      "Metrology": 6770,
      "Krishnagiri": 6771,
      "Georg": 6772,
      "George": 6773,
      "Benef": 6774,
      "Capital": 6775,
      "Ezekiel": 6776,
      "pioneer": 6777,
      "pioneers": 6778,
      "www": 6779,
      "istration": 6780,
      "akkal": 6781,
      "substance": 6782,
      "struggle": 6783,
      "magazine": 6784,
      "magazines": 6785,
      "journalists": 6786,
      "History": 6787,
      "Padma": 6788,
      "Self": 6789,
      "pilot": 6790,
      "waters": 6791,
      "remaining": 6792,
      "granted": 6793,
      "empowerment": 6794,
      "efficiency": 6795,
      "preparing": 6796,
      "believes": 6797,
      "Brazilian": 6798,
      "Alexander": 6799,
      "Details": 6800,
      "Jawaharlal": 6801,
      "Nalini": 6802,
      "Picture": 6803,
      "Sasik": 6804,
      "Sushma": 6805,
      "twenty": 6806,
      "aswamy": 6807,
      "earthquake": 6808,
      "Shakti": 6809,
      "Abdullah": 6810,
      "professional": 6811,
      "citizenship": 6812,
      "sacrifice": 6813,
      "Current": 6814,
      "Climate": 6815,
      "Stalin": 6816,
      "Vinay": 6817,
      "floor": 6818,
      "walls": 6819,
      "revealed": 6820,
      "Chirac": 6821,
      "flagship": 6822,
      "Bharatiya": 6823,
      "professionals": 6824,
      "Tribunal": 6825,
      "divorce": 6826,
      "cheduled": 6827,
      "circumstances": 6828,
      "Philippines": 6829,
      "Afghanistan": 6830,
      "Gospel": 6831,
      "Jeremiah": 6832,
      "Southern": 6833,
      "scooter": 6834,
      "tragic": 6835,
      "framework": 6836,
      "premium": 6837,
      "genetic": 6838,
      "symptoms": 6839,
      "selfishness": 6840,
      "Library": 6841,
      "culprits": 6842,
      "discipline": 6843,
      "Aadhaar": 6844,
      "Besides": 6845,
      "BCCI": 6846,
      "Candidates": 6847,
      "Revenue": 6848,
      "ransom": 6849,
      "anoint": 6850,
      "adolescent": 6851,
      "liquid": 6852,
      "embarr": 6853,
      "adequate": 6854,
      "anniversary": 6855,
      "Several": 6856,
      "Rajapaksa": 6857,
      "Karunanid": 6858,
      "dynamic": 6859,
      "Meteorological": 6860,
      "nutrition": 6861,
      "Academy": 6862,
      "equipment": 6863,
      "Mukherjee": 6864,
      "semifinals": 6865,
      "Tendulkar": 6866,
      "vulnerable": 6867,
      "Archaeology": 6868,
      "Further": 6869,
      "Language": 6870,
      "Safety": 6871,
      "Yojana": 6872,
      "Young": 6873,
      "gearbox": 6874,
      "throat": 6875,
      "inspired": 6876,
      "renov": 6877,
      "Thessalon": 6878,
      "Ramanathapuram": 6879,
      "February": 6880,
      "03": 6881,
      "1st": 6882,
      "350": 6883,
      "370": 6884,
      "3rd": 6885,
      "4000": 6886,
      "53": 6887,
      "5th": 6888,
      "66": 6889,
      "625": 6890,
      "77": 6891,
      "7000": 6892,
      "7500": 6893,
      "98": 6894,
      "Aar": 6895,
      "Apost": 6896,
      "AAP": 6897,
      "Awake": 6898,
      "Aadmi": 6899,
      "AIDS": 6900,
      "Bat": 6901,
      "Bir": 6902,
      "Bill": 6903,
      "Bus": 6904,
      "Bet": 6905,
      "Bod": 6906,
      "Bac": 6907,
      "Blood": 6908,
      "Bhu": 6909,
      "Bran": 6910,
      "Bomb": 6911,
      "Cir": 6912,
      "Cau": 6913,
      "Cath": 6914,
      "Creat": 6915,
      "Cons": 6916,
      "Din": 6917,
      "Dom": 6918,
      "Dam": 6919,
      "Dow": 6920,
      "Dindi": 6921,
      "EL": 6922,
      "EV": 6923,
      "Ek": 6924,
      "Er": 6925,
      "Est": 6926,
      "Eight": 6927,
      "Emer": 6928,
      "Event": 6929,
      "Ener": 6930,
      "Elections": 6931,
      "Fill": 6932,
      "Flo": 6933,
      "Five": 6934,
      "Ford": 6935,
      "Free": 6936,
      "Found": 6937,
      "Freedom": 6938,
      "GR": 6939,
      "GT": 6940,
      "Gent": 6941,
      "Gross": 6942,
      "Gopal": 6943,
      "Hor": 6944,
      "Hit": 6945,
      "Hom": 6946,
      "Hab": 6947,
      "Hous": 6948,
      "Hills": 6949,
      "Horticulture": 6950,
      "IAS": 6951,
      "Ju": 6952,
      "Jav": 6953,
      "KS": 6954,
      "Kat": 6955,
      "Ken": 6956,
      "Kha": 6957,
      "Kad": 6958,
      "Kel": 6959,
      "Kod": 6960,
      "Kav": 6961,
      "LO": 6962,
      "Ling": 6963,
      "Lic": 6964,
      "Live": 6965,
      "Liter": 6966,
      "LTT": 6967,
      "MB": 6968,
      "MW": 6969,
      "Mong": 6970,
      "Mult": 6971,
      "Math": 6972,
      "Mount": 6973,
      "Nand": 6974,
      "Nit": 6975,
      "Nad": 6976,
      "Nok": 6977,
      "NDA": 6978,
      "Naidu": 6979,
      "OD": 6980,
      "OF": 6981,
      "OS": 6982,
      "Old": 6983,
      "Ocean": 6984,
      "Pow": 6985,
      "Pot": 6986,
      "Pac": 6987,
      "Page": 6988,
      "Pass": 6989,
      "RO": 6990,
      "Ren": 6991,
      "Rab": 6992,
      "Rain": 6993,
      "Rate": 6994,
      "Ruk": 6995,
      "Rana": 6996,
      "Rather": 6997,
      "Rights": 6998,
      "Ranj": 6999,
      "SH": 7000,
      "SI": 7001,
      "SL": 7002,
      "SO": 7003,
      "Sl": 7004,
      "Sil": 7005,
      "Send": 7006,
      "Sard": 7007,
      "Sho": 7008,
      "Strict": 7009,
      "Sib": 7010,
      "Stop": 7011,
      "Sports": 7012,
      "Span": 7013,
      "Srid": 7014,
      "Saudi": 7015,
      "SBI": 7016,
      "Savings": 7017,
      "Tar": 7018,
      "Tru": 7019,
      "Try": 7020,
      "Um": 7021,
      "Unt": 7022,
      "Vish": 7023,
      "Wu": 7024,
      "Would": 7025,
      "Wind": 7026,
      "Wick": 7027,
      "Witness": 7028,
      "WHO": 7029,
      "Yu": 7030,
      "aar": 7031,
      "blo": 7032,
      "brown": 7033,
      "cod": 7034,
      "cate": 7035,
      "dral": 7036,
      "dental": 7037,
      "dancing": 7038,
      "eighth": 7039,
      "fle": 7040,
      "fly": 7041,
      "fif": 7042,
      "fash": 7043,
      "frog": 7044,
      "fresh": 7045,
      "founder": 7046,
      "gin": 7047,
      "gro": 7048,
      "gate": 7049,
      "giris": 7050,
      "hil": 7051,
      "hill": 7052,
      "hala": 7053,
      "iated": 7054,
      "ience": 7055,
      "jah": 7056,
      "ky": 7057,
      "kha": 7058,
      "kim": 7059,
      "kumar": 7060,
      "lor": 7061,
      "lord": 7062,
      "laid": 7063,
      "mel": 7064,
      "mig": 7065,
      "mate": 7066,
      "math": 7067,
      "migr": 7068,
      "middle": 7069,
      "mankind": 7070,
      "nom": 7071,
      "none": 7072,
      "odi": 7073,
      "ood": 7074,
      "obl": 7075,
      "ooth": 7076,
      "pher": 7077,
      "phan": 7078,
      "pomegran": 7079,
      "rr": 7080,
      "rad": 7081,
      "rab": 7082,
      "rant": 7083,
      "rum": 7084,
      "rical": 7085,
      "radi": 7086,
      "sand": 7087,
      "sab": 7088,
      "snow": 7089,
      "sinc": 7090,
      "simp": 7091,
      "tag": 7092,
      "tough": 7093,
      "tren": 7094,
      "tired": 7095,
      "uate": 7096,
      "uters": 7097,
      "vam": 7098,
      "vine": 7099,
      "vents": 7100,
      "wer": 7101,
      "wet": 7102,
      "whel": 7103,
      "wala": 7104,
      "wished": 7105,
      "xic": 7106,
      "yn": 7107,
      "yam": 7108,
      "yank": 7109,
      "thr": 7110,
      "institutional": 7111,
      "anal": 7112,
      "anab": 7113,
      "ancy": 7114,
      "anxiety": 7115,
      "erad": 7116,
      "theart": 7117,
      "rely": 7118,
      "reput": 7119,
      "atmo": 7120,
      "isol": 7121,
      "oral": 7122,
      "oring": 7123,
      "esome": 7124,
      "alment": 7125,
      "alous": 7126,
      "alian": 7127,
      "alayam": 7128,
      "oured": 7129,
      "towards": 7130,
      "tools": 7131,
      "toxic": 7132,
      "arily": 7133,
      "asc": 7134,
      "aspect": 7135,
      "andum": 7136,
      "hee": 7137,
      "hek": 7138,
      "height": 7139,
      "icop": 7140,
      "lete": 7141,
      "lease": 7142,
      "leaf": 7143,
      "sty": 7144,
      "stir": 7145,
      "stig": 7146,
      "street": 7147,
      "omas": 7148,
      "amend": 7149,
      "sees": 7150,
      "iding": 7151,
      "idol": 7152,
      "roying": 7153,
      "admon": 7154,
      "admission": 7155,
      "adopt": 7156,
      "chop": 7157,
      "channel": 7158,
      "ola": 7159,
      "immor": 7160,
      "impress": 7161,
      "ote": 7162,
      "dialogue": 7163,
      "digestion": 7164,
      "irt": 7165,
      "elo": 7166,
      "eless": 7167,
      "eligible": 7168,
      "Think": 7169,
      "Third": 7170,
      "Thooth": 7171,
      "Insurance": 7172,
      "illness": 7173,
      "utions": 7174,
      "whatever": 7175,
      "trail": 7176,
      "trillion": 7177,
      "traged": 7178,
      "allies": 7179,
      "allnew": 7180,
      "uran": 7181,
      "urag": 7182,
      "hase": 7183,
      "agam": 7184,
      "agents": 7185,
      "una": 7186,
      "unknown": 7187,
      "unpreced": 7188,
      "unemployed": 7189,
      "ulate": 7190,
      "user": 7191,
      "users": 7192,
      "resistance": 7193,
      "residence": 7194,
      "govin": 7195,
      "aks": 7196,
      "akar": 7197,
      "abol": 7198,
      "absor": 7199,
      "odal": 7200,
      "decre": 7201,
      "deals": 7202,
      "degre": 7203,
      "define": 7204,
      "compe": 7205,
      "libr": 7206,
      "concept": 7207,
      "contrad": 7208,
      "context": 7209,
      "conservation": 7210,
      "constitutional": 7211,
      "converted": 7212,
      "fridge": 7213,
      "location": 7214,
      "socalled": 7215,
      "proved": 7216,
      "proposed": 7217,
      "proportion": 7218,
      "meal": 7219,
      "meter": 7220,
      "meters": 7221,
      "lyrics": 7222,
      "nets": 7223,
      "negoti": 7224,
      "sav": 7225,
      "anting": 7226,
      "antic": 7227,
      "anticip": 7228,
      "shout": 7229,
      "rival": 7230,
      "dozen": 7231,
      "artist": 7232,
      "articles": 7233,
      "aph": 7234,
      "apy": 7235,
      "apers": 7236,
      "apolog": 7237,
      "fection": 7238,
      "feels": 7239,
      "worn": 7240,
      "worst": 7241,
      "mos": 7242,
      "mood": 7243,
      "mosqu": 7244,
      "suc": 7245,
      "plat": 7246,
      "plot": 7247,
      "uma": 7248,
      "ahu": 7249,
      "external": 7250,
      "cancel": 7251,
      "cium": 7252,
      "iva": 7253,
      "ivors": 7254,
      "avika": 7255,
      "keeper": 7256,
      "perse": 7257,
      "percor": 7258,
      "ellow": 7259,
      "endure": 7260,
      "grain": 7261,
      "grass": 7262,
      "rape": 7263,
      "rather": 7264,
      "raising": 7265,
      "2022": 7266,
      "emon": 7267,
      "angers": 7268,
      "angalam": 7269,
      "upper": 7270,
      "upcoming": 7271,
      "upathi": 7272,
      "updates": 7273,
      "discovered": 7274,
      "Rs9": 7275,
      "Prom": 7276,
      "Pradhan": 7277,
      "Pranab": 7278,
      "identify": 7279,
      "ipper": 7280,
      "evac": 7281,
      "Italian": 7282,
      "worker": 7283,
      "Sovi": 7284,
      "boat": 7285,
      "boil": 7286,
      "sphere": 7287,
      "ulty": 7288,
      "athlet": 7289,
      "epis": 7290,
      "assium": 7291,
      "assistant": 7292,
      "Answ": 7293,
      "Anurag": 7294,
      "manage": 7295,
      "invite": 7296,
      "invitation": 7297,
      "firms": 7298,
      "regions": 7299,
      "regional": 7300,
      "rence": 7301,
      "poison": 7302,
      "scal": 7303,
      "brid": 7304,
      "offered": 7305,
      "offensive": 7306,
      "bled": 7307,
      "bling": 7308,
      "blical": 7309,
      "blamed": 7310,
      "Shr": 7311,
      "Shant": 7312,
      "Shami": 7313,
      "Stat": 7314,
      "Still": 7315,
      "Staff": 7316,
      "served": 7317,
      "awa": 7318,
      "shoulder": 7319,
      "commence": 7320,
      "However": 7321,
      "credi": 7322,
      "controvers": 7323,
      "jections": 7324,
      "mugg": 7325,
      "ensus": 7326,
      "clin": 7327,
      "click": 7328,
      "cloud": 7329,
      "overs": 7330,
      "overwhel": 7331,
      "calling": 7332,
      "spect": 7333,
      "interactive": 7334,
      "interrog": 7335,
      "Unions": 7336,
      "monsoon": 7337,
      "Deuter": 7338,
      "prescribe": 7339,
      "Fort": 7340,
      "Forces": 7341,
      "ogy": 7342,
      "icky": 7343,
      "statements": 7344,
      "Compare": 7345,
      "accur": 7346,
      "Whenever": 7347,
      "Chris": 7348,
      "colours": 7349,
      "fined": 7350,
      "finances": 7351,
      "guards": 7352,
      "Arch": 7353,
      "Around": 7354,
      "verses": 7355,
      "akhand": 7356,
      "Need": 7357,
      "itecture": 7358,
      "122": 7359,
      "12th": 7360,
      "Real": 7361,
      "Remove": 7362,
      "countrys": 7363,
      "missions": 7364,
      "blems": 7365,
      "draft": 7366,
      "phosp": 7367,
      "stands": 7368,
      "Andre": 7369,
      "Android": 7370,
      "exams": 7371,
      "airy": 7372,
      "harmed": 7373,
      "parking": 7374,
      "parliament": 7375,
      "paradise": 7376,
      "rained": 7377,
      "rainfall": 7378,
      "iki": 7379,
      "2005": 7380,
      "Onion": 7381,
      "Online": 7382,
      "Delta": 7383,
      "servant": 7384,
      "eshwar": 7385,
      "stores": 7386,
      "stocks": 7387,
      "legisl": 7388,
      "highly": 7389,
      "icipality": 7390,
      "homework": 7391,
      "hometown": 7392,
      "powered": 7393,
      "Theni": 7394,
      "cert": 7395,
      "ventions": 7396,
      "corpor": 7397,
      "ysis": 7398,
      "arrests": 7399,
      "priest": 7400,
      "Marx": 7401,
      "Marriage": 7402,
      "sentence": 7403,
      "sentenced": 7404,
      "sentiment": 7405,
      "Advan": 7406,
      "putting": 7407,
      "ushman": 7408,
      "Policy": 7409,
      "farms": 7410,
      "supports": 7411,
      "ixel": 7412,
      "ukudi": 7413,
      "ukottai": 7414,
      "domin": 7415,
      "carry": 7416,
      "closer": 7417,
      "turb": 7418,
      "Districts": 7419,
      "objected": 7420,
      "objection": 7421,
      "objections": 7422,
      "ifications": 7423,
      "Expect": 7424,
      "desire": 7425,
      "desires": 7426,
      "describe": 7427,
      "fertil": 7428,
      "ibilities": 7429,
      "operated": 7430,
      "chain": 7431,
      "Covid": 7432,
      "Supp": 7433,
      "custom": 7434,
      "solid": 7435,
      "struction": 7436,
      "minority": 7437,
      "minute": 7438,
      "shell": 7439,
      "shepher": 7440,
      "Conservation": 7441,
      "Construction": 7442,
      "Work": 7443,
      "Works": 7444,
      "Workers": 7445,
      "Centres": 7446,
      "courses": 7447,
      "handle": 7448,
      "warrant": 7449,
      "balur": 7450,
      "iji": 7451,
      "Mantri": 7452,
      "Manufact": 7453,
      "Yesterday": 7454,
      "bigger": 7455,
      "dragon": 7456,
      "ceptive": 7457,
      "breach": 7458,
      "Robert": 7459,
      "garb": 7460,
      "garwal": 7461,
      "models": 7462,
      "passion": 7463,
      "voted": 7464,
      "voting": 7465,
      "northeast": 7466,
      "drivers": 7467,
      "qualified": 7468,
      "foods": 7469,
      "Corridor": 7470,
      "lessness": 7471,
      "fulltime": 7472,
      "organic": 7473,
      "locked": 7474,
      "pointed": 7475,
      "Sriv": 7476,
      "steel": 7477,
      "tenance": 7478,
      "treatments": 7479,
      "Drink": 7480,
      "roleum": 7481,
      "presidents": 7482,
      "generated": 7483,
      "turnout": 7484,
      "Madras": 7485,
      "depends": 7486,
      "begin": 7487,
      "programs": 7488,
      "Vijayan": 7489,
      "treas": 7490,
      "Malavika": 7491,
      "anthara": 7492,
      "Christianity": 7493,
      "facing": 7494,
      "untary": 7495,
      "successfully": 7496,
      "marks": 7497,
      "systems": 7498,
      "employee": 7499,
      "electronic": 7500,
      "tributes": 7501,
      "tribution": 7502,
      "violate": 7503,
      "hub": 7504,
      "milit": 7505,
      "IIT": 7506,
      "campus": 7507,
      "greet": 7508,
      "greater": 7509,
      "IPS": 7510,
      "husbands": 7511,
      "Assistance": 7512,
      "Amr": 7513,
      "Among": 7514,
      "destroying": 7515,
      "judicial": 7516,
      "kinds": 7517,
      "dams": 7518,
      "gging": 7519,
      "banana": 7520,
      "twow": 7521,
      "twoday": 7522,
      "Harry": 7523,
      "Harris": 7524,
      "everlasting": 7525,
      "confusion": 7526,
      "reasonable": 7527,
      "spirituality": 7528,
      "criter": 7529,
      "Chair": 7530,
      "aims": 7531,
      "strongly": 7532,
      "businesses": 7533,
      "288": 7534,
      "prevented": 7535,
      "Bharath": 7536,
      "Medium": 7537,
      "royal": 7538,
      "Country": 7539,
      "Play": 7540,
      "riches": 7541,
      "anchi": 7542,
      "deeply": 7543,
      "engineers": 7544,
      "hundreds": 7545,
      "skipper": 7546,
      "sanitation": 7547,
      "shortage": 7548,
      "Airport": 7549,
      "CBSE": 7550,
      "grandmother": 7551,
      "grandfather": 7552,
      "involvement": 7553,
      "Address": 7554,
      "seventh": 7555,
      "losses": 7556,
      "80s": 7557,
      "taxi": 7558,
      "taxes": 7559,
      "beauty": 7560,
      "grapes": 7561,
      "Educational": 7562,
      "Priyank": 7563,
      "SEC": 7564,
      "expectations": 7565,
      "avoided": 7566,
      "companion": 7567,
      "lucky": 7568,
      "1992": 7569,
      "1995": 7570,
      "bills": 7571,
      "donated": 7572,
      "donning": 7573,
      "appeared": 7574,
      "appealed": 7575,
      "regularly": 7576,
      "30000": 7577,
      "babies": 7578,
      "motion": 7579,
      "instalment": 7580,
      "advanced": 7581,
      "201112": 7582,
      "ronics": 7583,
      "sending": 7584,
      "initial": 7585,
      "encouraged": 7586,
      "encouraging": 7587,
      "resolve": 7588,
      "resolved": 7589,
      "football": 7590,
      "reply": 7591,
      "relationships": 7592,
      "MSME": 7593,
      "governing": 7594,
      "Bibles": 7595,
      "Spir": 7596,
      "Sciences": 7597,
      "dropped": 7598,
      "slave": 7599,
      "returns": 7600,
      "alyst": 7601,
      "mobil": 7602,
      "license": 7603,
      "voluntary": 7604,
      "challenge": 7605,
      "forcement": 7606,
      "Uttarakhand": 7607,
      "Senior": 7608,
      "Sivakumar": 7609,
      "kilomet": 7610,
      "patron": 7611,
      "rupted": 7612,
      "titled": 7613,
      "imming": 7614,
      "soldier": 7615,
      "approaches": 7616,
      "cription": 7617,
      "Premi": 7618,
      "Palanis": 7619,
      "potassium": 7620,
      "planned": 7621,
      "contains": 7622,
      "containment": 7623,
      "targeting": 7624,
      "satisfy": 7625,
      "satisfied": 7626,
      "Account": 7627,
      "Electronics": 7628,
      "Films": 7629,
      "copy": 7630,
      "copies": 7631,
      "oxy": 7632,
      "devotion": 7633,
      "Legal": 7634,
      "installed": 7635,
      "initiative": 7636,
      "Kapil": 7637,
      "equity": 7638,
      "infected": 7639,
      "infections": 7640,
      "influenced": 7641,
      "vegetable": 7642,
      "shopping": 7643,
      "crown": 7644,
      "crowded": 7645,
      "Production": 7646,
      "survived": 7647,
      "cotton": 7648,
      "glory": 7649,
      "arajan": 7650,
      "devast": 7651,
      "challenged": 7652,
      "Messiah": 7653,
      "Petroleum": 7654,
      "caste": 7655,
      "casual": 7656,
      "gaon": 7657,
      "reservation": 7658,
      "deposit": 7659,
      "deposited": 7660,
      "comfortable": 7661,
      "spending": 7662,
      "jointly": 7663,
      "Dhanushs": 7664,
      "BS6": 7665,
      "association": 7666,
      "associates": 7667,
      "washing": 7668,
      "Chandr": 7669,
      "coastal": 7670,
      "surprise": 7671,
      "translation": 7672,
      "Collectors": 7673,
      "Organisation": 7674,
      "Mahabal": 7675,
      "Memorandum": 7676,
      "Ayushman": 7677,
      "Design": 7678,
      "category": 7679,
      "collapse": 7680,
      "Secondary": 7681,
      "Tiruvallur": 7682,
      "criticized": 7683,
      "favorite": 7684,
      "Brother": 7685,
      "Municipal": 7686,
      "Person": 7687,
      "diagno": 7688,
      "Interest": 7689,
      "wonderful": 7690,
      "FIR": 7691,
      "Holy": 7692,
      "Himachal": 7693,
      "Kamala": 7694,
      "Korean": 7695,
      "Step": 7696,
      "fighters": 7697,
      "graded": 7698,
      "gradation": 7699,
      "collaboration": 7700,
      "individuals": 7701,
      "philosophy": 7702,
      "Histor": 7703,
      "Torah": 7704,
      "innovation": 7705,
      "digit": 7706,
      "digital": 7707,
      "convicted": 7708,
      "efficient": 7709,
      "Profess": 7710,
      "cyclone": 7711,
      "believing": 7712,
      "Certificate": 7713,
      "dollars": 7714,
      "fatality": 7715,
      "cancelled": 7716,
      "automatic": 7717,
      "automatically": 7718,
      "Teachers": 7719,
      "advantages": 7720,
      "neighbors": 7721,
      "Culture": 7722,
      "Fisher": 7723,
      "Honble": 7724,
      "Nilgiris": 7725,
      "Srinagar": 7726,
      "Thakur": 7727,
      "T20I": 7728,
      "Wait": 7729,
      "batsman": 7730,
      "eggs": 7731,
      "enthusi": 7732,
      "habits": 7733,
      "dignitaries": 7734,
      "worshippers": 7735,
      "sustainable": 7736,
      "Sharif": 7737,
      "valuation": 7738,
      "Dravidar": 7739,
      "connectivity": 7740,
      "penalty": 7741,
      "Ahmedabad": 7742,
      "determination": 7743,
      "Olympic": 7744,
      "Campus": 7745,
      "Mexico": 7746,
      "Sikkim": 7747,
      "fiscal": 7748,
      "hungry": 7749,
      "routine": 7750,
      "onomy": 7751,
      "stabbed": 7752,
      "composer": 7753,
      "exploration": 7754,
      "mystery": 7755,
      "Govt": 7756,
      "Sethupathi": 7757,
      "broadcast": 7758,
      "retirement": 7759,
      "repentance": 7760,
      "Gulf": 7761,
      "Global": 7762,
      "Jonathan": 7763,
      "Jackson": 7764,
      "Lakshmi": 7765,
      "Nigeria": 7766,
      "iques": 7767,
      "slept": 7768,
      "scholarship": 7769,
      "reckless": 7770,
      "revolution": 7771,
      "ascertained": 7772,
      "straight": 7773,
      "Indones": 7774,
      "sovere": 7775,
      "shifted": 7776,
      "expenses": 7777,
      "Prophet": 7778,
      "Examination": 7779,
      "Response": 7780,
      "Saturday": 7781,
      "furniture": 7782,
      "multiply": 7783,
      "diagnosed": 7784,
      "Vivekananda": 7785,
      "Amazon": 7786,
      "Khans": 7787,
      "Kisan": 7788,
      "Limited": 7789,
      "Mallya": 7790,
      "Nayanthara": 7791,
      "Rules": 7792,
      "SUV": 7793,
      "Sitharaman": 7794,
      "Tokyo": 7795,
      "reprene": 7796,
      "travelling": 7797,
      "aggressive": 7798,
      "rievances": 7799,
      "sparked": 7800,
      "intelligence": 7801,
      "Nehru": 7802,
      "compressible": 7803,
      "obedient": 7804,
      "Canadian": 7805,
      "Confederation": 7806,
      "Edappadi": 7807,
      "Currently": 7808,
      "Thessalonians": 7809,
      "Business": 7810,
      "Branch": 7811,
      "Bombay": 7812,
      "Catholic": 7813,
      "Dindigul": 7814,
      "Emergency": 7815,
      "Energy": 7816,
      "LTTE": 7817,
      "Nokia": 7818,
      "Rukh": 7819,
      "Spanish": 7820,
      "Wickre": 7821,
      "migrate": 7822,
      "eradicate": 7823,
      "atmosphere": 7824,
      "chopped": 7825,
      "Thoothukudi": 7826,
      "trailer": 7827,
      "unprecedented": 7828,
      "degrees": 7829,
      "percorns": 7830,
      "Soviet": 7831,
      "Deuteronomy": 7832,
      "Advanced": 7833,
      "Manufacturing": 7834,
      "Priyanka": 7835,
      "Palaniswami": 7836,
      "05": 7837,
      "118": 7838,
      "220": 7839,
      "299": 7840,
      "2nd": 7841,
      "313": 7842,
      "317": 7843,
      "41": 7844,
      "5speed": 7845,
      "62": 7846,
      "650": 7847,
      "74": 7848,
      "8000": 7849,
      "93": 7850,
      "95": 7851,
      "AH": 7852,
      "AY": 7853,
      "Ach": 7854,
      "Apol": 7855,
      "Aud": 7856,
      "Amy": 7857,
      "Airl": 7858,
      "BE": 7859,
      "Bon": 7860,
      "Bay": 7861,
      "Bad": 7862,
      "Bot": 7863,
      "Bud": 7864,
      "Bose": 7865,
      "Bach": 7866,
      "Based": 7867,
      "Cal": 7868,
      "Care": 7869,
      "Cru": 7870,
      "Cases": 7871,
      "Cathe": 7872,
      "Cinem": 7873,
      "Craft": 7874,
      "DV": 7875,
      "Du": 7876,
      "Dag": 7877,
      "Dif": 7878,
      "Dharm": 7879,
      "Dub": 7880,
      "Double": 7881,
      "EC": 7882,
      "Es": 7883,
      "Eve": 7884,
      "Each": 7885,
      "Estate": 7886,
      "FO": 7887,
      "Far": 7888,
      "Fad": 7889,
      "Fear": 7890,
      "Find": 7891,
      "Gill": 7892,
      "GDP": 7893,
      "Grievances": 7894,
      "Hi": 7895,
      "Hos": 7896,
      "IA": 7897,
      "Irel": 7898,
      "Jas": 7899,
      "Jun": 7900,
      "Jul": 7901,
      "Jour": 7902,
      "Jhar": 7903,
      "Jason": 7904,
      "Jio": 7905,
      "Ku": 7906,
      "Kart": 7907,
      "Kong": 7908,
      "Kaj": 7909,
      "Kala": 7910,
      "Knight": 7911,
      "LC": 7912,
      "Ly": 7913,
      "Lou": 7914,
      "Lag": 7915,
      "Light": 7916,
      "Lash": 7917,
      "MM": 7918,
      "Mk": 7919,
      "Mis": 7920,
      "Mir": 7921,
      "Mul": 7922,
      "Mith": 7923,
      "Mach": 7924,
      "Mail": 7925,
      "Miz": 7926,
      "Miss": 7927,
      "Mars": 7928,
      "Million": 7929,
      "Match": 7930,
      "Major": 7931,
      "NS": 7932,
      "NT": 7933,
      "NU": 7934,
      "Non": 7935,
      "NCP": 7936,
      "Os": 7937,
      "Oct": 7938,
      "Oman": 7939,
      "PC": 7940,
      "PF": 7941,
      "Pa": 7942,
      "Pil": 7943,
      "Pent": 7944,
      "Pall": 7945,
      "Pack": 7946,
      "Pep": 7947,
      "Pione": 7948,
      "Pinar": 7949,
      "PTI": 7950,
      "Phase": 7951,
      "Qures": 7952,
      "RE": 7953,
      "RR": 7954,
      "Ret": 7955,
      "Rem": 7956,
      "Rich": 7957,
      "Redu": 7958,
      "Radha": 7959,
      "ST": 7960,
      "Sit": 7961,
      "Sex": 7962,
      "Song": 7963,
      "Same": 7964,
      "Sang": 7965,
      "Sust": 7966,
      "Sound": 7967,
      "Sund": 7968,
      "Samb": 7969,
      "Sevent": 7970,
      "Sury": 7971,
      "Sense": 7972,
      "Sidd": 7973,
      "Shik": 7974,
      "Scheduled": 7975,
      "Tag": 7976,
      "Tex": 7977,
      "Train": 7978,
      "Twent": 7979,
      "TMC": 7980,
      "THE": 7981,
      "Trees": 7982,
      "Us": 7983,
      "Uz": 7984,
      "UGC": 7985,
      "Va": 7986,
      "Vol": 7987,
      "Vision": 7988,
      "VIP": 7989,
      "Viet": 7990,
      "Wis": 7991,
      "Yellow": 7992,
      "bin": 7993,
      "bha": 7994,
      "bone": 7995,
      "bum": 7996,
      "bally": 7997,
      "bhar": 7998,
      "bility": 7999,
      "barri": 8000,
      "bacter": 8001,
      "cill": 8002,
      "cos": 8003,
      "cough": 8004,
      "cused": 8005,
      "cals": 8006,
      "culation": 8007,
      "ckey": 8008,
      "craz": 8009,
      "dal": 8010,
      "dess": 8011,
      "dating": 8012,
      "drough": 8013,
      "distan": 8014,
      "dying": 8015,
      "fre": 8016,
      "fel": 8017,
      "fame": 8018,
      "fold": 8019,
      "fond": 8020,
      "folder": 8021,
      "feder": 8022,
      "gat": 8023,
      "gad": 8024,
      "gall": 8025,
      "gang": 8026,
      "greed": 8027,
      "guru": 8028,
      "gender": 8029,
      "hman": 8030,
      "htar": 8031,
      "hitting": 8032,
      "horticulture": 8033,
      "iers": 8034,
      "iod": 8035,
      "iest": 8036,
      "iance": 8037,
      "iform": 8038,
      "iander": 8039,
      "jis": 8040,
      "jet": 8041,
      "kn": 8042,
      "kal": 8043,
      "kare": 8044,
      "khand": 8045,
      "kitch": 8046,
      "ln": 8047,
      "lon": 8048,
      "lers": 8049,
      "lines": 8050,
      "lights": 8051,
      "lung": 8052,
      "mart": 8053,
      "mail": 8054,
      "nar": 8055,
      "nap": 8056,
      "nond": 8057,
      "ool": 8058,
      "ock": 8059,
      "oja": 8060,
      "ocean": 8061,
      "pin": 8062,
      "pts": 8063,
      "pour": 8064,
      "pical": 8065,
      "piz": 8066,
      "pace": 8067,
      "pters": 8068,
      "pals": 8069,
      "penn": 8070,
      "pages": 8071,
      "psal": 8072,
      "patch": 8073,
      "pull": 8074,
      "pushed": 8075,
      "praise": 8076,
      "paste": 8077,
      "qf": 8078,
      "rational": 8079,
      "rating": 8080,
      "ritu": 8081,
      "range": 8082,
      "si": 8083,
      "sch": 8084,
      "slo": 8085,
      "spr": 8086,
      "sight": 8087,
      "sack": 8088,
      "shel": 8089,
      "sadd": 8090,
      "sort": 8091,
      "sports": 8092,
      "sari": 8093,
      "sessions": 8094,
      "smugg": 8095,
      "tu": 8096,
      "tall": 8097,
      "tab": 8098,
      "tank": 8099,
      "tort": 8100,
      "ticket": 8101,
      "tables": 8102,
      "tickets": 8103,
      "tiger": 8104,
      "ume": 8105,
      "uous": 8106,
      "uels": 8107,
      "uvar": 8108,
      "vani": 8109,
      "wings": 8110,
      "wave": 8111,
      "wars": 8112,
      "wadi": 8113,
      "wama": 8114,
      "woke": 8115,
      "wipe": 8116,
      "xid": 8117,
      "xim": 8118,
      "yth": 8119,
      "yot": 8120,
      "yiel": 8121,
      "zing": 8122,
      "zone": 8123,
      "ths": 8124,
      "thin": 8125,
      "thur": 8126,
      "inde": 8127,
      "inety": 8128,
      "inner": 8129,
      "indirectly": 8130,
      "inherit": 8131,
      "injection": 8132,
      "insect": 8133,
      "incompressible": 8134,
      "anc": 8135,
      "anas": 8136,
      "erk": 8137,
      "ersel": 8138,
      "erals": 8139,
      "onn": 8140,
      "onent": 8141,
      "onso": 8142,
      "rem": 8143,
      "rede": 8144,
      "rejo": 8145,
      "revers": 8146,
      "replace": 8147,
      "reaction": 8148,
      "revision": 8149,
      "recru": 8150,
      "atter": 8151,
      "atry": 8152,
      "atics": 8153,
      "enqu": 8154,
      "enities": 8155,
      "enjo": 8156,
      "encounter": 8157,
      "ora": 8158,
      "orial": 8159,
      "orrow": 8160,
      "oranges": 8161,
      "esians": 8162,
      "alas": 8163,
      "alright": 8164,
      "alert": 8165,
      "eda": 8166,
      "oul": 8167,
      "oust": 8168,
      "outr": 8169,
      "oute": 8170,
      "ouhan": 8171,
      "tosh": 8172,
      "toward": 8173,
      "aro": 8174,
      "ario": 8175,
      "asp": 8176,
      "asim": 8177,
      "assa": 8178,
      "asamy": 8179,
      "assets": 8180,
      "inger": 8181,
      "inghe": 8182,
      "item": 8183,
      "itable": 8184,
      "itivity": 8185,
      "itarian": 8186,
      "ilo": 8187,
      "ils": 8188,
      "icit": 8189,
      "icus": 8190,
      "ichi": 8191,
      "ionship": 8192,
      "leted": 8193,
      "stag": 8194,
      "stake": 8195,
      "stated": 8196,
      "stance": 8197,
      "stret": 8198,
      "stadium": 8199,
      "entry": 8200,
      "omi": 8201,
      "oms": 8202,
      "ombo": 8203,
      "veer": 8204,
      "beth": 8205,
      "behalf": 8206,
      "beloved": 8207,
      "amenities": 8208,
      "seasons": 8209,
      "sealed": 8210,
      "segments": 8211,
      "ida": 8212,
      "ider": 8213,
      "iders": 8214,
      "hael": 8215,
      "haust": 8216,
      "having": 8217,
      "cting": 8218,
      "ayi": 8219,
      "ads": 8220,
      "aders": 8221,
      "adapt": 8222,
      "adopted": 8223,
      "chase": 8224,
      "champ": 8225,
      "chasing": 8226,
      "chrom": 8227,
      "chicken": 8228,
      "forgive": 8229,
      "olution": 8230,
      "imens": 8231,
      "imacy": 8232,
      "otion": 8233,
      "diet": 8234,
      "dium": 8235,
      "divid": 8236,
      "dioxide": 8237,
      "irts": 8238,
      "irrit": 8239,
      "elam": 8240,
      "elines": 8241,
      "Though": 8242,
      "Things": 8243,
      "Thomas": 8244,
      "Inc": 8245,
      "Init": 8246,
      "Income": 8247,
      "Institut": 8248,
      "Integr": 8249,
      "Indeed": 8250,
      "illance": 8251,
      "tral": 8252,
      "tray": 8253,
      "trig": 8254,
      "tracted": 8255,
      "tractor": 8256,
      "allam": 8257,
      "peac": 8258,
      "urgent": 8259,
      "igar": 8260,
      "ignt": 8261,
      "ignore": 8262,
      "mentor": 8263,
      "mentation": 8264,
      "agency": 8265,
      "agitation": 8266,
      "uncle": 8267,
      "unfort": 8268,
      "unexpected": 8269,
      "uncertain": 8270,
      "uncles": 8271,
      "unbelievers": 8272,
      "universities": 8273,
      "uniform": 8274,
      "oppress": 8275,
      "uls": 8276,
      "ulpt": 8277,
      "ushan": 8278,
      "resurre": 8279,
      "goats": 8280,
      "aker": 8281,
      "akulam": 8282,
      "erson": 8283,
      "aband": 8284,
      "ably": 8285,
      "odhya": 8286,
      "deer": 8287,
      "deput": 8288,
      "defect": 8289,
      "defic": 8290,
      "devil": 8291,
      "defeat": 8292,
      "combat": 8293,
      "liant": 8294,
      "concent": 8295,
      "concess": 8296,
      "contempt": 8297,
      "consumer": 8298,
      "estyle": 8299,
      "franch": 8300,
      "sore": 8301,
      "prostr": 8302,
      "prooted": 8303,
      "propag": 8304,
      "megap": 8305,
      "aced": 8306,
      "academ": 8307,
      "accompl": 8308,
      "neck": 8309,
      "neersel": 8310,
      "ainted": 8311,
      "saving": 8312,
      "antial": 8313,
      "shan": 8314,
      "shut": 8315,
      "shore": 8316,
      "wearing": 8317,
      "doors": 8318,
      "apple": 8319,
      "feather": 8320,
      "feature": 8321,
      "therlands": 8322,
      "tear": 8323,
      "moth": 8324,
      "mole": 8325,
      "sue": 8326,
      "Heart": 8327,
      "Hearing": 8328,
      "withdra": 8329,
      "anya": 8330,
      "itya": 8331,
      "ums": 8332,
      "umes": 8333,
      "aho": 8334,
      "exact": 8335,
      "extre": 8336,
      "explan": 8337,
      "exhaust": 8338,
      "Chouhan": 8339,
      "cane": 8340,
      "imeters": 8341,
      "inism": 8342,
      "ivals": 8343,
      "avan": 8344,
      "ending": 8345,
      "portal": 8346,
      "portions": 8347,
      "whose": 8348,
      "grace": 8349,
      "2023": 8350,
      "2021": 8351,
      "noon": 8352,
      "ift": 8353,
      "hishek": 8354,
      "ema": 8355,
      "emphas": 8356,
      "quoted": 8357,
      "pride": 8358,
      "primary": 8359,
      "ppur": 8360,
      "ureau": 8361,
      "lled": 8362,
      "angal": 8363,
      "anged": 8364,
      "dup": 8365,
      "ause": 8366,
      "upuram": 8367,
      "updated": 8368,
      "discour": 8369,
      "disorder": 8370,
      "disorders": 8371,
      "disabled": 8372,
      "disperse": 8373,
      "Rs100": 8374,
      "Rs6000": 8375,
      "ored": 8376,
      "yours": 8377,
      "Pray": 8378,
      "knowing": 8379,
      "inces": 8380,
      "inced": 8381,
      "incense": 8382,
      "hob": 8383,
      "eving": 8384,
      "please": 8385,
      "workforce": 8386,
      "cooperate": 8387,
      "spell": 8388,
      "aired": 8389,
      "formal": 8390,
      "asek": 8391,
      "ideas": 8392,
      "1914": 8393,
      "1967": 8394,
      "1980s": 8395,
      "rub": 8396,
      "ruth": 8397,
      "aja": 8398,
      "Any": 8399,
      "Anne": 8400,
      "Animal": 8401,
      "butter": 8402,
      "manif": 8403,
      "managed": 8404,
      "indra": 8405,
      "Tamils": 8406,
      "hike": 8407,
      "hipp": 8408,
      "firing": 8409,
      "ctoral": 8410,
      "registration": 8411,
      "izing": 8412,
      "poon": 8413,
      "pole": 8414,
      "pool": 8415,
      "pocket": 8416,
      "scr": 8417,
      "scold": 8418,
      "sculpt": 8419,
      "brig": 8420,
      "brake": 8421,
      "blind": 8422,
      "Jewish": 8423,
      "Stay": 8424,
      "Start": 8425,
      "server": 8426,
      "Imagine": 8427,
      "crack": 8428,
      "cratic": 8429,
      "preh": 8430,
      "prey": 8431,
      "prelim": 8432,
      "prevents": 8433,
      "prestig": 8434,
      "ounds": 8435,
      "Nope": 8436,
      "Noahs": 8437,
      "helicop": 8438,
      "controlled": 8439,
      "jealous": 8440,
      "hadnt": 8441,
      "asket": 8442,
      "Goa": 8443,
      "ieth": 8444,
      "ashamed": 8445,
      "internal": 8446,
      "Island": 8447,
      "issan": 8448,
      "elements": 8449,
      "mons": 8450,
      "monetary": 8451,
      "monkeys": 8452,
      "everybody": 8453,
      "worldly": 8454,
      "inton": 8455,
      "intent": 8456,
      "intense": 8457,
      "seekers": 8458,
      "writ": 8459,
      "chooses": 8460,
      "importantly": 8461,
      "restoration": 8462,
      "101": 8463,
      "106": 8464,
      "Comm": 8465,
      "Commod": 8466,
      "Compan": 8467,
      "engagement": 8468,
      "coll": 8469,
      "cology": 8470,
      "finals": 8471,
      "financing": 8472,
      "Secret": 8473,
      "guys": 8474,
      "guests": 8475,
      "visible": 8476,
      "visual": 8477,
      "Raje": 8478,
      "Arm": 8479,
      "Arts": 8480,
      "Armed": 8481,
      "Arthur": 8482,
      "versions": 8483,
      "Netherlands": 8484,
      "canteen": 8485,
      "Really": 8486,
      "Remember": 8487,
      "decades": 8488,
      "Process": 8489,
      "Prohibition": 8490,
      "Problems": 8491,
      "childrens": 8492,
      "phy": 8493,
      "phen": 8494,
      "pharm": 8495,
      "landed": 8496,
      "compliant": 8497,
      "examined": 8498,
      "berries": 8499,
      "afternoon": 8500,
      "clever": 8501,
      "cleans": 8502,
      "haran": 8503,
      "paralle": 8504,
      "perspect": 8505,
      "alaxy": 8506,
      "focused": 8507,
      "directors": 8508,
      "producing": 8509,
      "USA": 8510,
      "USH": 8511,
      "flour": 8512,
      "flav": 8513,
      "floral": 8514,
      "backs": 8515,
      "backward": 8516,
      "genu": 8517,
      "household": 8518,
      "atively": 8519,
      "maid": 8520,
      "mathem": 8521,
      "surg": 8522,
      "surround": 8523,
      "surprising": 8524,
      "menu": 8525,
      "legend": 8526,
      "159": 8527,
      "atians": 8528,
      "captur": 8529,
      "capabilities": 8530,
      "certificates": 8531,
      "corn": 8532,
      "1800": 8533,
      "Poll": 8534,
      "163": 8535,
      "16th": 8536,
      "charging": 8537,
      "farmer": 8538,
      "supporters": 8539,
      "138": 8540,
      "13MP": 8541,
      "ampur": 8542,
      "subcontinent": 8543,
      "participation": 8544,
      "participants": 8545,
      "Tract": 8546,
      "clothing": 8547,
      "turbo": 8548,
      "turmeric": 8549,
      "transition": 8550,
      "transparent": 8551,
      "Disaster": 8552,
      "Distribution": 8553,
      "Cancer": 8554,
      "Exerc": 8555,
      "cheating": 8556,
      "descri": 8557,
      "ferred": 8558,
      "iba": 8559,
      "Presidents": 8560,
      "chaos": 8561,
      "chapters": 8562,
      "Cook": 8563,
      "postp": 8564,
      "Frank": 8565,
      "Frances": 8566,
      "valley": 8567,
      "apped": 8568,
      "maintenance": 8569,
      "Alto": 8570,
      "mineral": 8571,
      "minerals": 8572,
      "nationalist": 8573,
      "nationalism": 8574,
      "25000": 8575,
      "calam": 8576,
      "calcium": 8577,
      "trike": 8578,
      "triumph": 8579,
      "Bethe": 8580,
      "Beij": 8581,
      "Worship": 8582,
      "sale": 8583,
      "approve": 8584,
      "Centers": 8585,
      "courts": 8586,
      "shape": 8587,
      "warri": 8588,
      "Manager": 8589,
      "dram": 8590,
      "breaking": 8591,
      "breathing": 8592,
      "Paragu": 8593,
      "modest": 8594,
      "pura": 8595,
      "purchased": 8596,
      "listed": 8597,
      "passing": 8598,
      "password": 8599,
      "passenger": 8600,
      "voters": 8601,
      "Reser": 8602,
      "Reserve": 8603,
      "grown": 8604,
      "singer": 8605,
      "Colleges": 8606,
      "Colombo": 8607,
      "malaria": 8608,
      "architecture": 8609,
      "Together": 8610,
      "Team": 8611,
      "secondary": 8612,
      "PMGS": 8613,
      "organize": 8614,
      "mindset": 8615,
      "Whoops": 8616,
      "Gram": 8617,
      "Gradu": 8618,
      "steam": 8619,
      "attacking": 8620,
      "tense": 8621,
      "tenure": 8622,
      "Drama": 8623,
      "functions": 8624,
      "vocation": 8625,
      "voirs": 8626,
      "Raman": 8627,
      "popul": 8628,
      "depending": 8629,
      "counting": 8630,
      "begging": 8631,
      "Vijaya": 8632,
      "Vijays": 8633,
      "flowing": 8634,
      "fired": 8635,
      "trek": 8636,
      "treating": 8637,
      "techniques": 8638,
      "Higher": 8639,
      "receiving": 8640,
      "faced": 8641,
      "faculty": 8642,
      "limits": 8643,
      "bestselling": 8644,
      "metal": 8645,
      "metres": 8646,
      "surely": 8647,
      "Banks": 8648,
      "cultures": 8649,
      "finding": 8650,
      "reality": 8651,
      "employers": 8652,
      "Support": 8653,
      "cuts": 8654,
      "cutting": 8655,
      "spokesperson": 8656,
      "tribute": 8657,
      "Partners": 8658,
      "Speech": 8659,
      "signs": 8660,
      "complaining": 8661,
      "violations": 8662,
      "Sabar": 8663,
      "litres": 8664,
      "Israels": 8665,
      "Looking": 8666,
      "aza": 8667,
      "grew": 8668,
      "Wherever": 8669,
      "vari": 8670,
      "variant": 8671,
      "recordings": 8672,
      "Assist": 8673,
      "Bengali": 8674,
      "cub": 8675,
      "cuit": 8676,
      "judges": 8677,
      "occult": 8678,
      "connects": 8679,
      "planet": 8680,
      "Salt": 8681,
      "victim": 8682,
      "Abhishek": 8683,
      "confused": 8684,
      "Finn": 8685,
      "Finally": 8686,
      "respects": 8687,
      "respective": 8688,
      "respectful": 8689,
      "messenger": 8690,
      "tonnes": 8691,
      "processor": 8692,
      "ISL": 8693,
      "IST": 8694,
      "ISRO": 8695,
      "Key": 8696,
      "Within": 8697,
      "Without": 8698,
      "funded": 8699,
      "hypo": 8700,
      "discussing": 8701,
      "stronger": 8702,
      "acceptable": 8703,
      "Media": 8704,
      "kara": 8705,
      "photograph": 8706,
      "celebrations": 8707,
      "celebrities": 8708,
      "responsibilities": 8709,
      "Player": 8710,
      "Planting": 8711,
      "borrow": 8712,
      "panel": 8713,
      "anchor": 8714,
      "traders": 8715,
      "traditions": 8716,
      "applaud": 8717,
      "practices": 8718,
      "directing": 8719,
      "marketing": 8720,
      "sanct": 8721,
      "thankful": 8722,
      "extin": 8723,
      "profile": 8724,
      "grandson": 8725,
      "closely": 8726,
      "Empire": 8727,
      "Hereafter": 8728,
      "prises": 8729,
      "Hospitals": 8730,
      "palace": 8731,
      "grapher": 8732,
      "Meg": 8733,
      "Priya": 8734,
      "mesinghe": 8735,
      "arranged": 8736,
      "Internet": 8737,
      "capitalism": 8738,
      "Satans": 8739,
      "Sarath": 8740,
      "murdered": 8741,
      "stuff": 8742,
      "1990": 8743,
      "Devendra": 8744,
      "Kannur": 8745,
      "biof": 8746,
      "bedroom": 8747,
      "donor": 8748,
      "mistry": 8749,
      "swing": 8750,
      "swimming": 8751,
      "appear": 8752,
      "quarant": 8753,
      "quarrel": 8754,
      "maintained": 8755,
      "listened": 8756,
      "Maur": 8757,
      "holiday": 8758,
      "motive": 8759,
      "motiv": 8760,
      "Thiruk": 8761,
      "Thiruvan": 8762,
      "protested": 8763,
      "Matthews": 8764,
      "Fourth": 8765,
      "Survey": 8766,
      "Suriya": 8767,
      "southern": 8768,
      "thodox": 8769,
      "encouragement": 8770,
      "dealt": 8771,
      "speedy": 8772,
      "campaigns": 8773,
      "Akadem": 8774,
      "Bhai": 8775,
      "MLA": 8776,
      "Womens": 8777,
      "municipal": 8778,
      "municipality": 8779,
      "replied": 8780,
      "worthy": 8781,
      "railroad": 8782,
      "claims": 8783,
      "speaks": 8784,
      "checked": 8785,
      "Kanagaraj": 8786,
      "declare": 8787,
      "declined": 8788,
      "measure": 8789,
      "Shivan": 8790,
      "Shivraj": 8791,
      "Appe": 8792,
      "battles": 8793,
      "slaves": 8794,
      "warnings": 8795,
      "CPIM": 8796,
      "Monday": 8797,
      "Monitor": 8798,
      "blocked": 8799,
      "fastest": 8800,
      "silent": 8801,
      "torment": 8802,
      "lifestyle": 8803,
      "weaker": 8804,
      "reportedly": 8805,
      "strengthened": 8806,
      "strengthening": 8807,
      "Bring": 8808,
      "Pandey": 8809,
      "Veh": 8810,
      "Veter": 8811,
      "baraj": 8812,
      "dreams": 8813,
      "zabeth": 8814,
      "statistics": 8815,
      "planting": 8816,
      "fulfilling": 8817,
      "Mohanlal": 8818,
      "correctly": 8819,
      "Submit": 8820,
      "Subbaraj": 8821,
      "shocking": 8822,
      "singlecylinder": 8823,
      "Hinduism": 8824,
      "Ajith": 8825,
      "Edition": 8826,
      "Mortality": 8827,
      "Panneersel": 8828,
      "Reliance": 8829,
      "harmful": 8830,
      "harmony": 8831,
      "nutritious": 8832,
      "strikes": 8833,
      "Study": 8834,
      "targeted": 8835,
      "recognition": 8836,
      "satisfaction": 8837,
      "60000": 8838,
      "Accounts": 8839,
      "Aggarwal": 8840,
      "Electrical": 8841,
      "Romans": 8842,
      "threatening": 8843,
      "threatened": 8844,
      "integration": 8845,
      "iciary": 8846,
      "Industries": 8847,
      "alloon": 8848,
      "Jayalalithaas": 8849,
      "Mining": 8850,
      "Minimum": 8851,
      "Minorities": 8852,
      "vaccination": 8853,
      "representative": 8854,
      "secure": 8855,
      "combined": 8856,
      "contribution": 8857,
      "hosts": 8858,
      "survivors": 8859,
      "objectives": 8860,
      "IMD": 8861,
      "Jayaraj": 8862,
      "square": 8863,
      "sequently": 8864,
      "principle": 8865,
      "principal": 8866,
      "guidelines": 8867,
      "Punjabi": 8868,
      "Contin": 8869,
      "beyond": 8870,
      "reserved": 8871,
      "reservoirs": 8872,
      "condemned": 8873,
      "logans": 8874,
      "distribution": 8875,
      "covering": 8876,
      "201213": 8877,
      "Arabic": 8878,
      "Japanese": 8879,
      "Clean": 8880,
      "Ganguly": 8881,
      "Nagaland": 8882,
      "Turmeric": 8883,
      "baptized": 8884,
      "couples": 8885,
      "linked": 8886,
      "raping": 8887,
      "width": 8888,
      "window": 8889,
      "windows": 8890,
      "Investigations": 8891,
      "demonet": 8892,
      "experiments": 8893,
      "translating": 8894,
      "designed": 8895,
      "Ayodhya": 8896,
      "Buddha": 8897,
      "Villupuram": 8898,
      "hiding": 8899,
      "musical": 8900,
      "reviewed": 8901,
      "teenager": 8902,
      "existing": 8903,
      "screamed": 8904,
      "medicinal": 8905,
      "sacrific": 8906,
      "Nepalese": 8907,
      "Brothers": 8908,
      "Namakkal": 8909,
      "PRO": 8910,
      "Saaho": 8911,
      "catastro": 8912,
      "festivals": 8913,
      "sulfur": 8914,
      "sulfate": 8915,
      "origin": 8916,
      "Interim": 8917,
      "pleasant": 8918,
      "brands": 8919,
      "guardian": 8920,
      "Arunachal": 8921,
      "doubts": 8922,
      "Applications": 8923,
      "Captain": 8924,
      "Michael": 8925,
      "Review": 8926,
      "UTs": 8927,
      "obeyed": 8928,
      "instruction": 8929,
      "industrial": 8930,
      "referend": 8931,
      "Independent": 8932,
      "transaction": 8933,
      "Understanding": 8934,
      "collaborating": 8935,
      "substantial": 8936,
      "struggling": 8937,
      "smartphone": 8938,
      "journalist": 8939,
      "cruelty": 8940,
      "philosoph": 8941,
      "Judah": 8942,
      "Obama": 8943,
      "Pulwama": 8944,
      "boundary": 8945,
      "belongs": 8946,
      "absence": 8947,
      "abscond": 8948,
      "deceased": 8949,
      "deceived": 8950,
      "Hebrew": 8951,
      "astrology": 8952,
      "cyclop": 8953,
      "reflects": 8954,
      "Panchayats": 8955,
      "scriptural": 8956,
      "Galatians": 8957,
      "Jalalli": 8958,
      "Magistr": 8959,
      "Territ": 8960,
      "Viol": 8961,
      "nurses": 8962,
      "navis": 8963,
      "alternate": 8964,
      "diabet": 8965,
      "regulatory": 8966,
      "Standard": 8967,
      "Standards": 8968,
      "earthquakes": 8969,
      "detailed": 8970,
      "vocate": 8971,
      "Tiruch": 8972,
      "Abdul": 8973,
      "Forests": 8974,
      "Collectorate": 8975,
      "neighbour": 8976,
      "sacrifices": 8977,
      "Ganesh": 8978,
      "Ganesha": 8979,
      "Sadly": 8980,
      "Solar": 8981,
      "Srinath": 8982,
      "Tomorrow": 8983,
      "Waqf": 8984,
      "batsmen": 8985,
      "makers": 8986,
      "pumpkin": 8987,
      "racial": 8988,
      "sowing": 8989,
      "renewable": 8990,
      "enthusias": 8991,
      "dignity": 8992,
      "accommodation": 8993,
      "apartment": 8994,
      "appreciate": 8995,
      "worshipping": 8996,
      "suggested": 8997,
      "disappeared": 8998,
      "valuable": 8999,
      "immigrants": 9000,
      "consultation": 9001,
      "determined": 9002,
      "Olympics": 9003,
      "Basin": 9004,
      "Pudukottai": 9005,
      "Queen": 9006,
      "Queens": 9007,
      "Snap": 9008,
      "Sandeep": 9009,
      "Saint": 9010,
      "Vikram": 9011,
      "diplomatic": 9012,
      "convinced": 9013,
      "consciousness": 9014,
      "loyalty": 9015,
      "procedure": 9016,
      "coordination": 9017,
      "assignment": 9018,
      "scarcity": 9019,
      "overseas": 9020,
      "restrict": 9021,
      "128GB": 9022,
      "affordable": 9023,
      "significant": 9024,
      "significance": 9025,
      "demonstrators": 9026,
      "Boris": 9027,
      "Elizabeth": 9028,
      "Flag": 9029,
      "Gupta": 9030,
      "Mamata": 9031,
      "NHAI": 9032,
      "Ravindra": 9033,
      "Sahib": 9034,
      "Victor": 9035,
      "tackle": 9036,
      "tolerate": 9037,
      "assured": 9038,
      "depression": 9039,
      "convention": 9040,
      "frightening": 9041,
      "mechanism": 9042,
      "coalition": 9043,
      "Protection": 9044,
      "desolate": 9045,
      "ambulances": 9046,
      "applicable": 9047,
      "Perambalur": 9048,
      "magnitude": 9049,
      "Kanniyakumari": 9050,
      "manufacturers": 9051,
      "favourable": 9052,
      "suspended": 9053,
      "glasses": 9054,
      "guarantee": 9055,
      "imperialist": 9056,
      "behavior": 9057,
      "AIIMS": 9058,
      "Citizen": 9059,
      "Ephesians": 9060,
      "Jinping": 9061,
      "Murugad": 9062,
      "Popular": 9063,
      "Strategic": 9064,
      "candle": 9065,
      "eagerly": 9066,
      "ocracy": 9067,
      "tongue": 9068,
      "rebell": 9069,
      "oriental": 9070,
      "veteran": 9071,
      "amazing": 9072,
      "advertisement": 9073,
      "unveiled": 9074,
      "restored": 9075,
      "delegates": 9076,
      "commemorate": 9077,
      "prosperity": 9078,
      "excellent": 9079,
      "cricketer": 9080,
      "preservation": 9081,
      "accusation": 9082,
      "surveillance": 9083,
      "refreshing": 9084,
      "panchayat": 9085,
      "Joshua": 9086,
      "Bhutan": 9087,
      "rapidly": 9088,
      "Benefits": 9089,
      "anointed": 9090,
      "Karunanidhis": 9091,
      "renovated": 9092,
      "Apostle": 9093,
      "Birth": 9094,
      "Cauvery": 9095,
      "Creator": 9096,
      "Establish": 9097,
      "Eventually": 9098,
      "Hitler": 9099,
      "Literature": 9100,
      "Sardar": 9101,
      "Until": 9102,
      "fashion": 9103,
      "sabbath": 9104,
      "trend": 9105,
      "werent": 9106,
      "reputation": 9107,
      "isolated": 9108,
      "amendments": 9109,
      "compete": 9110,
      "libraries": 9111,
      "contradict": 9112,
      "mosquito": 9113,
      "succeed": 9114,
      "platform": 9115,
      "canceled": 9116,
      "athletes": 9117,
      "commencement": 9118,
      "overwhelming": 9119,
      "Supply": 9120,
      "customers": 9121,
      "garbage": 9122,
      "twowhe": 9123,
      "criteria": 9124,
      "Spirit": 9125,
      "kilometres": 9126,
      "patronage": 9127,
      "Premier": 9128,
      "oxygen": 9129,
      "Mahabalipuram": 9130,
      "Fishermen": 9131,
      "enthusiastic": 9132,
      "Indonesia": 9133,
      "sovereignt": 9134,
      "Wickremesinghe": 9135,
      "AYUSH": 9136,
      "Apollo": 9137,
      "Audit": 9138,
      "Bachchan": 9139,
      "Cathedral": 9140,
      "Daggu": 9141,
      "Differ": 9142,
      "Dubai": 9143,
      "Fadnavis": 9144,
      "Ireland": 9145,
      "Jharkhand": 9146,
      "Kajal": 9147,
      "Lashkare": 9148,
      "Mizoram": 9149,
      "Peppercorns": 9150,
      "Pinarayi": 9151,
      "Qureshi": 9152,
      "Sexual": 9153,
      "Sustainable": 9154,
      "Seventeen": 9155,
      "Sensex": 9156,
      "Twenty": 9157,
      "Vietnam": 9158,
      "bacteria": 9159,
      "crazy": 9160,
      "drought": 9161,
      "federal": 9162,
      "kitchen": 9163,
      "nondimens": 9164,
      "penned": 9165,
      "schedule": 9166,
      "torture": 9167,
      "onsored": 9168,
      "unfortun": 9169,
      "resurrected": 9170,
      "deficit": 9171,
      "withdrawal": 9172,
      "explanation": 9173,
      "preliminary": 9174,
      "capturing": 9175,
      "PMGSY": 9176,
      "Partnership": 9177,
      "Panneerselvam": 9178,
      "sovereignty": 9179,
      "nondimensional": 9180,
      "114": 9181,
      "2O": 9182,
      "2day": 9183,
      "225": 9184,
      "2156": 9185,
      "320": 9186,
      "325": 9187,
      "3500": 9188,
      "365": 9189,
      "3103": 9190,
      "4G": 9191,
      "4500": 9192,
      "431": 9193,
      "525": 9194,
      "528": 9195,
      "6GB": 9196,
      "73": 9197,
      "715": 9198,
      "81": 9199,
      "8GB": 9200,
      "97": 9201,
      "AB": 9202,
      "AG": 9203,
      "AK": 9204,
      "Aw": 9205,
      "Age": 9206,
      "Atal": 9207,
      "Ary": 9208,
      "Along": 9209,
      "Avi": 9210,
      "BP": 9211,
      "BT": 9212,
      "Bis": 9213,
      "Bow": 9214,
      "Bul": 9215,
      "Bri": 9216,
      "Bum": 9217,
      "Bah": 9218,
      "Bear": 9219,
      "Baj": 9220,
      "Bash": 9221,
      "Batt": 9222,
      "Bond": 9223,
      "Bij": 9224,
      "Border": 9225,
      "BCE": 9226,
      "BAR": 9227,
      "Boss": 9228,
      "Bridge": 9229,
      "CH": 9230,
      "CK": 9231,
      "Ca": 9232,
      "Cs": 9233,
      "Cut": 9234,
      "Cop": 9235,
      "Cus": 9236,
      "Cant": 9237,
      "Cover": 9238,
      "Cities": 9239,
      "Cars": 9240,
      "Clar": 9241,
      "CID": 9242,
      "Cels": 9243,
      "Code": 9244,
      "Cape": 9245,
      "CGT": 9246,
      "DT": 9247,
      "Da": 9248,
      "Ds": 9249,
      "Dor": 9250,
      "Dance": 9251,
      "Die": 9252,
      "Down": 9253,
      "Data": 9254,
      "Daily": 9255,
      "Draw": 9256,
      "Dakar": 9257,
      "EF": 9258,
      "Ent": 9259,
      "Eco": 9260,
      "Emir": 9261,
      "Especially": 9262,
      "FA": 9263,
      "Fan": 9264,
      "Fab": 9265,
      "Figh": 9266,
      "Fru": 9267,
      "Future": 9268,
      "False": 9269,
      "Fifty": 9270,
      "G7": 9271,
      "GH": 9272,
      "Gh": 9273,
      "Gre": 9274,
      "Gor": 9275,
      "Gay": 9276,
      "Gok": 9277,
      "Gho": 9278,
      "Gile": 9279,
      "Gaut": 9280,
      "GER": 9281,
      "Golf": 9282,
      "Ghee": 9283,
      "Galaxy": 9284,
      "HS": 9285,
      "Hen": 9286,
      "Hand": 9287,
      "Hill": 9288,
      "Hur": 9289,
      "Hong": 9290,
      "Haw": 9291,
      "Hair": 9292,
      "Hundred": 9293,
      "HIV": 9294,
      "IR": 9295,
      "Irish": 9296,
      "ION": 9297,
      "Iyer": 9298,
      "ILO": 9299,
      "Jur": 9300,
      "Jab": 9301,
      "Jord": 9302,
      "Jai": 9303,
      "Jade": 9304,
      "Jair": 9305,
      "Jadha": 9306,
      "JDS": 9307,
      "JEE": 9308,
      "Ka": 9309,
      "Km": 9310,
      "Kor": 9311,
      "Ked": 9312,
      "Kare": 9313,
      "Kim": 9314,
      "Kill": 9315,
      "Kall": 9316,
      "Kish": 9317,
      "Kia": 9318,
      "Kumb": 9319,
      "Khal": 9320,
      "Kanch": 9321,
      "Kids": 9322,
      "Kalam": 9323,
      "KDE": 9324,
      "Kesha": 9325,
      "Kilo": 9326,
      "Lil": 9327,
      "Lot": 9328,
      "Lod": 9329,
      "Lev": 9330,
      "Later": 9331,
      "Lax": 9332,
      "LOR": 9333,
      "Learn": 9334,
      "Lemon": 9335,
      "MA": 9336,
      "MI": 9337,
      "Mc": 9338,
      "Mit": 9339,
      "Mil": 9340,
      "Mid": 9341,
      "Mol": 9342,
      "Mel": 9343,
      "Mur": 9344,
      "Mont": 9345,
      "Mos": 9346,
      "Mell": 9347,
      "Mud": 9348,
      "Mater": 9349,
      "Mass": 9350,
      "Mich": 9351,
      "Mix": 9352,
      "Meat": 9353,
      "Mull": 9354,
      "Millions": 9355,
      "Mental": 9356,
      "MGR": 9357,
      "Nut": 9358,
      "Nur": 9359,
      "Nun": 9360,
      "Nak": 9361,
      "Night": 9362,
      "Name": 9363,
      "Nass": 9364,
      "Nations": 9365,
      "NDM": 9366,
      "Nifty": 9367,
      "Nodal": 9368,
      "Ninety": 9369,
      "Nissan": 9370,
      "OT": 9371,
      "Oli": 9372,
      "Omar": 9373,
      "PP": 9374,
      "Pu": 9375,
      "Por": 9376,
      "Ped": 9377,
      "Pain": 9378,
      "Pos": 9379,
      "Patt": 9380,
      "Publ": 9381,
      "Pars": 9382,
      "Pati": 9383,
      "Push": 9384,
      "Pension": 9385,
      "Praise": 9386,
      "Paste": 9387,
      "Pawar": 9388,
      "Paddy": 9389,
      "Please": 9390,
      "Pixel": 9391,
[...]
