{
  "version": "1.0",
  "truncation": null,
  "padding": null,
  "added_tokens": [
    {
      "id": 0,
      "content": "[UNK]",
      "single_word": false,
      "lstrip": false,
      "rstrip": false,
      "normalized": false,
      "special": true
    },
    {
      "id": 1,
      "content": "[PAD]",
      "single_word": false,
      "lstrip": false,
      "rstrip": false,
      "normalized": false,
      "special": true
    },
    {
      "id": 2,
      "content": "[SOS]",
      "single_word": false,
      "lstrip": false,
      "rstrip": false,
      "normalized": false,
      "special": true
    },
    {
      "id": 3,
      "content": "[EOS]",
      "single_word": false,
      "lstrip": false,
      "rstrip": false,
      "normalized": false,
      "special": true
    }
  ],
  "normalizer": null,
  "pre_tokenizer": {
    "type": "Whitespace"
  },
  "post_processor": null,
  "decoder": null,
  "model": {
    "type": "BPE",
    "dropout": null,
    "unk_token": "[UNK]",
    "continuing_subword_prefix": null,
    "end_of_word_suffix": null,
    "fuse_unk": false,
    "byte_fallback": false,
    "ignore_merges": false,
    "vocab": {
      "[UNK]": 0,
      "[PAD]": 1,
      "[SOS]": 2,
      "[EOS]": 3,
      "0": 4,
      "1": 5,
      "2": 6,
      "3": 7,
      "4": 8,
      "5": 9,
      "6": 10,
      "7": 11,
      "8": 12,
      "9": 13,
      "A": 14,
      "B": 15,
      "C": 16,
      "D": 17,
      "E": 18,
      "F": 19,
      "G": 20,
      "H": 21,
      "I": 22,
      "J": 23,
      "K": 24,
      "L": 25,
      "M": 26,
      "N": 27,
      "O": 28,
      "P": 29,
      "Q": 30,
      "R": 31,
      "S": 32,
      "T": 33,
      "U": 34,
      "V": 35,
      "W": 36,
      "X": 37,
      "Y": 38,
      "Z": 39,
      "a": 40,
      "b": 41,
      "c": 42,
      "d": 43,
      "e": 44,
      "f": 45,
      "g": 46,
      "h": 47,
      "i": 48,
      "j": 49,
      "k": 50,
      "l": 51,
      "m": 52,
      "n": 53,
      "o": 54,
      "p": 55,
      "q": 56,
      "r": 57,
      "s": 58,
      "t": 59,
      "u": 60,
      "v": 61,
      "w": 62,
      "x": 63,
      "y": 64,
      "z": 65,
      "ا": 66,
      "ب": 67,
      "ت": 68,
      "ر": 69,
      "ق": 70,
      "ی": 71,
      "अ": 72,
      "उ": 73,
      "क": 74,
      "ग": 75,
      "ज": 76,
      "ट": 77,
      "ड": 78,
      "थ": 79,
      "ध": 80,
      "न": 81,
      "प": 82,
      "फ": 83,
      "भ": 84,
      "र": 85,
      "व": 86,
      "श": 87,
      "स": 88,
      "ह": 89,
      "আ": 90,
      "ক": 91,
      "ট": 92,
      "ন": 93,
      "ম": 94,
      "ਕ": 95,
      "ਢ": 96,
      "ઝ": 97,
      "ન": 98,
      "મ": 99,
      "હ": 100,
      "ஃ": 101,
      "அ": 102,
      "ஆ": 103,
      "இ": 104,
      "ஈ": 105,
      "உ": 106,
      "ஊ": 107,
      "எ": 108,
      "ஏ": 109,
      "ஐ": 110,
      "ஒ": 111,
      "ஓ": 112,
      "க": 113,
      "ங": 114,
      "ச": 115,
      "ஜ": 116,
      "ஞ": 117,
      "ட": 118,
      "ண": 119,
      "த": 120,
      "ந": 121,
      "ன": 122,
      "ப": 123,
      "ம": 124,
      "ய": 125,
      "ர": 126,
      "ற": 127,
      "ல": 128,
      "ள": 129,
      "ழ": 130,
      "வ": 131,
      "ஷ": 132,
      "ஸ": 133,
      "ஹ": 134,
      "క": 135,
      "గ": 136,
      "ల": 137,
      "ಕ": 138,
      "ಟ": 139,
      "ಡ": 140,
      "ಣ": 141,
      "ತ": 142,
      "ಪ": 143,
      "ಯ": 144,
      "ರ": 145,
      "ವ": 146,
      "ಸ": 147,
      "ഏ": 148,
      "ക": 149,
      "ത": 150,
      "പ": 151,
      "മ": 152,
      "യ": 153,
      "ര": 154,
      "റ": 155,
      "ല": 156,
      "ള": 157,
      "വ": 158,
      "கக": 159,
      "ஙக": 160,
      "நத": 161,
      "ரகக": 162,
      "தத": 163,
      "டட": 164,
      "னன": 165,
      "er": 166,
      "லல": 167,
      "பண": 168,
      "on": 169,
      "பப": 170,
      "ti": 171,
      "an": 172,
      "es": 173,
      "இரகக": 174,
      "in": 175,
      "en": 176,
      "அவ": 177,
      "பணண": 178,
      "al": 179,
      "ar": 180,
      "சச": 181,
      "or": 182,
      "ரம": 183,
      "st": 184,
      "யம": 185,
      "re": 186,
      "கள": 187,
      "at": 188,
      "tion": 189,
      "ரநத": 190,
      "கட": 191,
      "ஙகள": 192,
      "ஒர": 193,
      "அத": 194,
      "ent": 195,
      "ic": 196,
      "le": 197,
      "it": 198,
      "அவர": 199,
      "தர": 200,
      "பர": 201,
      "இநத": 202,
      "ro": 203,
      "சலல": 204,
      "தன": 205,
      "se": 206,
      "வர": 207,
      "இரநத": 208,
      "di": 209,
      "பபட": 210,
      "றத": 211,
      "ra": 212,
      "ரமப": 213,
      "பட": 214,
      "இத": 215,
      "மன": 216,
      "ch": 217,
      "அவஙக": 218,
      "ணட": 219,
      "ation": 220,
      "il": 221,
      "றம": 222,
      "ol": 223,
      "am": 224,
      "el": 225,
      "வஙக": 226,
      "லம": 227,
      "ur": 228,
      "ing": 229,
      "is": 230,
      "நட": 231,
      "and": 232,
      "மட": 233,
      "om": 234,
      "மற": 235,
      "எலல": 236,
      "ment": 237,
      "நன": 238,
      "un": 239,
      "th": 240,
      "ct": 241,
      "சல": 242,
      "de": 243,
      "ஆன": 244,
      "ri": 245,
      "ce": 246,
      "ers": 247,
      "எனன": 248,
      "நம": 249,
      "கடட": 250,
      "ததல": 251,
      "சம": 252,
      "ணம": 253,
      "இரககற": 254,
      "ad": 255,
      "வல": 256,
      "as": 257,
      "பத": 258,
      "ate": 259,
      "பய": 260,
      "சர": 261,
      "யல": 262,
      "டடஙக": 263,
      "res": 264,
      "வம": 265,
      "இலல": 266,
      "ககம": 267,
      "ரககஙக": 268,
      "வள": 269,
      "அநத": 270,
      "பதத": 271,
      "ov": 272,
      "us": 273,
      "ci": 274,
      "me": 275,
      "ul": 276,
      "pro": 277,
      "ist": 278,
      "றஙக": 279,
      "சனன": 280,
      "கம": 281,
      "ag": 282,
      "என": 283,
      "வட": 284,
      "பபடட": 285,
      "ஙகளகக": 286,
      "of": 287,
      "te": 288,
      "பல": 289,
      "ஓட": 290,
      "00": 291,
      "நற": 292,
      "ion": 293,
      "ve": 294,
      "கர": 295,
      "con": 296,
      "ir": 297,
      "கல": 298,
      "In": 299,
      "தம": 300,
      "இரககஙக": 301,
      "lo": 302,
      "ac": 303,
      "ஞச": 304,
      "அபப": 305,
      "et": 306,
      "வநத": 307,
      "யத": 308,
      "மதர": 309,
      "யட": 310,
      "நஙக": 311,
      "ed": 312,
      "sp": 313,
      "ig": 314,
      "மகக": 315,
      "ளள": 316,
      "ap": 317,
      "op": 318,
      "தல": 319,
      "னல": 320,
      "ity": 321,
      "வழ": 322,
      "மறறம": 323,
      "ததன": 324,
      "ab": 325,
      "ern": 326,
      "ததகக": 327,
      "எலலம": 328,
      "sல": 329,
      "இனன": 330,
      "hi": 331,
      "20": 332,
      "est": 333,
      "ay": 334,
      "id": 335,
      "um": 336,
      "கற": 337,
      "வத": 338,
      "com": 339,
      "நறய": 340,
      "சய": 341,
      "யர": 342,
      "டடம": 343,
      "வகக": 344,
      "im": 345,
      "மல": 346,
      "பற": 347,
      "ess": 348,
      "நலல": 349,
      "po": 350,
      "வன": 351,
      "up": 352,
      "ort": 353,
      "em": 354,
      "பணறத": 355,
      "டய": 356,
      "ரககம": 357,
      "ரணட": 358,
      "கடகக": 359,
      "எட": 360,
      "par": 361,
      "ah": 362,
      "od": 363,
      "pl": 364,
      "அவரகள": 365,
      "நமம": 366,
      "co": 367,
      "எநத": 368,
      "கழ": 369,
      "வசச": 370,
      "தட": 371,
      "ction": 372,
      "படட": 373,
      "அபபறம": 374,
      "Indi": 375,
      "ric": 376,
      "வற": 377,
      "ter": 378,
      "பணணன": 379,
      "கணட": 380,
      "for": 381,
      "ho": 382,
      "வய": 383,
      "கத": 384,
      "மனன": 385,
      "இநதய": 386,
      "tic": 387,
      "மதத": 388,
      "வடட": 389,
      "இரககம": 390,
      "எனகக": 391,
      "ak": 392,
      "ex": 393,
      "நடநத": 394,
      "fic": 395,
      "Ch": 396,
      "பகக": 397,
      "பணணஙக": 398,
      "he": 399,
      "ககன": 400,
      "பணணரககஙக": 401,
      "per": 402,
      "ut": 403,
      "ure": 404,
      "all": 405,
      "tin": 406,
      "மடடம": 407,
      "உஙக": 408,
      "av": 409,
      "sஐ": 410,
      "ககக": 411,
      "எதர": 412,
      "end": 413,
      "inist": 414,
      "எபபட": 415,
      "யன": 416,
      "பலஸ": 417,
      "use": 418,
      "overn": 419,
      "இனனம": 420,
      "age": 421,
      "pe": 422,
      "டம": 423,
      "ine": 424,
      "லயம": 425,
      "ew": 426,
      "ase": 427,
      "du": 428,
      "port": 429,
      "பணணடட": 430,
      "மத": 431,
      "கடதத": 432,
      "எனனனன": 433,
      "மழ": 434,
      "அதனல": 435,
      "19": 436,
      "ud": 437,
      "fe": 438,
      "our": 439,
      "ard": 440,
      "அர": 441,
      "ge": 442,
      "pol": 443,
      "qu": 444,
      "overnment": 445,
      "ub": 446,
      "லலம": 447,
      "மடயம": 448,
      "நள": 449,
      "அவஙகள": 450,
      "ததர": 451,
      "are": 452,
      "ain": 453,
      "li": 454,
      "tra": 455,
      "igh": 456,
      "வஷ": 457,
      "மககள": 458,
      "சநத": 459,
      "ran": 460,
      "ice": 461,
      "இற": 462,
      "esல": 463,
      "அவஙகளகக": 464,
      "ress": 465,
      "அட": 466,
      "ef": 467,
      "ககற": 468,
      "vi": 469,
      "இபப": 470,
      "உஙகளகக": 471,
      "மம": 472,
      "அலல": 473,
      "பணற": 474,
      "எத": 475,
      "sh": 476,
      "ணண": 477,
      "vel": 478,
      "ctor": 479,
      "ai": 480,
      "வரககம": 481,
      "ast": 482,
      "wor": 483,
      "நர": 484,
      "ணமன": 485,
      "தவ": 486,
      "இரககர": 487,
      "cial": 488,
      "சனனர": 489,
      "si": 490,
      "பச": 491,
      "sகக": 492,
      "to": 493,
      "man": 494,
      "அன": 495,
      "ati": 496,
      "ary": 497,
      "அபபட": 498,
      "ஞசம": 499,
      "ru": 500,
      "ry": 501,
      "நல": 502,
      "ரககர": 503,
      "டடர": 504,
      "ble": 505,
      "ant": 506,
      "ence": 507,
      "aல": 508,
      "ஷம": 509,
      "கன": 510,
      "பணறஙக": 511,
      "ting": 512,
      "மடயத": 513,
      "ational": 514,
      "மண": 515,
      "சமப": 516,
      "இர": 517,
      "ததட": 518,
      "ish": 519,
      "ance": 520,
      "St": 521,
      "பக": 522,
      "und": 523,
      "Rs": 524,
      "part": 525,
      "ach": 526,
      "தஙக": 527,
      "ill": 528,
      "தகக": 529,
      "201": 530,
      "வரம": 531,
      "ties": 532,
      "De": 533,
      "iss": 534,
      "மககயம": 535,
      "Minist": 536,
      "சகக": 537,
      "இரககனன": 538,
      "மர": 539,
      "ஐயம": 540,
      "ong": 541,
      "அவரட": 542,
      "இட": 543,
      "உணம": 544,
      "பணணடடஙக": 545,
      "இரநதசச": 546,
      "amil": 547,
      "ass": 548,
      "மனனட": 549,
      "பன": 550,
      "அதகம": 551,
      "சனனஙக": 552,
      "சரநத": 553,
      "அவரடய": 554,
      "ck": 555,
      "mo": 556,
      "கஞசம": 557,
      "நடட": 558,
      "ore": 559,
      "தனன": 560,
      "ly": 561,
      "ser": 562,
      "அவரகக": 563,
      "அலலத": 564,
      "ail": 565,
      "மலம": 566,
      "பரய": 567,
      "சசர": 568,
      "அதல": 569,
      "ககல": 570,
      "ஆரமப": 571,
      "ital": 572,
      "cent": 573,
      "ow": 574,
      "வணட": 575,
      "int": 576,
      "சலலவஙக": 577,
      "இறநத": 578,
      "sஅ": 579,
      "பரம": 580,
      "ot": 581,
      "ஆக": 582,
      "reg": 583,
      "களகக": 584,
      "ult": 585,
      "ath": 586,
      "கடவள": 587,
      "ies": 588,
      "உல": 589,
      "ang": 590,
      "low": 591,
      "அரச": 592,
      "டசச": 593,
      "றதகக": 594,
      "yல": 595,
      "வளவ": 596,
      "og": 597,
      "je": 598,
      "உட": 599,
      "so": 600,
      "தமழ": 601,
      "work": 602,
      "eh": 603,
      "லட": 604,
      "சயய": 605,
      "form": 606,
      "கவன": 607,
      "வஙகள": 608,
      "எலலரம": 609,
      "ph": 610,
      "எழ": 611,
      "கஷ": 612,
      "பரகக": 613,
      "inv": 614,
      "eng": 615,
      "10": 616,
      "Sh": 617,
      "ple": 618,
      "ஆயட": 619,
      "the": 620,
      "India": 621,
      "mb": 622,
      "ககடட": 623,
      "ord": 624,
      "வஷய": 625,
      "iv": 626,
      "ank": 627,
      "அதகக": 628,
      "Indian": 629,
      "எடதத": 630,
      "art": 631,
      "சலறஙக": 632,
      "aj": 633,
      "களல": 634,
      "ரமபவ": 635,
      "கழநத": 636,
      "aw": 637,
      "gra": 638,
      "ous": 639,
      "government": 640,
      "ok": 641,
      "ue": 642,
      "இதல": 643,
      "cre": 644,
      "ஏற": 645,
      "தபப": 646,
      "cl": 647,
      "sch": 648,
      "பணணவஙக": 649,
      "comm": 650,
      "ககபபடட": 651,
      "கடம": 652,
      "bo": 653,
      "sம": 654,
      "மதல": 655,
      "யச": 656,
      "ical": 657,
      "வழகக": 658,
      "Un": 659,
      "ele": 660,
      "படசச": 661,
      "act": 662,
      "ரகள": 663,
      "பரதம": 664,
      "எதவம": 665,
      "Com": 666,
      "ial": 667,
      "ஜய": 668,
      "பபடத": 669,
      "எஙக": 670,
      "நரம": 671,
      "சலலலம": 672,
      "பணணனமன": 673,
      "சன": 674,
      "ack": 675,
      "ign": 676,
      "Re": 677,
      "uth": 678,
      "esஐ": 679,
      "தரயம": 680,
      "இலலனன": 681,
      "JP": 682,
      "இஙக": 683,
      "றன": 684,
      "வவளவ": 685,
      "ali": 686,
      "sup": 687,
      "றர": 688,
      "நடகக": 689,
      "தனல": 690,
      "வரகள": 691,
      "Minister": 692,
      "BJP": 693,
      "ful": 694,
      "இரநதஙக": 695,
      "dis": 696,
      "able": 697,
      "12": 698,
      "fi": 699,
      "உர": 700,
      "பணணம": 701,
      "உளள": 702,
      "கபப": 703,
      "tive": 704,
      "resid": 705,
      "case": 706,
      "ight": 707,
      "பரதமர": 708,
      "Mo": 709,
      "ஆம": 710,
      "யக": 711,
      "ஙகளல": 712,
      "spital": 713,
      "மககயமன": 714,
      "han": 715,
      "tit": 716,
      "ear": 717,
      "uc": 718,
      "பம": 719,
      "பணணகக": 720,
      "வரதத": 721,
      "gro": 722,
      "அம": 723,
      "எபப": 724,
      "கண": 725,
      "படம": 726,
      "பததன": 727,
      "கலநத": 728,
      "spe": 729,
      "அவஙகஅவஙக": 730,
      "hip": 731,
      "ஆயடசச": 732,
      "ans": 733,
      "பணணல": 734,
      "arm": 735,
      "state": 736,
      "ris": 737,
      "ug": 738,
      "ations": 739,
      "சரய": 740,
      "over": 741,
      "offic": 742,
      "rict": 743,
      "Pro": 744,
      "ution": 745,
      "ree": 746,
      "அரசஙக": 747,
      "air": 748,
      "cy": 749,
      "Jeh": 750,
      "ஒரததர": 751,
      "படதத": 752,
      "Bi": 753,
      "col": 754,
      "அஙக": 755,
      "ஏன": 756,
      "velop": 757,
      "பபஙக": 758,
      "alth": 759,
      "ates": 760,
      "ents": 761,
      "lead": 762,
      "வரஷம": 763,
      "வளய": 764,
      "ovah": 765,
      "Jehovah": 766,
      "200": 767,
      "ep": 768,
      "கவல": 769,
      "யரம": 770,
      "உலக": 771,
      "An": 772,
      "வதத": 773,
      "stud": 774,
      "ev": 775,
      "ob": 776,
      "ust": 777,
      "wer": 778,
      "படகக": 779,
      "இனனகக": 780,
      "பணணனம": 781,
      "ission": 782,
      "ject": 783,
      "பசச": 784,
      "டடன": 785,
      "esti": 786,
      "ace": 787,
      "ha": 788,
      "reat": 789,
      "ell": 790,
      "ision": 791,
      "நடசச": 792,
      "Cong": 793,
      "En": 794,
      "Government": 795,
      "fer": 796,
      "ual": 797,
      "ரஜ": 798,
      "ரசச": 799,
      "att": 800,
      "ne": 801,
      "ness": 802,
      "ss": 803,
      "உஙகள": 804,
      "சபபட": 805,
      "தணண": 806,
      "யரகக": 807,
      "லய": 808,
      "ash": 809,
      "லடசம": 810,
      "உயர": 811,
      "சதத": 812,
      "களம": 813,
      "rol": 814,
      "15": 815,
      "US": 816,
      "oun": 817,
      "எனனட": 818,
      "cont": 819,
      "ஆரமபசச": 820,
      "எவவளவ": 821,
      "ரநதஙக": 822,
      "hospital": 823,
      "gen": 824,
      "we": 825,
      "கலல": 826,
      "cid": 827,
      "தற": 828,
      "இதலலம": 829,
      "பறக": 830,
      "அனபப": 831,
      "ces": 832,
      "pre": 833,
      "னம": 834,
      "மடஞச": 835,
      "Del": 836,
      "sit": 837,
      "கய": 838,
      "சசரகக": 839,
      "பரஙக": 840,
      "ubl": 841,
      "Comm": 842,
      "fin": 843,
      "fir": 844,
      "இததன": 845,
      "one": 846,
      "inter": 847,
      "அதக": 848,
      "தரயல": 849,
      "நடடல": 850,
      "resident": 851,
      "fl": 852,
      "oc": 853,
      "அழ": 854,
      "பகத": 855,
      "வணம": 856,
      "ari": 857,
      "ally": 858,
      "Ar": 859,
      "அமம": 860,
      "பழ": 861,
      "produ": 862,
      "மய": 863,
      "பபர": 864,
      "ens": 865,
      "சசன": 866,
      "ater": 867,
      "தரஞச": 868,
      "சலறத": 869,
      "அற": 870,
      "அள": 871,
      "serv": 872,
      "Congress": 873,
      "cr": 874,
      "இயச": 875,
      "ரபய": 876,
      "ann": 877,
      "ark": 878,
      "பபடதத": 879,
      "ural": 880,
      "நரததல": 881,
      "partment": 882,
      "உரவகக": 883,
      "Bible": 884,
      "minist": 885,
      "ககடடஙக": 886,
      "படததல": 887,
      "அவரகளட": 888,
      "cess": 889,
      "கரம": 890,
      "ததயம": 891,
      "சலலத": 892,
      "rest": 893,
      "Delhi": 894,
      "So": 895,
      "ool": 896,
      "சசடட": 897,
      "இலலஙக": 898,
      "16": 899,
      "100": 900,
      "வவ": 901,
      "ani": 902,
      "கலய": 903,
      "18": 904,
      "itic": 905,
      "stit": 906,
      "ver": 907,
      "dist": 908,
      "13": 909,
      "Se": 910,
      "cur": 911,
      "cri": 912,
      "ts": 913,
      "றதல": 914,
      "Pri": 915,
      "பளள": 916,
      "வசர": 917,
      "esh": 918,
      "enti": 919,
      "இலலம": 920,
      "50": 921,
      "pan": 922,
      "கதத": 923,
      "வதம": 924,
      "ககளள": 925,
      "police": 926,
      "14": 927,
      "Tamil": 928,
      "af": 929,
      "சலலடட": 930,
      "பயன": 931,
      "cident": 932,
      "famil": 933,
      "land": 934,
      "சத": 935,
      "ism": 936,
      "action": 937,
      "நடநதடட": 938,
      "support": 939,
      "estig": 940,
      "Am": 941,
      "har": 942,
      "sy": 943,
      "ura": 944,
      "ஆட": 945,
      "இரணட": 946,
      "கயம": 947,
      "ind": 948,
      "பணணர": 949,
      "coun": 950,
      "சககரம": 951,
      "ities": 952,
      "இபபட": 953,
      "சடட": 954,
      "களட": 955,
      "ரநதர": 956,
      "leg": 957,
      "dire": 958,
      "ationல": 959,
      "அடதத": 960,
      "சமபநத": 961,
      "ie": 962,
      "sho": 963,
      "னர": 964,
      "னனகக": 965,
      "கடயத": 966,
      "chn": 967,
      "ild": 968,
      "olog": 969,
      "நமபகக": 970,
      "ove": 971,
      "பணறதகக": 972,
      "investig": 973,
      "Al": 974,
      "ood": 975,
      "sur": 976,
      "val": 977,
      "உதவ": 978,
      "ஙகளன": 979,
      "அதகர": 980,
      "இரநதலம": 981,
      "மடயல": 982,
      "conom": 983,
      "power": 984,
      "வஷயம": 985,
      "யகவ": 986,
      "mi": 987,
      "pri": 988,
      "ze": 989,
      "ஆகம": 990,
      "பரதத": 991,
      "நனற": 992,
      "நமகக": 993,
      "politic": 994,
      "State": 995,
      "Cour": 996,
      "உடன": 997,
      "fol": 998,
      "pt": 999,
      "ளம": 1000,
      "time": 1001,
      "amp": 1002,
      "gram": 1003,
      "National": 1004,
      "Raj": 1005,
      "can": 1006,
      "பணணட": 1007,
      "வரஷ": 1008,
      "நனசச": 1009,
      "பயடட": 1010,
      "umb": 1011,
      "தடரநத": 1012,
      "Cent": 1013,
      "New": 1014,
      "ty": 1015,
      "டர": 1016,
      "ரவ": 1017,
      "வயபப": 1018,
      "ublic": 1019,
      "25": 1020,
      "Pra": 1021,
      "ffic": 1022,
      "ia": 1023,
      "ke": 1024,
      "ld": 1025,
      "min": 1026,
      "pers": 1027,
      "press": 1028,
      "தரமப": 1029,
      "சனனத": 1030,
      "கஷட": 1031,
      "velopment": 1032,
      "17": 1033,
      "Con": 1034,
      "cer": 1035,
      "அனனகக": 1036,
      "றற": 1037,
      "ககட": 1038,
      "rec": 1039,
      "ings": 1040,
      "way": 1041,
      "அததன": 1042,
      "ஏத": 1043,
      "ory": 1044,
      "stru": 1045,
      "பபடம": 1046,
      "மறற": 1047,
      "team": 1048,
      "கறஸ": 1049,
      "மழவதம": 1050,
      "ative": 1051,
      "hel": 1052,
      "rate": 1053,
      "ஆவம": 1054,
      "ஏனன": 1055,
      "றச": 1056,
      "கடநத": 1057,
      "கடசச": 1058,
      "char": 1059,
      "பபடடரகக": 1060,
      "இநதயவல": 1061,
      "social": 1062,
      "Court": 1063,
      "Chi": 1064,
      "Ro": 1065,
      "dom": 1066,
      "econom": 1067,
      "ire": 1068,
      "plo": 1069,
      "sol": 1070,
      "tran": 1071,
      "சட": 1072,
      "பரஞச": 1073,
      "பரசசன": 1074,
      "நடதத": 1075,
      "எனற": 1076,
      "பபடடத": 1077,
      "எடததகக": 1078,
      "வணடம": 1079,
      "11": 1080,
      "der": 1081,
      "new": 1082,
      "மசம": 1083,
      "stem": 1084,
      "rel": 1085,
      "இரநதர": 1086,
      "அவஙகளட": 1087,
      "election": 1088,
      "God": 1089,
      "cal": 1090,
      "cap": 1091,
      "eme": 1092,
      "தய": 1093,
      "தரம": 1094,
      "தவய": 1095,
      "வஙகளகக": 1096,
      "ககணம": 1097,
      "eral": 1098,
      "கடககம": 1099,
      "lect": 1100,
      "கடடடட": 1101,
      "000": 1102,
      "health": 1103,
      "train": 1104,
      "blem": 1105,
      "கடவளட": 1106,
      "first": 1107,
      "He": 1108,
      "தண": 1109,
      "report": 1110,
      "கடச": 1111,
      "தரயத": 1112,
      "dition": 1113,
      "oper": 1114,
      "cour": 1115,
      "பககததல": 1116,
      "இபபதகக": 1117,
      "Mar": 1118,
      "rin": 1119,
      "war": 1120,
      "வக": 1121,
      "பணணலம": 1122,
      "atch": 1123,
      "ith": 1124,
      "sel": 1125,
      "அநதப": 1126,
      "problem": 1127,
      "ply": 1128,
      "சநதஷம": 1129,
      "Department": 1130,
      "Eng": 1131,
      "follow": 1132,
      "Ex": 1133,
      "Wor": 1134,
      "be": 1135,
      "eting": 1136,
      "out": 1137,
      "ral": 1138,
      "ஆள": 1139,
      "ததம": 1140,
      "பணகள": 1141,
      "ond": 1142,
      "org": 1143,
      "read": 1144,
      "பதல": 1145,
      "med": 1146,
      "memb": 1147,
      "prove": 1148,
      "illion": 1149,
      "own": 1150,
      "உலகததல": 1151,
      "President": 1152,
      "The": 1153,
      "les": 1154,
      "sஓட": 1155,
      "இதனல": 1156,
      "ஙகளம": 1157,
      "படயம": 1158,
      "ersகக": 1159,
      "இனனர": 1160,
      "ககறன": 1161,
      "ax": 1162,
      "ute": 1163,
      "ya": 1164,
      "கநத": 1165,
      "பஸ": 1166,
      "ite": 1167,
      "ration": 1168,
      "மடவ": 1169,
      "மறபடயம": 1170,
      "பயர": 1171,
      "வநதரகக": 1172,
      "தடவ": 1173,
      "வவசய": 1174,
      "40": 1175,
      "Cor": 1176,
      "do": 1177,
      "yஆ": 1178,
      "ஆகத": 1179,
      "சவ": 1180,
      "ததடட": 1181,
      "ஒரதத": 1182,
      "வரத": 1183,
      "படததட": 1184,
      "நமப": 1185,
      "adu": 1186,
      "பயடடஙக": 1187,
      "சரதத": 1188,
      "எழத": 1189,
      "district": 1190,
      "Par": 1191,
      "cle": 1192,
      "mon": 1193,
      "oh": 1194,
      "sub": 1195,
      "tal": 1196,
      "தணட": 1197,
      "enn": 1198,
      "இரநதத": 1199,
      "இதவரககம": 1200,
      "medi": 1201,
      "மனனள": 1202,
      "Ho": 1203,
      "Sch": 1204,
      "Sing": 1205,
      "bre": 1206,
      "lish": 1207,
      "சக": 1208,
      "நரநதர": 1209,
      "rele": 1210,
      "பரட": 1211,
      "rib": 1212,
      "riend": 1213,
      "பதச": 1214,
      "vide": 1215,
      "Sup": 1216,
      "cor": 1217,
      "tain": 1218,
      "try": 1219,
      "treat": 1220,
      "vir": 1221,
      "றக": 1222,
      "ility": 1223,
      "rig": 1224,
      "ush": 1225,
      "peri": 1226,
      "அவஙகஅவஙகஅவஙகஅவஙக": 1227,
      "24": 1228,
      "Gand": 1229,
      "eல": 1230,
      "ide": 1231,
      "மடட": 1232,
      "ககறத": 1233,
      "கரணம": 1234,
      "கறற": 1235,
      "post": 1236,
      "sஐயம": 1237,
      "ulture": 1238,
      "Prime": 1239,
      "person": 1240,
      "Ad": 1241,
      "Act": 1242,
      "PM": 1243,
      "friend": 1244,
      "பணணரககர": 1245,
      "irit": 1246,
      "imple": 1247,
      "அவரகளம": 1248,
      "view": 1249,
      "party": 1250,
      "எபபவம": 1251,
      "கலநதககடடஙக": 1252,
      "curity": 1253,
      "Bo": 1254,
      "Co": 1255,
      "bl": 1256,
      "pur": 1257,
      "pend": 1258,
      "ror": 1259,
      "sஆ": 1260,
      "test": 1261,
      "vision": 1262,
      "ஆணட": 1263,
      "மக": 1264,
      "வண": 1265,
      "ககத": 1266,
      "erஆ": 1267,
      "இரககணம": 1268,
      "ernational": 1269,
      "Chris": 1270,
      "Chenn": 1271,
      "school": 1272,
      "group": 1273,
      "கலயணம": 1274,
      "family": 1275,
      "Chennai": 1276,
      "23": 1277,
      "ID": 1278,
      "Rah": 1279,
      "ket": 1280,
      "ren": 1281,
      "sal": 1282,
      "uk": 1283,
      "ven": 1284,
      "ஆய": 1285,
      "ஆசச": 1286,
      "str": 1287,
      "களவ": 1288,
      "ict": 1289,
      "வரல": 1290,
      "project": 1291,
      "spirit": 1292,
      "formation": 1293,
      "கஷடம": 1294,
      "அரசஙகம": 1295,
      "crore": 1296,
      "ஏதவத": 1297,
      "Gandhi": 1298,
      "Pol": 1299,
      "Res": 1300,
      "bi": 1301,
      "car": 1302,
      "gu": 1303,
      "get": 1304,
      "por": 1305,
      "pres": 1306,
      "sm": 1307,
      "உதர": 1308,
      "தலம": 1309,
      "ககறஙக": 1310,
      "சலலடடஙக": 1311,
      "இடததல": 1312,
      "ivers": 1313,
      "மயறச": 1314,
      "Chief": 1315,
      "Ap": 1316,
      "Nadu": 1317,
      "mit": 1318,
      "இழ": 1319,
      "கயல": 1320,
      "மடடஙக": 1321,
      "பணணத": 1322,
      "arrest": 1323,
      "சசஙக": 1324,
      "chi": 1325,
      "வசரண": 1326,
      "help": 1327,
      "release": 1328,
      "30": 1329,
      "Is": 1330,
      "public": 1331,
      "நய": 1332,
      "நதத": 1333,
      "இரககன": 1334,
      "led": 1335,
      "சலலஙக": 1336,
      "tem": 1337,
      "நறதத": 1338,
      "fect": 1339,
      "வஷயஙகள": 1340,
      "Modi": 1341,
      "Le": 1342,
      "ade": 1343,
      "bal": 1344,
      "bus": 1345,
      "cas": 1346,
      "ship": 1347,
      "ஒனன": 1348,
      "கததகக": 1349,
      "ரன": 1350,
      "ஸர": 1351,
      "பணணரகக": 1352,
      "ator": 1353,
      "itness": 1354,
      "சலறர": 1355,
      "யலய": 1356,
      "ister": 1357,
      "பணறதல": 1358,
      "political": 1359,
      "ploy": 1360,
      "Christi": 1361,
      "aவட": 1362,
      "ht": 1363,
      "ron": 1364,
      "ward": 1365,
      "நசச": 1366,
      "மகன": 1367,
      "ரய": 1368,
      "ககஙக": 1369,
      "esகக": 1370,
      "இரககறத": 1371,
      "level": 1372,
      "old": 1373,
      "meeting": 1374,
      "ionல": 1375,
      "exam": 1376,
      "நடநதத": 1377,
      "situ": 1378,
      "சமபநதம": 1379,
      "கறஸத": 1380,
      "Bank": 1381,
      "Dist": 1382,
      "King": 1383,
      "Mah": 1384,
      "fy": 1385,
      "her": 1386,
      "line": 1387,
      "pra": 1388,
      "set": 1389,
      "இலலய": 1390,
      "ளளத": 1391,
      "dust": 1392,
      "கடததரககஙக": 1393,
      "order": 1394,
      "scheme": 1395,
      "full": 1396,
      "official": 1397,
      "court": 1398,
      "members": 1399,
      "treatment": 1400,
      "actor": 1401,
      "la": 1402,
      "mark": 1403,
      "ஙககடட": 1404,
      "பனன": 1405,
      "பறஙக": 1406,
      "ana": 1407,
      "மறபடட": 1408,
      "ther": 1409,
      "வலய": 1410,
      "ason": 1411,
      "ated": 1412,
      "techn": 1413,
      "ety": 1414,
      "மதலல": 1415,
      "அலலஹ": 1416,
      "பணறர": 1417,
      "special": 1418,
      "ology": 1419,
      "Singh": 1420,
      "Col": 1421,
      "No": 1422,
      "Pak": 1423,
      "Te": 1424,
      "high": 1425,
      "ious": 1426,
      "ton": 1427,
      "ஏழ": 1428,
      "சயத": 1429,
      "ணததகக": 1430,
      "தடட": 1431,
      "பரச": 1432,
      "பரடட": 1433,
      "பபடற": 1434,
      "ures": 1435,
      "program": 1436,
      "நமமள": 1437,
      "angu": 1438,
      "system": 1439,
      "கடயதஙக": 1440,
      "Vi": 1441,
      "tar": 1442,
      "tail": 1443,
      "ஆண": 1444,
      "இன": 1445,
      "இடம": 1446,
      "ரட": 1447,
      "ரல": 1448,
      "eric": 1449,
      "tiv": 1450,
      "inn": 1451,
      "orth": 1452,
      "ited": 1453,
      "வரற": 1454,
      "மனவ": 1455,
      "posi": 1456,
      "கடககல": 1457,
      "எதரதத": 1458,
      "Ministry": 1459,
      "earch": 1460,
      "As": 1461,
      "Offic": 1462,
      "des": 1463,
      "mus": 1464,
      "national": 1465,
      "rit": 1466,
      "vo": 1467,
      "எணண": 1468,
      "சயல": 1469,
      "தவர": 1470,
      "நதர": 1471,
      "பணம": 1472,
      "பபம": 1473,
      "அதட": 1474,
      "ication": 1475,
      "itte": 1476,
      "row": 1477,
      "ilm": 1478,
      "ame": 1479,
      "ament": 1480,
      "eld": 1481,
      "educ": 1482,
      "மககளகக": 1483,
      "சநதஷ": 1484,
      "இரஙக": 1485,
      "register": 1486,
      "தமழநட": 1487,
      "கழநதகள": 1488,
      "South": 1489,
      "count": 1490,
      "training": 1491,
      "World": 1492,
      "CO": 1493,
      "Man": 1494,
      "bu": 1495,
      "fra": 1496,
      "fun": 1497,
      "hist": 1498,
      "suc": 1499,
      "vis": 1500,
      "எஙகளகக": 1501,
      "மச": 1502,
      "tice": 1503,
      "ality": 1504,
      "மனஷ": 1505,
      "unity": 1506,
      "கடடஙக": 1507,
      "சரயன": 1508,
      "resp": 1509,
      "cip": 1510,
      "lock": 1511,
      "plan": 1512,
      "percent": 1513,
      "life": 1514,
      "வஷயததல": 1515,
      "கயமட": 1516,
      "22": 1517,
      "High": 1518,
      "ber": 1519,
      "date": 1520,
      "hand": 1521,
      "ik": 1522,
      "son": 1523,
      "ஜன": 1524,
      "ata": 1525,
      "அதன": 1526,
      "ular": 1527,
      "வழநத": 1528,
      "sலயம": 1529,
      "எடகக": 1530,
      "book": 1531,
      "அமசசர": 1532,
      "attack": 1533,
      "finan": 1534,
      "அளவகக": 1535,
      "implement": 1536,
      "District": 1537,
      "Pakist": 1538,
      "care": 1539,
      "camp": 1540,
      "ft": 1541,
      "free": 1542,
      "ling": 1543,
      "main": 1544,
      "nat": 1545,
      "sன": 1546,
      "பறம": 1547,
      "பககம": 1548,
      "மவடட": 1549,
      "வச": 1550,
      "ina": 1551,
      "reme": 1552,
      "இதகக": 1553,
      "வஙகன": 1554,
      "சலற": 1555,
      "சலவ": 1556,
      "dec": 1557,
      "வடகக": 1558,
      "open": 1559,
      "umar": 1560,
      "மடடமலலம": 1561,
      "உணமயலய": 1562,
      "control": 1563,
      "trans": 1564,
      "Hin": 1565,
      "IP": 1566,
      "Witness": 1567,
      "bank": 1568,
      "clo": 1569,
      "jo": 1570,
      "move": 1571,
      "water": 1572,
      "உடம": 1573,
      "வவர": 1574,
      "incident": 1575,
      "கடர": 1576,
      "road": 1577,
      "நடககம": 1578,
      "ments": 1579,
      "எனபத": 1580,
      "cong": 1581,
      "point": 1582,
      "வயச": 1583,
      "வடடல": 1584,
      "இரபபஙக": 1585,
      "Development": 1586,
      "கவனம": 1587,
      "Union": 1588,
      "students": 1589,
      "Commission": 1590,
      "investigate": 1591,
      "economic": 1592,
      "Kar": 1593,
      "Th": 1594,
      "ben": 1595,
      "dri": 1596,
      "langu": 1597,
      "தயர": 1598,
      "யதத": 1599,
      "ஸட": 1600,
      "esஅ": 1601,
      "இரககணமன": 1602,
      "பணணவம": 1603,
      "நடகளல": 1604,
      "வளயட": 1605,
      "வநதத": 1606,
      "நலலத": 1607,
      "கழசச": 1608,
      "உணமய": 1609,
      "உலகம": 1610,
      "எடததடட": 1611,
      "cret": 1612,
      "service": 1613,
      "stitution": 1614,
      "Americ": 1615,
      "Rahul": 1616,
      "உதரணததகக": 1617,
      "நசசயம": 1618,
      "Af": 1619,
      "DM": 1620,
      "For": 1621,
      "hum": 1622,
      "ip": 1623,
      "ise": 1624,
      "king": 1625,
      "mod": 1626,
      "no": 1627,
      "sci": 1628,
      "உடய": 1629,
      "னகக": 1630,
      "பயம": 1631,
      "பகம": 1632,
      "ககள": 1633,
      "tition": 1634,
      "information": 1635,
      "leல": 1636,
      "lection": 1637,
      "lege": 1638,
      "seat": 1639,
      "security": 1640,
      "chan": 1641,
      "மறதத": 1642,
      "நனககறன": 1643,
      "accident": 1644,
      "compan": 1645,
      "ஜயசச": 1646,
      "நடசசரககஙக": 1647,
      "video": 1648,
      "Supreme": 1649,
      "iversity": 1650,
      "Christian": 1651,
      "success": 1652,
      "Dire": 1653,
      "II": 1654,
      "Sab": 1655,
      "az": 1656,
      "fo": 1657,
      "run": 1658,
      "ஸதன": 1659,
      "tific": 1660,
      "esம": 1661,
      "கடத": 1662,
      "எலலததயம": 1663,
      "ersஐ": 1664,
      "பதககபபடட": 1665,
      "teach": 1666,
      "வசசரககஙக": 1667,
      "கணடபப": 1668,
      "hoto": 1669,
      "experi": 1670,
      "avir": 1671,
      "endra": 1672,
      "பணணடடர": 1673,
      "தமழநடடல": 1674,
      "பணணககலம": 1675,
      "ieve": 1676,
      "500": 1677,
      "Ag": 1678,
      "Ass": 1679,
      "Gu": 1680,
      "Part": 1681,
      "Tra": 1682,
      "iti": 1683,
      "list": 1684,
      "lim": 1685,
      "men": 1686,
      "mar": 1687,
      "mor": 1688,
      "ஆயரகக": 1689,
      "பஙக": 1690,
      "ததத": 1691,
      "இரககலம": 1692,
      "stand": 1693,
      "அதமடடமலலம": 1694,
      "பரஙகளன": 1695,
      "நடகள": 1696,
      "unch": 1697,
      "பதவ": 1698,
      "2019": 1699,
      "வறற": 1700,
      "மததம": 1701,
      "மரதத": 1702,
      "இறநதடடர": 1703,
      "ultural": 1704,
      "தரயலய": 1705,
      "ittee": 1706,
      "Air": 1707,
      "Em": 1708,
      "Kumar": 1709,
      "Tel": 1710,
      "dra": 1711,
      "fac": 1712,
      "go": 1713,
      "ian": 1714,
      "pati": 1715,
      "sk": 1716,
      "vate": 1717,
      "இய": 1718,
      "பலம": 1719,
      "வகம": 1720,
      "பபன": 1721,
      "esஓட": 1722,
      "iness": 1723,
      "ors": 1724,
      "ரமன": 1725,
      "களள": 1726,
      "let": 1727,
      "develop": 1728,
      "depend": 1729,
      "adv": 1730,
      "பபடடர": 1731,
      "பறற": 1732,
      "கணடபடசச": 1733,
      "இநதயவட": 1734,
      "ake": 1735,
      "achieve": 1736,
      "நடககத": 1737,
      "Health": 1738,
      "education": 1739,
      "Pakistan": 1740,
      "Director": 1741,
      "27": 1742,
      "99": 1743,
      "ctive": 1744,
      "gy": 1745,
      "law": 1746,
      "ost": 1747,
      "uro": 1748,
      "ஆர": 1749,
      "ஐநத": 1750,
      "தகவல": 1751,
      "வரமப": 1752,
      "erv": 1753,
      "erல": 1754,
      "onavir": 1755,
      "இரககமன": 1756,
      "மடம": 1757,
      "mentல": 1758,
      "கமம": 1759,
      "acc": 1760,
      "வநதஙக": 1761,
      "compl": 1762,
      "பணறதககக": 1763,
      "share": 1764,
      "சமபவ": 1765,
      "2018": 1766,
      "வஷயதத": 1767,
      "elect": 1768,
      "பணணமபத": 1769,
      "hospitalல": 1770,
      "record": 1771,
      "spiritual": 1772,
      "onavirus": 1773,
      "Bh": 1774,
      "Har": 1775,
      "MP": 1776,
      "Mumb": 1777,
      "Sri": 1778,
      "adi": 1779,
      "del": 1780,
      "fa": 1781,
      "farm": 1782,
      "ma": 1783,
      "million": 1784,
      "put": 1785,
      "tw": 1786,
      "top": 1787,
      "udi": 1788,
      "ஆல": 1789,
      "உறத": 1790,
      "ஒவவர": 1791,
      "சஞச": 1792,
      "யரககம": 1793,
      "வணமன": 1794,
      "esus": 1795,
      "சசரககஙக": 1796,
      "ரமபப": 1797,
      "பரள": 1798,
      "றதககக": 1799,
      "மனச": 1800,
      "ome": 1801,
      "கடடத": 1802,
      "add": 1803,
      "opport": 1804,
      "தடர": 1805,
      "நடநதரகக": 1806,
      "எதரபரகக": 1807,
      "que": 1808,
      "கனவ": 1809,
      "மரயத": 1810,
      "எழதன": 1811,
      "uthor": 1812,
      "Central": 1813,
      "struct": 1814,
      "situation": 1815,
      "music": 1816,
      "Mumbai": 1817,
      "60": 1818,
      "Ab": 1819,
      "Khan": 1820,
      "TV": 1821,
      "base": 1822,
      "cra": 1823,
      "lit": 1824,
      "mission": 1825,
      "match": 1826,
      "rali": 1827,
      "ஃப": 1828,
      "ஆற": 1829,
      "உண": 1830,
      "உத": 1831,
      "உற": 1832,
      "கஞச": 1833,
      "சற": 1834,
      "பபற": 1835,
      "orm": 1836,
      "ick": 1837,
      "its": 1838,
      "இநதப": 1839,
      "che": 1840,
      "நடககற": 1841,
      "எலலரககம": 1842,
      "கடடததடட": 1843,
      "agree": 1844,
      "நறற": 1845,
      "Int": 1846,
      "2020": 1847,
      "மததய": 1848,
      "வடடகக": 1849,
      "polic": 1850,
      "கவனசச": 1851,
      "ength": 1852,
      "engine": 1853,
      "கடமயன": 1854,
      "leaders": 1855,
      "director": 1856,
      "Prad": 1857,
      "ready": 1858,
      "Kingdom": 1859,
      "28": 1860,
      "70": 1861,
      "Day": 1862,
      "IC": 1863,
      "Jesus": 1864,
      "Nar": 1865,
      "down": 1866,
      "fact": 1867,
      "film": 1868,
      "ham": 1869,
      "jud": 1870,
      "pass": 1871,
      "ys": 1872,
      "அமத": 1873,
      "கனன": 1874,
      "சபபடட": 1875,
      "டகடர": 1876,
      "ணககன": 1877,
      "ines": 1878,
      "பரத": 1879,
      "deb": 1880,
      "detail": 1881,
      "administ": 1882,
      "பயட": 1883,
      "prote": 1884,
      "ted": 1885,
      "cond": 1886,
      "cons": 1887,
      "conne": 1888,
      "படடரககஙக": 1889,
      "petition": 1890,
      "areaல": 1891,
      "மககளட": 1892,
      "அனமத": 1893,
      "சமபவம": 1894,
      "under": 1895,
      "இடயல": 1896,
      "soci": 1897,
      "caseல": 1898,
      "student": 1899,
      "ounce": 1900,
      "தரஞசகக": 1901,
      "financial": 1902,
      "congreg": 1903,
      "21": 1904,
      "Aust": 1905,
      "IS": 1906,
      "Lok": 1907,
      "Me": 1908,
      "Pet": 1909,
      "Ram": 1910,
      "Spe": 1911,
      "dam": 1912,
      "day": 1913,
      "iz": 1914,
      "ive": 1915,
      "lab": 1916,
      "tru": 1917,
      "தள": 1918,
      "யசச": 1919,
      "யரககஙக": 1920,
      "பபடடஙக": 1921,
      "ination": 1922,
      "start": 1923,
      "தரபப": 1924,
      "பரர": 1925,
      "sector": 1926,
      "மனசல": 1927,
      "ingல": 1928,
      "வளர": 1929,
      "improve": 1930,
      "employ": 1931,
      "கடககத": 1932,
      "Indiaல": 1933,
      "terror": 1934,
      "நளகக": 1935,
      "international": 1936,
      "Shri": 1937,
      "event": 1938,
      "announce": 1939,
      "வரஷததகக": 1940,
      "decision": 1941,
      "GS": 1942,
      "Sur": 1943,
      "band": 1944,
      "city": 1945,
      "fort": 1946,
      "love": 1947,
      "mil": 1948,
      "sa": 1949,
      "தரநத": 1950,
      "நலம": 1951,
      "பஞசம": 1952,
      "மநல": 1953,
      "வமன": 1954,
      "ஙகர": 1955,
      "ale": 1956,
      "பரபல": 1957,
      "சலலஙகளன": 1958,
      "semb": 1959,
      "கரண": 1960,
      "app": 1961,
      "ததககள": 1962,
      "estab": 1963,
      "pose": 1964,
      "plication": 1965,
      "ctionல": 1966,
      "கணடபடகக": 1967,
      "எனககத": 1968,
      "மழச": 1969,
      "அரததம": 1970,
      "மடயமன": 1971,
      "liament": 1972,
      "அபபடததன": 1973,
      "States": 1974,
      "invest": 1975,
      "field": 1976,
      "grow": 1977,
      "hospitalகக": 1978,
      "ension": 1979,
      "chief": 1980,
      "DMK": 1981,
      "35": 1982,
      "Bud": 1983,
      "Beng": 1984,
      "North": 1985,
      "best": 1986,
      "fund": 1987,
      "food": 1988,
      "gar": 1989,
      "president": 1990,
      "sc": 1991,
      "vers": 1992,
      "கணண": 1993,
      "பததல": 1994,
      "ழம": 1995,
      "ins": 1996,
      "ala": 1997,
      "als": 1998,
      "பரல": 1999,
      "role": 2000,
      "சலலபபடத": 2001,
      "ded": 2002,
      "development": 2003,
      "சரஙக": 2004,
      "ages": 2005,
      "condition": 2006,
      "இரககஙகனன": 2007,
      "பறநத": 2008,
      "pare": 2009,
      "head": 2010,
      "கடததஙக": 2011,
      "aint": 2012,
      "அனப": 2013,
      "issue": 2014,
      "உணமயன": 2015,
      "வணடய": 2016,
      "உடல": 2017,
      "produce": 2018,
      "All": 2019,
      "candi": 2020,
      "charact": 2021,
      "launch": 2022,
      "Pradesh": 2023,
      "Australi": 2024,
      "sembly": 2025,
      "establish": 2026,
      "26": 2027,
      "29": 2028,
      "Euro": 2029,
      "Fin": 2030,
      "Ger": 2031,
      "IA": 2032,
      "Joh": 2033,
      "bas": 2034,
      "kar": 2035,
      "mer": 2036,
      "photo": 2037,
      "yகக": 2038,
      "ளகக": 2039,
      "ரககட": 2040,
      "era": 2041,
      "பணறம": 2042,
      "பபல": 2043,
      "இரககஙகள": 2044,
      "tions": 2045,
      "தரவ": 2046,
      "தரகள": 2047,
      "இரநதபப": 2048,
      "படததகக": 2049,
      "rid": 2050,
      "ersல": 2051,
      "இரககறவஙக": 2052,
      "கரதத": 2053,
      "sport": 2054,
      "ession": 2055,
      "கடககணம": 2056,
      "play": 2057,
      "cost": 2058,
      "ricket": 2059,
      "வடடடட": 2060,
      "எனககப": 2061,
      "uture": 2062,
      "pect": 2063,
      "பகஸதன": 2064,
      "mber": 2065,
      "ஏறபடட": 2066,
      "United": 2067,
      "University": 2068,
      "வததய": 2069,
      "gener": 2070,
      "flu": 2071,
      "stitute": 2072,
      "legal": 2073,
      "self": 2074,
      "Techn": 2075,
      "cretary": 2076,
      "experience": 2077,
      "Bengal": 2078,
      "Europe": 2079,
      "John": 2080,
      "32": 2081,
      "80": 2082,
      "Gen": 2083,
      "ban": 2084,
      "flow": 2085,
      "jay": 2086,
      "os": 2087,
      "rand": 2088,
      "tur": 2089,
      "tri": 2090,
      "yo": 2091,
      "இல": 2092,
      "இள": 2093,
      "எஙகள": 2094,
      "சபபர": 2095,
      "பரமப": 2096,
      "வஜய": 2097,
      "களயம": 2098,
      "ature": 2099,
      "பபடல": 2100,
      "படஙகள": 2101,
      "ationகக": 2102,
      "ami": 2103,
      "eli": 2104,
      "ersம": 2105,
      "எனனய": 2106,
      "process": 2107,
      "கமர": 2108,
      "lobal": 2109,
      "வழஙக": 2110,
      "ump": 2111,
      "comple": 2112,
      "கடககற": 2113,
      "2017": 2114,
      "phone": 2115,
      "வழககயல": 2116,
      "Bibleல": 2117,
      "direct": 2118,
      "Courtல": 2119,
      "தணத": 2120,
      "break": 2121,
      "viron": 2122,
      "அவஙகஅவஙகஅவஙகஅவஙகஅவஙகஅவஙகஅவஙகஅவஙக": 2123,
      "dustri": 2124,
      "respon": 2125,
      "உடமப": 2126,
      "தரநதட": 2127,
      "வததயசம": 2128,
      "இளஞ": 2129,
      "Bhar": 2130,
      "Coun": 2131,
      "Pl": 2132,
      "Sy": 2133,
      "Tim": 2134,
      "VID": 2135,
      "West": 2136,
      "back": 2137,
      "ffer": 2138,
      "future": 2139,
      "hus": 2140,
      "light": 2141,
      "tour": 2142,
      "vid": 2143,
      "wn": 2144,
      "இவவளவ": 2145,
      "உம": 2146,
      "உரம": 2147,
      "நகர": 2148,
      "மலல": 2149,
      "சசம": 2150,
      "red": 2151,
      "அதவத": 2152,
      "itary": 2153,
      "தனமம": 2154,
      "நடக": 2155,
      "prof": 2156,
      "proper": 2157,
      "account": 2158,
      "appro": 2159,
      "ததககஙக": 2160,
      "வசசரகக": 2161,
      "agement": 2162,
      "பணறஙகனன": 2163,
      "மணவரகள": 2164,
      "2016": 2165,
      "most": 2166,
      "award": 2167,
      "disc": 2168,
      "பணணககஙக": 2169,
      "oung": 2170,
      "firm": 2171,
      "இரணடவத": 2172,
      "உலகததலய": 2173,
      "present": 2174,
      "market": 2175,
      "tivity": 2176,
      "COVID": 2177,
      "build": 2178,
      "language": 2179,
      "faith": 2180,
      "31": 2181,
      "Ac": 2182,
      "CB": 2183,
      "Dr": 2184,
      "Go": 2185,
      "Ph": 2186,
      "Sal": 2187,
      "bar": 2188,
      "mas": 2189,
      "mag": 2190,
      "su": 2191,
      "sign": 2192,
      "கஸ": 2193,
      "நயம": 2194,
      "பள": 2195,
      "நதரம": 2196,
      "onல": 2197,
      "ticip": 2198,
      "ense": 2199,
      "அவன": 2200,
      "ices": 2201,
      "rop": 2202,
      "வரவல": 2203,
      "ilities": 2204,
      "uru": 2205,
      "மடய": 2206,
      "நனம": 2207,
      "நனககறஙக": 2208,
      "எனனல": 2209,
      "research": 2210,
      "uss": 2211,
      "come": 2212,
      "எடககல": 2213,
      "coura": 2214,
      "வசசகக": 2215,
      "riculture": 2216,
      "எதரபப": 2217,
      "duc": 2218,
      "கடததரகக": 2219,
      "199": 2220,
      "ativ": 2221,
      "மடயதஙக": 2222,
      "இடஙகளல": 2223,
      "serious": 2224,
      "class": 2225,
      "ableஆ": 2226,
      "கபபதத": 2227,
      "கணடட": 2228,
      "And": 2229,
      "interest": 2230,
      "aff": 2231,
      "investigation": 2232,
      "recover": 2233,
      "organ": 2234,
      "organi": 2235,
      "வவசயகளகக": 2236,
      "right": 2237,
      "human": 2238,
      "structure": 2239,
      "German": 2240,
      "vironment": 2241,
      "75": 2242,
      "CM": 2243,
      "Election": 2244,
      "Hy": 2245,
      "Mal": 2246,
      "Per": 2247,
      "Test": 2248,
      "atic": 2249,
      "cell": 2250,
      "ib": 2251,
      "ior": 2252,
      "less": 2253,
      "my": 2254,
      "mess": 2255,
      "mater": 2256,
      "ner": 2257,
      "rul": 2258,
      "அடய": 2259,
      "கவ": 2260,
      "சரம": 2261,
      "தழ": 2262,
      "னஙக": 2263,
      "பறத": 2264,
      "படடஙக": 2265,
      "மள": 2266,
      "லலத": 2267,
      "ons": 2268,
      "reason": 2269,
      "entஆ": 2270,
      "lear": 2271,
      "itor": 2272,
      "இரநதம": 2273,
      "elf": 2274,
      "நடவடகக": 2275,
      "rist": 2276,
      "ersஓட": 2277,
      "பதகபப": 2278,
      "றஙகனன": 2279,
      "கலததல": 2280,
      "local": 2281,
      "கடககபபடடரகக": 2282,
      "terல": 2283,
      "China": 2284,
      "பனஙக": 2285,
      "வணடயத": 2286,
      "ஏறபட": 2287,
      "file": 2288,
      "ugu": 2289,
      "Jehovahவட": 2290,
      "நடசசரககர": 2291,
      "இயசவட": 2292,
      "Delhiல": 2293,
      "English": 2294,
      "clear": 2295,
      "தணடன": 2296,
      "strength": 2297,
      "Police": 2298,
      "business": 2299,
      "programme": 2300,
      "ஆணகள": 2301,
      "position": 2302,
      "American": 2303,
      "Narendra": 2304,
      "material": 2305,
      "300": 2306,
      "65": 2307,
      "Mad": 2308,
      "aut": 2309,
      "aign": 2310,
      "by": 2311,
      "now": 2312,
      "pric": 2313,
      "sing": 2314,
      "ude": 2315,
      "vol": 2316,
      "young": 2317,
      "மவ": 2318,
      "ரத": 2319,
      "வயல": 2320,
      "ககறம": 2321,
      "inst": 2322,
      "ency": 2323,
      "atesல": 2324,
      "தனசச": 2325,
      "வரன": 2326,
      "ரமபக": 2327,
      "நடககல": 2328,
      "une": 2329,
      "dem": 2330,
      "ersஅ": 2331,
      "சமபத": 2332,
      "பதமன": 2333,
      "கரள": 2334,
      "வநதர": 2335,
      "ததனர": 2336,
      "பறபப": 2337,
      "படடர": 2338,
      "வயசல": 2339,
      "2011": 2340,
      "ather": 2341,
      "வஙகளட": 2342,
      "iver": 2343,
      "கலநதகக": 2344,
      "stateல": 2345,
      "final": 2346,
      "ஆடச": 2347,
      "அதகரகள": 2348,
      "mediaல": 2349,
      "School": 2350,
      "strong": 2351,
      "Isra": 2352,
      "Sabha": 2353,
      "Special": 2354,
      "CC": 2355,
      "CE": 2356,
      "East": 2357,
      "Educ": 2358,
      "GB": 2359,
      "Jer": 2360,
      "Jan": 2361,
      "Sp": 2362,
      "Son": 2363,
      "Tr": 2364,
      "bh": 2365,
      "cil": 2366,
      "ey": 2367,
      "eth": 2368,
      "hy": 2369,
      "hic": 2370,
      "hol": 2371,
      "mis": 2372,
      "numb": 2373,
      "pop": 2374,
      "tor": 2375,
      "xt": 2376,
      "ஆகல": 2377,
      "ஆகற": 2378,
      "கச": 2379,
      "கலம": 2380,
      "நகக": 2381,
      "லலஙக": 2382,
      "பபள": 2383,
      "ese": 2384,
      "இரககத": 2385,
      "artic": 2386,
      "aries": 2387,
      "reject": 2388,
      "select": 2389,
      "dies": 2390,
      "மனற": 2391,
      "சமர": 2392,
      "வலகக": 2393,
      "பதம": 2394,
      "பயடசச": 2395,
      "பததக": 2396,
      "ustice": 2397,
      "istance": 2398,
      "கமமய": 2399,
      "off": 2400,
      "vehic": 2401,
      "conf": 2402,
      "மககய": 2403,
      "வழததககள": 2404,
      "கறறம": 2405,
      "வதமன": 2406,
      "பணறதககன": 2407,
      "parties": 2408,
      "தடஙக": 2409,
      "avid": 2410,
      "எதரன": 2411,
      "feel": 2412,
      "poll": 2413,
      "ககறவஙகன": 2414,
      "world": 2415,
      "sia": 2416,
      "sive": 2417,
      "மடயதனன": 2418,
      "வரமன": 2419,
      "அதகமகடட": 2420,
      "ower": 2421,
      "ஏறபடதத": 2422,
      "fire": 2423,
      "minister": 2424,
      "சமபநதபபடட": 2425,
      "private": 2426,
      "Parliament": 2427,
      "Board": 2428,
      "prac": 2429,
      "frastructure": 2430,
      "கயமடநத": 2431,
      "maintain": 2432,
      "close": 2433,
      "Party": 2434,
      "Telugu": 2435,
      "patient": 2436,
      "based": 2437,
      "தனசசககறவஙகன": 2438,
      "Fran": 2439,
      "Ira": 2440,
      "Keral": 2441,
      "Or": 2442,
      "San": 2443,
      "Sam": 2444,
      "bat": 2445,
      "card": 2446,
      "fish": 2447,
      "lar": 2448,
      "san": 2449,
      "பபத": 2450,
      "esting": 2451,
      "இரககறதல": 2452,
      "arch": 2453,
      "ரநதத": 2454,
      "itation": 2455,
      "அவரகடட": 2456,
      "சலலல": 2457,
      "இரநதன": 2458,
      "படககம": 2459,
      "amin": 2460,
      "els": 2461,
      "ingஆ": 2462,
      "department": 2463,
      "கடடன": 2464,
      "admit": 2465,
      "பயபபட": 2466,
      "promo": 2467,
      "கரஷ": 2468,
      "Institute": 2469,
      "approve": 2470,
      "tical": 2471,
      "peace": 2472,
      "ques": 2473,
      "aster": 2474,
      "பசடட": 2475,
      "town": 2476,
      "அபபடய": 2477,
      "ஆரமபததல": 2478,
      "வரததகள": 2479,
      "ashtra": 2480,
      "பகதய": 2481,
      "பழம": 2482,
      "production": 2483,
      "cript": 2484,
      "வசரசசடட": 2485,
      "value": 2486,
      "Road": 2487,
      "தவயன": 2488,
      "medical": 2489,
      "தலமயல": 2490,
      "fullஆ": 2491,
      "campaign": 2492,
      "benef": 2493,
      "எதரபரககபபடத": 2494,
      "உதவம": 2495,
      "International": 2496,
      "பரபலமன": 2497,
      "discuss": 2498,
      "courage": 2499,
      "Iraq": 2500,
      "90": 2501,
      "AR": 2502,
      "David": 2503,
      "Im": 2504,
      "Jo": 2505,
      "ML": 2506,
      "MS": 2507,
      "Mat": 2508,
      "May": 2509,
      "UN": 2510,
      "Vir": 2511,
      "au": 2512,
      "aகக": 2513,
      "aul": 2514,
      "author": 2515,
      "bod": 2516,
      "gn": 2517,
      "ize": 2518,
      "lin": 2519,
      "miss": 2520,
      "non": 2521,
      "norm": 2522,
      "oil": 2523,
      "oth": 2524,
      "pen": 2525,
      "sum": 2526,
      "she": 2527,
      "yயட": 2528,
      "year": 2529,
      "அல": 2530,
      "ஙகக": 2531,
      "சயம": 2532,
      "ணணம": 2533,
      "பலல": 2534,
      "ககய": 2535,
      "ககலம": 2536,
      "சசடடஙக": 2537,
      "ref": 2538,
      "reen": 2539,
      "requ": 2540,
      "recent": 2541,
      "கடல": 2542,
      "சலலரககஙக": 2543,
      "இரநதரகக": 2544,
      "dise": 2545,
      "disp": 2546,
      "differ": 2547,
      "மறய": 2548,
      "நனககற": 2549,
      "thod": 2550,
      "riti": 2551,
      "கடடர": 2552,
      "வலகள": 2553,
      "பதய": 2554,
      "சரததககஙக": 2555,
      "பததயம": 2556,
      "tele": 2557,
      "lood": 2558,
      "பறதத": 2559,
      "particip": 2560,
      "ctions": 2561,
      "கணடபட": 2562,
      "ext": 2563,
      "198": 2564,
      "areas": 2565,
      "அடககட": 2566,
      "பணறன": 2567,
      "இடததகக": 2568,
      "தனனட": 2569,
      "இறநதடடஙக": 2570,
      "regular": 2571,
      "ஆயடம": 2572,
      "கழநதகளகக": 2573,
      "ground": 2574,
      "அமரகக": 2575,
      "arma": 2576,
      "அரசஙகததட": 2577,
      "product": 2578,
      "பளளஙக": 2579,
      "show": 2580,
      "solve": 2581,
      "வவசயகள": 2582,
      "districtல": 2583,
      "coronavirus": 2584,
      "meetingல": 2585,
      "Mahar": 2586,
      "dependence": 2587,
      "நறறணட": 2588,
      "COVID19": 2589,
      "Israel": 2590,
      "38": 2591,
      "44": 2592,
      "Lu": 2593,
      "Med": 2594,
      "Oct": 2595,
      "Public": 2596,
      "Rus": 2597,
      "Rail": 2598,
      "SE": 2599,
      "Sw": 2600,
      "Serv": 2601,
      "Tran": 2602,
      "bro": 2603,
      "cul": 2604,
      "call": 2605,
      "cover": 2606,
      "cricket": 2607,
      "don": 2608,
      "ek": 2609,
      "global": 2610,
      "jar": 2611,
      "mic": 2612,
      "ning": 2613,
      "prin": 2614,
      "ufact": 2615,
      "wa": 2616,
      "yal": 2617,
      "ஆசசர": 2618,
      "எததன": 2619,
      "ஏததகக": 2620,
      "ஒணணம": 2621,
      "கறத": 2622,
      "மடடன": 2623,
      "யரககர": 2624,
      "லன": 2625,
      "வகள": 2626,
      "ஸகல": 2627,
      "ததககம": 2628,
      "ste": 2629,
      "அதவம": 2630,
      "பரயம": 2631,
      "சலலணம": 2632,
      "சலலபபடற": 2633,
      "வரவற": 2634,
      "amb": 2635,
      "amera": 2636,
      "வஙகடட": 2637,
      "வஙகனன": 2638,
      "omen": 2639,
      "மறக": 2640,
      "மறநத": 2641,
      "unities": 2642,
      "சலதத": 2643,
      "def": 2644,
      "சரதன": 2645,
      "பபடடளளத": 2646,
      "text": 2647,
      "ions": 2648,
      "கரததர": 2649,
      "வநதரநதஙக": 2650,
      "abin": 2651,
      "abad": 2652,
      "கறகக": 2653,
      "கறதத": 2654,
      "கடககறத": 2655,
      "ricultural": 2656,
      "force": 2657,
      "Christ": 2658,
      "alli": 2659,
      "effect": 2660,
      "ants": 2661,
      "உடபட": 2662,
      "தபபனன": 2663,
      "Reg": 2664,
      "ober": 2665,
      "சததம": 2666,
      "மடஞசத": 2667,
      "operation": 2668,
      "Hospital": 2669,
      "pray": 2670,
      "பனனட": 2671,
      "Vijay": 2672,
      "histor": 2673,
      "visit": 2674,
      "Witnesses": 2675,
      "Afric": 2676,
      "சமபவததல": 2677,
      "பரரததன": 2678,
      "Council": 2679,
      "husband": 2680,
      "Trump": 2681,
      "Maharashtra": 2682,
      "CP": 2683,
      "Cl": 2684,
      "Car": 2685,
      "Lank": 2686,
      "Mem": 2687,
      "Mark": 2688,
      "Nav": 2689,
      "Prin": 2690,
      "Red": 2691,
      "aவ": 2692,
      "billion": 2693,
      "cu": 2694,
      "cel": 2695,
      "cop": 2696,
      "den": 2697,
      "dates": 2698,
      "equ": 2699,
      "eign": 2700,
      "gi": 2701,
      "iesல": 2702,
      "long": 2703,
      "pand": 2704,
      "ta": 2705,
      "tax": 2706,
      "ஆசர": 2707,
      "சஙக": 2708,
      "தளள": 2709,
      "நண": 2710,
      "நஙகளம": 2711,
      "மதம": 2712,
      "ளர": 2713,
      "ழநத": 2714,
      "வறம": 2715,
      "ery": 2716,
      "tim": 2717,
      "tivi": 2718,
      "indi": 2719,
      "institution": 2720,
      "பணணசச": 2721,
      "பணணவர": 2722,
      "alam": 2723,
      "remove": 2724,
      "கடசய": 2725,
      "கடதனன": 2726,
      "rative": 2727,
      "urch": 2728,
      "சமம": 2729,
      "சமய": 2730,
      "இலலத": 2731,
      "வளரசச": 2732,
      "apply": 2733,
      "ernal": 2734,
      "imm": 2735,
      "pos": 2736,
      "aka": 2737,
      "akh": 2738,
      "peop": 2739,
      "அவஙகளல": 2740,
      "இறவன": 2741,
      "viol": 2742,
      "short": 2743,
      "கடமப": 2744,
      "Program": 2745,
      "ரஜன": 2746,
      "rolesல": 2747,
      "ublish": 2748,
      "அதகமன": 2749,
      "வரஷததல": 2750,
      "Centre": 2751,
      "relations": 2752,
      "capital": 2753,
      "England": 2754,
      "doctor": 2755,
      "ஒரததவஙக": 2756,
      "Assembly": 2757,
      "Hindi": 2758,
      "IPL": 2759,
      "joy": 2760,
      "scienti": 2761,
      "foot": 2762,
      "standard": 2763,
      "complaint": 2764,
      "opportunity": 2765,
      "military": 2766,
      "elfare": 2767,
      "ufactur": 2768,
      "Ak": 2769,
      "Di": 2770,
      "Gro": 2771,
      "Kan": 2772,
      "Ne": 2773,
      "Pre": 2774,
      "Ra": 2775,
      "Ze": 2776,
      "fair": 2777,
      "ians": 2778,
      "lay": 2779,
      "ox": 2780,
      "ption": 2781,
      "publish": 2782,
      "sour": 2783,
      "tro": 2784,
      "vil": 2785,
      "ஃபர": 2786,
      "ஆச": 2787,
      "எடட": 2788,
      "சழ": 2789,
      "சரகக": 2790,
      "டச": 2791,
      "தக": 2792,
      "பபண": 2793,
      "யலலம": 2794,
      "றவஙக": 2795,
      "பணட": 2796,
      "பணகளகக": 2797,
      "பபகக": 2798,
      "பபகள": 2799,
      "tiz": 2800,
      "anc": 2801,
      "ene": 2802,
      "encourage": 2803,
      "alஆ": 2804,
      "step": 2805,
      "கடஙக": 2806,
      "கடசசரகக": 2807,
      "leகக": 2808,
      "second": 2809,
      "பபடறஙக": 2810,
      "rail": 2811,
      "இதட": 2812,
      "child": 2813,
      "நடகர": 2814,
      "மறடசச": 2815,
      "uni": 2816,
      "சலறன": 2817,
      "ஆனஙக": 2818,
      "ced": 2819,
      "cept": 2820,
      "resour": 2821,
      "வளள": 2822,
      "பததடட": 2823,
      "cipl": 2824,
      "meas": 2825,
      "தமப": 2826,
      "வநதரசச": 2827,
      "ability": 2828,
      "imum": 2829,
      "fici": 2830,
      "heav": 2831,
      "aste": 2832,
      "atis": 2833,
      "anceல": 2834,
      "series": 2835,
      "regionல": 2836,
      "box": 2837,
      "வழககய": 2838,
      "supply": 2839,
      "colour": 2840,
      "study": 2841,
      "ference": 2842,
      "தறகல": 2843,
      "Committee": 2844,
      "ential": 2845,
      "யகவவட": 2846,
      "கறஸதவ": 2847,
      "charge": 2848,
      "Corpor": 2849,
      "கறறவள": 2850,
      "salm": 2851,
      "இழநத": 2852,
      "நறததடடஙக": 2853,
      "example": 2854,
      "கறஸதவரகள": 2855,
      "Hindu": 2856,
      "Karnat": 2857,
      "Gujar": 2858,
      "electric": 2859,
      "character": 2860,
      "Gujarat": 2861,
      "34": 2862,
      "36": 2863,
      "7ல": 2864,
      "CS": 2865,
      "Fund": 2866,
      "Hond": 2867,
      "IT": 2868,
      "Sen": 2869,
      "Sci": 2870,
      "Script": 2871,
      "TN": 2872,
      "We": 2873,
      "Wh": 2874,
      "Yo": 2875,
      "Yog": 2876,
      "ating": 2877,
      "cate": 2878,
      "cum": 2879,
      "cue": 2880,
      "camera": 2881,
      "fans": 2882,
      "face": 2883,
      "ges": 2884,
      "ife": 2885,
      "ji": 2886,
      "km": 2887,
      "ks": 2888,
      "nam": 2889,
      "other": 2890,
      "pet": 2891,
      "அண": 2892,
      "இறஙக": 2893,
      "கஷம": 2894,
      "சதர": 2895,
      "தநத": 2896,
      "பவல": 2897,
      "பகர": 2898,
      "பகல": 2899,
      "பஞச": 2900,
      "ளரகள": 2901,
      "வலல": 2902,
      "ergy": 2903,
      "ining": 2904,
      "environment": 2905,
      "அவவளவ": 2906,
      "ores": 2907,
      "sec": 2908,
      "பபடவஙக": 2909,
      "ram": 2910,
      "மனத": 2911,
      "isation": 2912,
      "unic": 2913,
      "deci": 2914,
      "எனனஙக": 2915,
      "கடடயம": 2916,
      "கடடறத": 2917,
      "பயய": 2918,
      "prop": 2919,
      "istant": 2920,
      "வடகள": 2921,
      "கரல": 2922,
      "contin": 2923,
      "activi": 2924,
      "etல": 2925,
      "வநதடசச": 2926,
      "யரகள": 2927,
      "பறறர": 2928,
      "posit": 2929,
      "வனமற": 2930,
      "எடககபபடட": 2931,
      "இநதயவகக": 2932,
      "மததவஙக": 2933,
      "மததவஙகள": 2934,
      "avail": 2935,
      "பணணடடன": 2936,
      "கடததடட": 2937,
      "fection": 2938,
      "நளல": 2939,
      "அடசச": 2940,
      "உஙகளககத": 2941,
      "தவரகக": 2942,
      "ills": 2943,
      "நடடகக": 2944,
      "ajor": 2945,
      "பணணவஙகனன": 2946,
      "community": 2947,
      "committee": 2948,
      "கடமபதத": 2949,
      "மதலவர": 2950,
      "உஙகளட": 2951,
      "gency": 2952,
      "அதகபபடதத": 2953,
      "Secretary": 2954,
      "இபபடபபடட": 2955,
      "பணணடஙக": 2956,
      "struction": 2957,
      "பரஞசகக": 2958,
      "Engine": 2959,
      "சகதர": 2960,
      "righ": 2961,
      "friends": 2962,
      "Research": 2963,
      "எணணகக": 2964,
      "function": 2965,
      "judge": 2966,
      "details": 2967,
      "administration": 2968,
      "damage": 2969,
      "growth": 2970,
      "Education": 2971,
      "தலமயலன": 2972,
      "ritish": 2973,
      "Railway": 2974,
      "relationship": 2975,
      "4ல": 2976,
      "600": 2977,
      "Be": 2978,
      "Cabin": 2979,
      "DP": 2980,
      "Dh": 2981,
      "Elect": 2982,
      "Jay": 2983,
      "Nov": 2984,
      "Pan": 2985,
      "SA": 2986,
      "Sep": 2987,
      "Welfare": 2988,
      "block": 2989,
      "cut": 2990,
      "cust": 2991,
      "great": 2992,
      "good": 2993,
      "gold": 2994,
      "ix": 2995,
      "lad": 2996,
      "ners": 2997,
      "pay": 2998,
      "rat": 2999,
      "sககம": 3000,
      "tle": 3001,
      "uel": 3002,
      "vari": 3003,
      "yl": 3004,
      "இனம": 3005,
      "உஙககடட": 3006,
      "உனகக": 3007,
      "டஙக": 3008,
      "நனன": 3009,
      "மரநத": 3010,
      "மறம": 3011,
      "மபத": 3012,
      "மடடர": 3013,
      "ரஷ": 3014,
      "ககர": 3015,
      "anth": 3016,
      "incre": 3017,
      "enci": 3018,
      "பணணக": 3019,
      "பணணதஙக": 3020,
      "பணணரநதஙக": 3021,
      "ara": 3022,
      "ஙகளயம": 3023,
      "அதலலம": 3024,
      "leஐ": 3025,
      "அவரப": 3026,
      "room": 3027,
      "சலலற": 3028,
      "தனம": 3029,
      "sed": 3030,
      "dian": 3031,
      "cho": 3032,
      "chall": 3033,
      "ingகக": 3034,
      "isl": 3035,
      "death": 3036,
      "சரசச": 3037,
      "resol": 3038,
      "இலலன": 3039,
      "அநதக": 3040,
      "ulation": 3041,
      "loan": 3042,
      "load": 3043,
      "யடதத": 3044,
      "application": 3045,
      "தலவர": 3046,
      "idence": 3047,
      "சயநதரம": 3048,
      "பறன": 3049,
      "மததத": 3050,
      "avi": 3051,
      "ender": 3052,
      "ageல": 3053,
      "195": 3054,
      "quali": 3055,
      "quality": 3056,
      "tract": 3057,
      "trade": 3058,
      "2013": 3059,
      "2015": 3060,
      "ஆகமன": 3061,
      "Shah": 3062,
      "create": 3063,
      "ஏறகனவ": 3064,
      "தபபகக": 3065,
      "Jehovahs": 3066,
      "2000": 3067,
      "obje": 3068,
      "ஆரமபசசடசச": 3069,
      "afety": 3070,
      "shoo": 3071,
      "surve": 3072,
      "யகவவகக": 3073,
      "solution": 3074,
      "தரயதஙக": 3075,
      "ditional": 3076,
      "ஆளஙக": 3077,
      "Chennaiல": 3078,
      "ledge": 3079,
      "technology": 3080,
      "target": 3081,
      "vote": 3082,
      "எணணய": 3083,
      "change": 3084,
      "accidentல": 3085,
      "successful": 3086,
      "ஆயரககணககன": 3087,
      "அமதய": 3088,
      "response": 3089,
      "System": 3090,
      "nowledge": 3091,
      "benefit": 3092,
      "நணபர": 3093,
      "1ல": 3094,
      "British": 3095,
      "Koh": 3096,
      "La": 3097,
      "Mr": 3098,
      "Mus": 3099,
      "Mess": 3100,
      "NA": 3101,
      "Pun": 3102,
      "Power": 3103,
      "Ran": 3104,
      "Sub": 3105,
      "War": 3106,
      "aid": 3107,
      "bra": 3108,
      "eas": 3109,
      "fur": 3110,
      "hor": 3111,
      "hit": 3112,
      "hra": 3113,
      "na": 3114,
      "nuc": 3115,
      "pp": 3116,
      "sககன": 3117,
      "ters": 3118,
      "ues": 3119,
      "vacc": 3120,
      "wal": 3121,
      "wic": 3122,
      "wit": 3123,
      "இஸர": 3124,
      "உனன": 3125,
      "ஐய": 3126,
      "சங": 3127,
      "சணட": 3128,
      "சததன": 3129,
      "டஸ": 3130,
      "தகத": 3131,
      "பரநத": 3132,
      "ரதத": 3133,
      "வங": 3134,
      "வபதத": 3135,
      "ஷன": 3136,
      "erஐ": 3137,
      "ering": 3138,
      "error": 3139,
      "ones": 3140,
      "ences": 3141,
      "enjoy": 3142,
      "பணணறத": 3143,
      "aly": 3144,
      "சசல": 3145,
      "ories": 3146,
      "sts": 3147,
      "ஙகளட": 3148,
      "பரசச": 3149,
      "season": 3150,
      "வரபப": 3151,
      "மனதர": 3152,
      "ationஐ": 3153,
      "மறகக": 3154,
      "நனவ": 3155,
      "unt": 3156,
      "சலவல": 3157,
      "கடடம": 3158,
      "பயடடர": 3159,
      "cise": 3160,
      "method": 3161,
      "provide": 3162,
      "agar": 3163,
      "வடல": 3164,
      "வடஙக": 3165,
      "வடதல": 3166,
      "teg": 3167,
      "irl": 3168,
      "Industri": 3169,
      "வககறத": 3170,
      "emic": 3171,
      "கடககபபடத": 3172,
      "அவரகளகக": 3173,
      "வசசரககர": 3174,
      "வசசரநதஙக": 3175,
      "foreign": 3176,
      "வயசகக": 3177,
      "express": 3178,
      "197": 3179,
      "uble": 3180,
      "ranch": 3181,
      "effort": 3182,
      "நரடய": 3183,
      "sian": 3184,
      "rug": 3185,
      "சமபளம": 3186,
      "சயயபபடட": 3187,
      "board": 3188,
      "speci": 3189,
      "speed": 3190,
      "பணணலனன": 3191,
      "ugh": 3192,
      "வளயடட": 3193,
      "வததயச": 3194,
      "contact": 3195,
      "அனபபடடஙக": 3196,
      "ocra": 3197,
      "அழக": 3198,
      "Soci": 3199,
      "Security": 3200,
      "cancer": 3201,
      "கஷடபபடட": 3202,
      "relig": 3203,
      "operative": 3204,
      "media": 3205,
      "Scheme": 3206,
      "period": 3207,
      "கறறசசடட": 3208,
      "personal": 3209,
      "வணககம": 3210,
      "ஆயடடஙக": 3211,
      "dustry": 3212,
      "courtல": 3213,
      "தடடட": 3214,
      "எதரததப": 3215,
      "rown": 3216,
      "history": 3217,
      "natural": 3218,
      "modern": 3219,
      "ஆரவம": 3220,
      "check": 3221,
      "connect": 3222,
      "congregation": 3223,
      "யசசச": 3224,
      "Bharat": 3225,
      "CBI": 3226,
      "diesel": 3227,
      "France": 3228,
      "promote": 3229,
      "October": 3230,
      "increase": 3231,
      "Kohli": 3232,
      "37": 3233,
      "Ara": 3234,
      "Bl": 3235,
      "Bang": 3236,
      "Dra": 3237,
      "Dis": 3238,
      "Dem": 3239,
      "IM": 3240,
      "Lo": 3241,
      "On": 3242,
      "Rural": 3243,
      "Sa": 3244,
      "Shi": 3245,
      "UP": 3246,
      "ae": 3247,
      "batt": 3248,
      "blood": 3249,
      "cris": 3250,
      "east": 3251,
      "fight": 3252,
      "govern": 3253,
      "gress": 3254,
      "iah": 3255,
      "jour": 3256,
      "late": 3257,
      "nal": 3258,
      "name": 3259,
      "oல": 3260,
      "ose": 3261,
      "rup": 3262,
      "sனன": 3263,
      "sid": 3264,
      "tre": 3265,
      "trib": 3266,
      "uti": 3267,
      "win": 3268,
      "இண": 3269,
      "இவஙக": 3270,
      "ஊதத": 3271,
      "சதன": 3272,
      "பதன": 3273,
      "யவ": 3274,
      "யசகக": 3275,
      "ரயல": 3276,
      "வககம": 3277,
      "ஹல": 3278,
      "ககடடர": 3279,
      "ஙகம": 3280,
      "ஙகல": 3281,
      "டடஙகள": 3282,
      "anim": 3283,
      "alore": 3284,
      "already": 3285,
      "stel": 3286,
      "represent": 3287,
      "தரதத": 3288,
      "இநதயல": 3289,
      "dia": 3290,
      "றதககன": 3291,
      "church": 3292,
      "ington": 3293,
      "எலலர": 3294,
      "நனசசர": 3295,
      "பயரககஙக": 3296,
      "result": 3297,
      "பததகம": 3298,
      "usal": 3299,
      "confirm": 3300,
      "அபபதன": 3301,
      "appoint": 3302,
      "வதறக": 3303,
      "compare": 3304,
      "யரனன": 3305,
      "யரயம": 3306,
      "term": 3307,
      "பணணஙகனன": 3308,
      "அதனலதன": 3309,
      "travel": 3310,
      "மமபடதத": 3311,
      "எதகக": 3312,
      "மணவத": 3313,
      "மரணம": 3314,
      "assistance": 3315,
      "ககலமன": 3316,
      "working": 3317,
      "Sharma": 3318,
      "எடததஙக": 3319,
      "வரததம": 3320,
      "ஆரமபசசடடஙக": 3321,
      "interview": 3322,
      "crores": 3323,
      "key": 3324,
      "பரசசனகள": 3325,
      "Godஓட": 3326,
      "reportல": 3327,
      "problems": 3328,
      "viral": 3329,
      "Leg": 3330,
      "cases": 3331,
      "ront": 3332,
      "hero": 3333,
      "College": 3334,
      "positive": 3335,
      "இரஙகல": 3336,
      "மனஷன": 3337,
      "கயமடஞச": 3338,
      "freeஆ": 3339,
      "tification": 3340,
      "listல": 3341,
      "facilities": 3342,
      "உறதய": 3343,
      "litre": 3344,
      "policy": 3345,
      "protect": 3346,
      "candidate": 3347,
      "Bengaluru": 3348,
      "இலஙக": 3349,
      "approach": 3350,
      "seriousஆ": 3351,
      "Malay": 3352,
      "message": 3353,
      "participate": 3354,
      "Medical": 3355,
      "wait": 3356,
      "ரஜனகநத": 3357,
      "Honda": 3358,
      "activities": 3359,
      "Cabinet": 3360,
      "2ல": 3361,
      "AN": 3362,
      "Bra": 3363,
      "Bol": 3364,
      "Civ": 3365,
      "Div": 3366,
      "Fi": 3367,
      "Her": 3368,
      "Jam": 3369,
      "Justice": 3370,
      "Law": 3371,
      "Po": 3372,
      "Pat": 3373,
      "Post": 3374,
      "Rom": 3375,
      "SC": 3376,
      "Trib": 3377,
      "Ut": 3378,
      "Vice": 3379,
      "Wash": 3380,
      "aim": 3381,
      "bility": 3382,
      "ible": 3383,
      "jur": 3384,
      "pal": 3385,
      "pict": 3386,
      "sus": 3387,
      "slow": 3388,
      "twe": 3389,
      "ving": 3390,
      "wood": 3391,
      "with": 3392,
      "ஆசபபட": 3393,
      "உதவய": 3394,
      "கபம": 3395,
      "கஙகர": 3396,
      "ஜஸ": 3397,
      "டமன": 3398,
      "தகநத": 3399,
      "னஸ": 3400,
      "பஙகள": 3401,
      "மரம": 3402,
      "மகம": 3403,
      "மஞச": 3404,
      "யப": 3405,
      "யவன": 3406,
      "றகக": 3407,
      "வரகக": 3408,
      "ஙகனன": 3409,
      "eration": 3410,
      "onal": 3411,
      "online": 3412,
      "ances": 3413,
      "அவஙககடட": 3414,
      "aland": 3415,
      "ork": 3416,
      "station": 3417,
      "staff": 3418,
      "களர": 3419,
      "atory": 3420,
      "ental": 3421,
      "ics": 3422,
      "ley": 3423,
      "lector": 3424,
      "தரசச": 3425,
      "பரயத": 3426,
      "பரவய": 3427,
      "சலலடடர": 3428,
      "வரட": 3429,
      "வரரகள": 3430,
      "படஙகளல": 3431,
      "ellow": 3432,
      "omatic": 3433,
      "mentகக": 3434,
      "thew": 3435,
      "deal": 3436,
      "deep": 3437,
      "வலவயபப": 3438,
      "பதபப": 3439,
      "ressல": 3440,
      "ரககஙகனன": 3441,
      "citiz": 3442,
      "ulti": 3443,
      "ague": 3444,
      "tember": 3445,
      "log": 3446,
      "activity": 3447,
      "வநதடடஙக": 3448,
      "வழதத": 3449,
      "கறன": 3450,
      "கறஞச": 3451,
      "import": 3452,
      "plant": 3453,
      "place": 3454,
      "வசசர": 3455,
      "forest": 3456,
      "எனககக": 3457,
      "expect": 3458,
      "பககற": 3459,
      "perfect": 3460,
      "avo": 3461,
      "duce": 3462,
      "sha": 3463,
      "asthan": 3464,
      "பசஙக": 3465,
      "total": 3466,
      "manufactur": 3467,
      "தஙகஸ": 3468,
      "மரண": 3469,
      "central": 3470,
      "jee": 3471,
      "common": 3472,
      "super": 3473,
      "answer": 3474,
      "neg": 3475,
      "weight": 3476,
      "prepare": 3477,
      "flight": 3478,
      "பழய": 3479,
      "10000": 3480,
      "actionம": 3481,
      "uram": 3482,
      "ஆடகள": 3483,
      "shock": 3484,
      "Rajasthan": 3485,
      "pressure": 3486,
      "electionல": 3487,
      "March": 3488,
      "மகவம": 3489,
      "ரனகள": 3490,
      "officials": 3491,
      "சயலகள": 3492,
      "driver": 3493,
      "chances": 3494,
      "goal": 3495,
      "opportunities": 3496,
      "eventல": 3497,
      "GST": 3498,
      "Finance": 3499,
      "Technology": 3500,
      "General": 3501,
      "பரமபலன": 3502,
      "complete": 3503,
      "profession": 3504,
      "price": 3505,
      "install": 3506,
      "demand": 3507,
      "Jerusal": 3508,
      "number": 3509,
      "Kerala": 3510,
      "Matthew": 3511,
      "Virat": 3512,
      "body": 3513,
      "Memor": 3514,
      "pandemic": 3515,
      "சமயஙகளல": 3516,
      "Programme": 3517,
      "Karnataka": 3518,
      "decide": 3519,
      "September": 3520,
      "shooting": 3521,
      "nuclear": 3522,
      "wicket": 3523,
      "Washington": 3524,
      "கஙகரஸ": 3525,
      "Jerusalem": 3526,
      "33": 3527,
      "45": 3528,
      "46": 3529,
      "79": 3530,
      "Aad": 3531,
      "Award": 3532,
      "AIA": 3533,
      "BS": 3534,
      "Cap": 3535,
      "Ge": 3536,
      "Ke": 3537,
      "Lond": 3538,
      "Mon": 3539,
      "Met": 3540,
      "Pe": 3541,
      "Sar": 3542,
      "Sat": 3543,
      "York": 3544,
      "bon": 3545,
      "culture": 3546,
      "data": 3547,
      "ees": 3548,
      "ff": 3549,
      "fru": 3550,
      "god": 3551,
      "home": 3552,
      "ja": 3553,
      "ka": 3554,
      "ler": 3555,
      "mov": 3556,
      "major": 3557,
      "net": 3558,
      "north": 3559,
      "otion": 3560,
      "ril": 3561,
      "sil": 3562,
      "squ": 3563,
      "tel": 3564,
      "uv": 3565,
      "vot": 3566,
      "will": 3567,
      "அதத": 3568,
      "அஞச": 3569,
      "ஆழநத": 3570,
      "ஊழ": 3571,
      "கரநத": 3572,
      "கததல": 3573,
      "சகத": 3574,
      "சறற": 3575,
      "டல": 3576,
      "தரகக": 3577,
      "தயம": 3578,
      "நஙகள": 3579,
      "மகபப": 3580,
      "யவத": 3581,
      "ரண": 3582,
      "றகன": 3583,
      "லமன": 3584,
      "ககப": 3585,
      "நதன": 3586,
      "erate": 3587,
      "ercise": 3588,
      "லலனன": 3589,
      "esஆ": 3590,
      "espe": 3591,
      "insp": 3592,
      "influ": 3593,
      "energy": 3594,
      "சசத": 3595,
      "stat": 3596,
      "யமன": 3597,
      "real": 3598,
      "reco": 3599,
      "reply": 3600,
      "கடக": 3601,
      "கடய": 3602,
      "அதககக": 3603,
      "iction": 3604,
      "பரவ": 3605,
      "பரபப": 3606,
      "பரபலம": 3607,
      "சலலயரககர": 3608,
      "தனய": 3609,
      "வரய": 3610,
      "வரலம": 3611,
      "div": 3612,
      "றதனன": 3613,
      "படய": 3614,
      "படல": 3615,
      "படககற": 3616,
      "இதப": 3617,
      "ama": 3618,
      "amy": 3619,
      "istic": 3620,
      "mentஆ": 3621,
      "threat": 3622,
      "dev": 3623,
      "demo": 3624,
      "riage": 3625,
      "cember": 3626,
      "ersஆ": 3627,
      "ததலயம": 3628,
      "ases": 3629,
      "பயடம": 3630,
      "rescue": 3631,
      "பததர": 3632,
      "protest": 3633,
      "agriculture": 3634,
      "வடக": 3635,
      "oftw": 3636,
      "பலன": 3637,
      "active": 3638,
      "accept": 3639,
      "edu": 3640,
      "spap": 3641,
      "appe": 3642,
      "தலவ": 3643,
      "idd": 3644,
      "மலயம": 3645,
      "பறர": 3646,
      "emotion": 3647,
      "எடககணம": 3648,
      "parents": 3649,
      "கழபபட": 3650,
      "வசசககஙக": 3651,
      "rich": 3652,
      "forces": 3653,
      "வயசன": 3654,
      "மனனடய": 3655,
      "Chair": 3656,
      "பணணரககஙகனன": 3657,
      "tine": 3658,
      "மடடமதன": 3659,
      "மதபப": 3660,
      "கடததர": 3661,
      "உஙகளககப": 3662,
      "aiah": 3663,
      "இரககரனன": 3664,
      "sible": 3665,
      "சமபததல": 3666,
      "பகலம": 3667,
      "பகணம": 3668,
      "December": 3669,
      "மரஙகள": 3670,
      "உணமதன": 3671,
      "serve": 3672,
      "intro": 3673,
      "ஆகணம": 3674,
      "workers": 3675,
      "கவனகக": 3676,
      "எடததரககஙக": 3677,
      "gradu": 3678,
      "cred": 3679,
      "schem": 3680,
      "ககபபடடத": 3681,
      "கடமபததன": 3682,
      "Compan": 3683,
      "சனம": 3684,
      "BJPல": 3685,
      "fied": 3686,
      "earth": 3687,
      "officer": 3688,
      "Project": 3689,
      "college": 3690,
      "leader": 3691,
      "நடசசரநதஙக": 3692,
      "ocu": 3693,
      "ocus": 3694,
      "1000": 3695,
      "ககடத": 3696,
      "கடசசத": 3697,
      "newspap": 3698,
      "Coronavirus": 3699,
      "submit": 3700,
      "House": 3701,
      "levelல": 3702,
      "technical": 3703,
      "இனமல": 3704,
      "Office": 3705,
      "Officer": 3706,
      "மவடடததல": 3707,
      "model": 3708,
      "science": 3709,
      "companies": 3710,
      "Assistant": 3711,
      "Training": 3712,
      "draw": 3713,
      "பரளதர": 3714,
      "studentsகக": 3715,
      "safe": 3716,
      "Budget": 3717,
      "turn": 3718,
      "அவஙகஅவஙகஅவஙகஅவஙகஅவஙகஅவஙகஅவஙகஅவஙகஅவஙகஅவஙகஅவஙகஅவஙகஅவஙகஅவஙகஅவஙகஅவஙக": 3719,
      "இளஞரகள": 3720,
      "மலலயன": 3721,
      "property": 3722,
      "தழல": 3723,
      "single": 3724,
      "மவடடம": 3725,
      "practice": 3726,
      "sanction": 3727,
      "television": 3728,
      "Class": 3729,
      "Corporation": 3730,
      "resolution": 3731,
      "நணபரகள": 3732,
      "Society": 3733,
      "crisis": 3734,
      "Uttar": 3735,
      "மஞசள": 3736,
      "AIADMK": 3737,
      "recogn": 3738,
      "democra": 3739,
      "oftware": 3740,
      "48": 3741,
      "5ல": 3742,
      "AM": 3743,
      "Aut": 3744,
      "Author": 3745,
      "Bab": 3746,
      "Best": 3747,
      "CA": 3748,
      "Cer": 3749,
      "DS": 3750,
      "Gold": 3751,
      "Green": 3752,
      "IN": 3753,
      "Kol": 3754,
      "Kam": 3755,
      "Tir": 3756,
      "Twit": 3757,
      "Watch": 3758,
      "bor": 3759,
      "bur": 3760,
      "bow": 3761,
      "branch": 3762,
      "ca": 3763,
      "da": 3764,
      "dest": 3765,
      "eer": 3766,
      "gard": 3767,
      "hat": 3768,
      "happ": 3769,
      "jab": 3770,
      "knowledge": 3771,
      "mate": 3772,
      "mir": 3773,
      "pent": 3774,
      "pris": 3775,
      "rent": 3776,
      "rish": 3777,
      "sl": 3778,
      "simple": 3779,
      "testing": 3780,
      "uary": 3781,
      "yar": 3782,
      "உபப": 3783,
      "உததர": 3784,
      "ஒததகக": 3785,
      "சகள": 3786,
      "சதம": 3787,
      "ஜல": 3788,
      "னமன": 3789,
      "பறதகக": 3790,
      "யயம": 3791,
      "ரததர": 3792,
      "வலம": 3793,
      "ஷட": 3794,
      "ககழம": 3795,
      "ercial": 3796,
      "ergency": 3797,
      "tism": 3798,
      "anci": 3799,
      "estic": 3800,
      "ini": 3801,
      "inch": 3802,
      "inary": 3803,
      "initi": 3804,
      "infrastructure": 3805,
      "பணணடடம": 3806,
      "பணணககடட": 3807,
      "பணணயரககஙக": 3808,
      "allo": 3809,
      "aran": 3810,
      "stre": 3811,
      "states": 3812,
      "reed": 3813,
      "reli": 3814,
      "களஙக": 3815,
      "itamin": 3816,
      "தரய": 3817,
      "வரஙக": 3818,
      "chang": 3819,
      "amல": 3820,
      "omb": 3821,
      "mentஅ": 3822,
      "unit": 3823,
      "tho": 3824,
      "deposit": 3825,
      "ersகடட": 3826,
      "கடடற": 3827,
      "cities": 3828,
      "cially": 3829,
      "ull": 3830,
      "propo": 3831,
      "offer": 3832,
      "Inv": 3833,
      "loss": 3834,
      "etc": 3835,
      "யடன": 3836,
      "apost": 3837,
      "comp": 3838,
      "ember": 3839,
      "coast": 3840,
      "கழகக": 3841,
      "வசசஙக": 3842,
      "தடகக": 3843,
      "territ": 3844,
      "hood": 3845,
      "house": 3846,
      "பககறத": 3847,
      "aver": 3848,
      "மழகக": 3849,
      "area": 3850,
      "அவஙகளககப": 3851,
      "worship": 3852,
      "பசனர": 3853,
      "பசனஙக": 3854,
      "management": 3855,
      "நலன": 3856,
      "இரவ": 3857,
      "இரவரம": 3858,
      "அதகமகடசச": 3859,
      "aily": 3860,
      "region": 3861,
      "சயயற": 3862,
      "phy": 3863,
      "invite": 3864,
      "ஜயலலத": 3865,
      "discipl": 3866,
      "residential": 3867,
      "caseஅ": 3868,
      "Mohan": 3869,
      "title": 3870,
      "கணகக": 3871,
      "பணணலமன": 3872,
      "ught": 3873,
      "office": 3874,
      "color": 3875,
      "contrib": 3876,
      "web": 3877,
      "weak": 3878,
      "மடஞசடசச": 3879,
      "அழகன": 3880,
      "services": 3881,
      "Social": 3882,
      "Private": 3883,
      "ஆடசய": 3884,
      "indra": 3885,
      "surance": 3886,
      "அதகரசசரகக": 3887,
      "privi": 3888,
      "கஷடமன": 3889,
      "soldi": 3890,
      "news": 3891,
      "Hostel": 3892,
      "vention": 3893,
      "venue": 3894,
      "வரலறற": 3895,
      "small": 3896,
      "Application": 3897,
      "Collector": 3898,
      "ரடல": 3899,
      "Affair": 3900,
      "tificate": 3901,
      "Agriculture": 3902,
      "Agricultural": 3903,
      "மரததவ": 3904,
      "facility": 3905,
      "address": 3906,
      "எழதனர": 3907,
      "Mumbaiல": 3908,
      "உணவ": 3909,
      "Peter": 3910,
      "true": 3911,
      "terrorism": 3912,
      "Budd": 3913,
      "candidates": 3914,
      "Australia": 3915,
      "படஙகளலயம": 3916,
      "vidual": 3917,
      "building": 3918,
      "Andhra": 3919,
      "torque": 3920,
      "கரஷண": 3921,
      "defence": 3922,
      "railway": 3923,
      "categ": 3924,
      "prophe": 3925,
      "November": 3926,
      "nership": 3927,
      "islative": 3928,
      "Punjab": 3929,
      "ocratic": 3930,
      "மகபபரய": 3931,
      "proposal": 3932,
      "3000": 3933,
      "400": 3934,
      "69": 3935,
      "78": 3936,
      "8ல": 3937,
      "AI": 3938,
      "At": 3939,
      "Ay": 3940,
      "Back": 3941,
      "Bush": 3942,
      "Can": 3943,
      "Cup": 3944,
      "Fir": 3945,
      "Famil": 3946,
      "Film": 3947,
      "Jap": 3948,
      "June": 3949,
      "Kap": 3950,
      "Kash": 3951,
      "Li": 3952,
      "Lord": 3953,
      "Mor": 3954,
      "Mot": 3955,
      "Muk": 3956,
      "Pand": 3957,
      "Paul": 3958,
      "Psalm": 3959,
      "SS": 3960,
      "Si": 3961,
      "Sm": 3962,
      "Su": 3963,
      "Sun": 3964,
      "Ste": 3965,
      "Tri": 3966,
      "bul": 3967,
      "beli": 3968,
      "dy": 3969,
      "ecu": 3970,
      "fan": 3971,
      "fro": 3972,
      "fem": 3973,
      "focus": 3974,
      "gl": 3975,
      "ger": 3976,
      "gan": 3977,
      "game": 3978,
      "hal": 3979,
      "jun": 3980,
      "jail": 3981,
      "ki": 3982,
      "mak": 3983,
      "mass": 3984,
      "multi": 3985,
      "ni": 3986,
      "sul": 3987,
      "sco": 3988,
      "smo": 3989,
      "scal": 3990,
      "ten": 3991,
      "ves": 3992,
      "vin": 3993,
      "voc": 3994,
      "whe": 3995,
      "wife": 3996,
      "yan": 3997,
      "ஆபதத": 3998,
      "ஈட": 3999,
      "ஊர": 4000,
      "ஊரல": 4001,
      "எலம": 4002,
      "ஐப": 4003,
      "ஒன": 4004,
      "ஒபப": 4005,
      "ஓடட": 4006,
      "கரகக": 4007,
      "ஜர": 4008,
      "தவன": 4009,
      "நககம": 4010,
      "நகழ": 4011,
      "பவஙக": 4012,
      "மஹ": 4013,
      "மசச": 4014,
      "யடட": 4015,
      "ழபப": 4016,
      "வபததல": 4017,
      "ரககற": 4018,
      "ரககனன": 4019,
      "னனன": 4020,
      "tis": 4021,
      "aning": 4022,
      "inem": 4023,
      "incl": 4024,
      "industri": 4025,
      "integ": 4026,
      "injur": 4027,
      "சசனன": 4028,
      "orig": 4029,
      "ster": 4030,
      "star": 4031,
      "கடரமன": 4032,
      "அதப": 4033,
      "lex": 4034,
      "lete": 4035,
      "தரத": 4036,
      "sex": 4037,
      "separ": 4038,
      "olar": 4039,
      "olve": 4040,
      "urre": 4041,
      "isல": 4042,
      "மறஞச": 4043,
      "mentஐ": 4044,
      "units": 4045,
      "ஆனர": 4046,
      "சமயம": 4047,
      "பயரசச": 4048,
      "சரவ": 4049,
      "resh": 4050,
      "uly": 4051,
      "promi": 4052,
      "provision": 4053,
      "கமல": 4054,
      "ager": 4055,
      "எனககம": 4056,
      "பபடடன": 4057,
      "கரட": 4058,
      "கரய": 4059,
      "வநதன": 4060,
      "வநதரககஙக": 4061,
      "apore": 4062,
      "தலவரகள": 4063,
      "வழபட": 4064,
      "ததனஙக": 4065,
      "identi": 4066,
      "compose": 4067,
      "imate": 4068,
      "pot": 4069,
      "பணறதககம": 4070,
      "ரணடவத": 4071,
      "forman": 4072,
      "expl": 4073,
      "export": 4074,
      "நடநதசச": 4075,
      "ardhan": 4076,
      "quart": 4077,
      "நளம": 4078,
      "traffic": 4079,
      "rant": 4080,
      "இறபப": 4081,
      "அடஞச": 4082,
      "அடபடட": 4083,
      "ககறர": 4084,
      "எதரககட": 4085,
      "word": 4086,
      "அனபன": 4087,
      "antஆ": 4088,
      "மணகக": 4089,
      "anced": 4090,
      "சககள": 4091,
      "இடதத": 4092,
      "ஆகறத": 4093,
      "கடவளகக": 4094,
      "south": 4095,
      "கவனககணம": 4096,
      "phys": 4097,
      "ousஆ": 4098,
      "ousness": 4099,
      "ஏறற": 4100,
      "கடமய": 4101,
      "நடககமன": 4102,
      "நடககதனன": 4103,
      "fulஆ": 4104,
      "dismiss": 4105,
      "125": 4106,
      "collect": 4107,
      "need": 4108,
      "general": 4109,
      "தறக": 4110,
      "site": 4111,
      "occas": 4112,
      "producer": 4113,
      "அளவல": 4114,
      "verse": 4115,
      "பயனபடதத": 4116,
      "familyல": 4117,
      "ological": 4118,
      "valu": 4119,
      "cancel": 4120,
      "பணணடவஙக": 4121,
      "நனசசப": 4122,
      "economy": 4123,
      "Maruti": 4124,
      "monitor": 4125,
      "Super": 4126,
      "Book": 4127,
      "Cooperative": 4128,
      "வணஙக": 4129,
      "rench": 4130,
      "guid": 4131,
      "இழபப": 4132,
      "schemeல": 4133,
      "Management": 4134,
      "பறமதல": 4135,
      "drive": 4136,
      "Force": 4137,
      "மறததடடஙக": 4138,
      "மறததடடர": 4139,
      "mortem": 4140,
      "letter": 4141,
      "கமமயன": 4142,
      "deliver": 4143,
      "puty": 4144,
      "சறபப": 4145,
      "கவனசசகக": 4146,
      "society": 4147,
      "தளவ": 4148,
      "terrorist": 4149,
      "cityல": 4150,
      "garh": 4151,
      "Allah": 4152,
      "European": 4153,
      "youth": 4154,
      "tourism": 4155,
      "magaz": 4156,
      "மளகய": 4157,
      "feeling": 4158,
      "broth": 4159,
      "individual": 4160,
      "measures": 4161,
      "Electric": 4162,
      "வஙககக": 4163,
      "Industrial": 4164,
      "Shiv": 4165,
      "Civil": 4166,
      "Metro": 4167,
      "movie": 4168,
      "introduce": 4169,
      "credit": 4170,
      "Family": 4171,
      "ecutive": 4172,
      "origin": 4173,
      "120": 4174,
      "39": 4175,
      "3ல": 4176,
      "Aug": 4177,
      "Ber": 4178,
      "Ban": 4179,
      "Brit": 4180,
      "Cov": 4181,
      "City": 4182,
      "Def": 4183,
      "ED": 4184,
      "Ed": 4185,
      "El": 4186,
      "Farm": 4187,
      "Gra": 4188,
      "IR": 4189,
      "Jew": 4190,
      "Kal": 4191,
      "Kann": 4192,
      "Ms": 4193,
      "Mic": 4194,
      "Nm": 4195,
      "Nath": 4196,
      "Ob": 4197,
      "PO": 4198,
      "Pers": 4199,
      "Reli": 4200,
      "Sum": 4201,
      "TM": 4202,
      "TT": 4203,
      "Val": 4204,
      "bil": 4205,
      "bri": 4206,
      "bed": 4207,
      "big": 4208,
      "bap": 4209,
      "beh": 4210,
      "cast": 4211,
      "cyல": 4212,
      "cesஐ": 4213,
      "cultural": 4214,
      "dict": 4215,
      "drug": 4216,
      "docu": 4217,
      "fit": 4218,
      "fam": 4219,
      "four": 4220,
      "ga": 4221,
      "ging": 4222,
      "hai": 4223,
      "iல": 4224,
      "ition": 4225,
      "iration": 4226,
      "job": 4227,
      "mp": 4228,
      "mut": 4229,
      "nit": 4230,
      "nel": 4231,
      "nut": 4232,
      "ock": 4233,
      "pat": 4234,
      "ping": 4235,
      "pack": 4236,
      "pair": 4237,
      "sen": 4238,
      "sac": 4239,
      "sனல": 4240,
      "sug": 4241,
      "table": 4242,
      "uter": 4243,
      "vent": 4244,
      "west": 4245,
      "zil": 4246,
      "ஃபஸ": 4247,
      "அணண": 4248,
      "ஆயர": 4249,
      "ஆயரம": 4250,
      "இஞச": 4251,
      "உஙகளல": 4252,
      "உயரம": 4253,
      "எர": 4254,
      "ஒழ": 4255,
      "ஒதத": 4256,
      "ஒதகக": 4257,
      "கபட": 4258,
      "கபதத": 4259,
      "கரககட": 4260,
      "ஙககள": 4261,
      "சப": 4262,
      "சடடம": 4263,
      "டன": 4264,
      "டவட": 4265,
      "தஙகள": 4266,
      "தககம": 4267,
      "நறம": 4268,
      "நகரம": 4269,
      "பவம": 4270,
      "மஸ": 4271,
      "மகள": 4272,
      "யரநத": 4273,
      "ரடட": 4274,
      "ரசத": 4275,
      "றறம": 4276,
      "லவ": 4277,
      "வஜ": 4278,
      "வசல": 4279,
      "ஸடர": 4280,
      "erஅ": 4281,
      "பபபம": 4282,
      "tist": 4283,
      "tire": 4284,
      "tiesல": 4285,
      "esலயம": 4286,
      "independence": 4287,
      "பணணமன": 4288,
      "பணணடசச": 4289,
      "பணணவஙகள": 4290,
      "சசட": 4291,
      "ority": 4292,
      "stor": 4293,
      "stag": 4294,
      "review": 4295,
      "தரபத": 4296,
      "தரதல": 4297,
      "பரடடம": 4298,
      "round": 4299,
      "secretary": 4300,
      "வரகளல": 4301,
      "வரபபற": 4302,
      "இதயடதத": 4303,
      "மனதரகள": 4304,
      "chap": 4305,
      "ationஆ": 4306,
      "anda": 4307,
      "ander": 4308,
      "நனககறம": 4309,
      "deg": 4310,
      "rific": 4311,
      "கடடணம": 4312,
      "பயல": 4313,
      "பயணம": 4314,
      "வளயல": 4315,
      "பததஙகள": 4316,
      "cir": 4317,
      "civil": 4318,
      "கரன": 4319,
      "கரநடக": 4320,
      "construction": 4321,
      "Inter": 4322,
      "Information": 4323,
      "Infrastructure": 4324,
      "ederation": 4325,
      "மககயதத": 4326,
      "தலஙக": 4327,
      "ityஐ": 4328,
      "umல": 4329,
      "கறர": 4330,
      "competition": 4331,
      "comfort": 4332,
      "சயயல": 4333,
      "emon": 4334,
      "cot": 4335,
      "coup": 4336,
      "வசசககடட": 4337,
      "வறன": 4338,
      "மததடடஙக": 4339,
      "extra": 4340,
      "exercise": 4341,
      "fication": 4342,
      "Child": 4343,
      "endment": 4344,
      "used": 4345,
      "feet": 4346,
      "range": 4347,
      "அவஙகளககத": 4348,
      "பணறவஙக": 4349,
      "எதவத": 4350,
      "worth": 4351,
      "அபபடனன": 4352,
      "கனமழ": 4353,
      "2012": 4354,
      "Ministers": 4355,
      "நடடட": 4356,
      "lywood": 4357,
      "அவரககத": 4358,
      "phet": 4359,
      "எழபப": 4360,
      "involve": 4361,
      "awar": 4362,
      "commend": 4363,
      "ககபபடடரகக": 4364,
      "வழககயட": 4365,
      "ஜயசசரகக": 4366,
      "Report": 4367,
      "நடககறஙக": 4368,
      "BJPயட": 4369,
      "அமசச": 4370,
      "கணவர": 4371,
      "வளயணட": 4372,
      "Jehovahகக": 4373,
      "ustain": 4374,
      "பசசவரதத": 4375,
      "ஆரமபசசத": 4376,
      "அறவகக": 4377,
      "ministry": 4378,
      "hara": 4379,
      "country": 4380,
      "powerம": 4381,
      "Stateல": 4382,
      "Prabh": 4383,
      "transport": 4384,
      "captain": 4385,
      "தவயலல": 4386,
      "Work": 4387,
      "double": 4388,
      "ஒரததஙக": 4389,
      "brew": 4390,
      "பரடகள": 4391,
      "மடடங": 4392,
      "partyயட": 4393,
      "black": 4394,
      "schoolல": 4395,
      "இடததலய": 4396,
      "April": 4397,
      "tempt": 4398,
      "League": 4399,
      "ators": 4400,
      "Christians": 4401,
      "situationல": 4402,
      "கறஸதவட": 4403,
      "herit": 4404,
      "design": 4405,
      "functionல": 4406,
      "respond": 4407,
      "cipal": 4408,
      "Highway": 4409,
      "transfer": 4410,
      "joint": 4411,
      "bene": 4412,
      "உணமயளள": 4413,
      "company": 4414,
      "teachers": 4415,
      "Employ": 4416,
      "இயககய": 4417,
      "dependent": 4418,
      "advice": 4419,
      "கணடபடசசரககஙக": 4420,
      "delay": 4421,
      "passeng": 4422,
      "connection": 4423,
      "அனமதகக": 4424,
      "இடயலன": 4425,
      "labour": 4426,
      "வளரதத": 4427,
      "basic": 4428,
      "suit": 4429,
      "atives": 4430,
      "organiz": 4431,
      "Hyder": 4432,
      "CCTV": 4433,
      "bhp": 4434,
      "articleல": 4435,
      "Parliamentல": 4436,
      "link": 4437,
      "அலவல": 4438,
      "areasல": 4439,
      "Luck": 4440,
      "Russia": 4441,
      "ஆசசரய": 4442,
      "Lanka": 4443,
      "possible": 4444,
      "scientific": 4445,
      "troop": 4446,
      "சழநல": 4447,
      "சதரணம": 4448,
      "unicip": 4449,
      "journal": 4450,
      "animal": 4451,
      "Legislative": 4452,
      "tweet": 4453,
      "avoid": 4454,
      "Memorial": 4455,
      "especially": 4456,
      "கழபபடஞச": 4457,
      "Affairs": 4458,
      "Japan": 4459,
      "Kashmir": 4460,
      "female": 4461,
      "separate": 4462,
      "promise": 4463,
      "August": 4464,
      "42": 4465,
      "54": 4466,
      "55": 4467,
      "76": 4468,
      "Ah": 4469,
      "Ali": 4470,
      "Amb": 4471,
      "Bu": 4472,
      "Bar": 4473,
      "Bas": 4474,
      "Cath": 4475,
      "Det": 4476,
      "Donal": 4477,
      "ES": 4478,
      "Fl": 4479,
      "Face": 4480,
      "French": 4481,
      "Gov": 4482,
      "Hol": 4483,
      "Home": 4484,
      "Jud": 4485,
      "Job": 4486,
      "Kore": 4487,
      "Line": 4488,
      "Mission": 4489,
      "NC": 4490,
      "PS": 4491,
      "Port": 4492,
      "Ref": 4493,
      "Ravi": 4494,
      "Ti": 4495,
      "Tor": 4496,
      "Tur": 4497,
      "Tru": 4498,
      "Tax": 4499,
      "Ur": 4500,
      "Vill": 4501,
      "Vardhan": 4502,
      "Water": 4503,
      "aur": 4504,
      "aud": 4505,
      "br": 4506,
      "bs": 4507,
      "bel": 4508,
      "bet": 4509,
      "bot": 4510,
      "border": 4511,
      "brid": 4512,
      "brand": 4513,
      "cc": 4514,
      "cro": 4515,
      "ding": 4516,
      "daily": 4517,
      "eஐ": 4518,
      "fal": 4519,
      "hya": 4520,
      "io": 4521,
      "lov": 4522,
      "lap": 4523,
      "lakh": 4524,
      "mat": 4525,
      "nan": 4526,
      "night": 4527,
      "pr": 4528,
      "path": 4529,
      "pact": 4530,
      "sam": 4531,
      "satis": 4532,
      "safety": 4533,
      "tr": 4534,
      "ww": 4535,
      "warm": 4536,
      "well": 4537,
      "women": 4538,
      "அமகக": 4539,
      "ஆகக": 4540,
      "ஏய": 4541,
      "ஏமதத": 4542,
      "ஒணண": 4543,
      "கப": 4544,
      "கபபட": 4545,
      "ஜமம": 4546,
      "ஞசல": 4547,
      "பஜ": 4548,
      "பரககம": 4549,
      "மணண": 4550,
      "யளள": 4551,
      "ரஸ": 4552,
      "லடடர": 4553,
      "வயம": 4554,
      "வரநத": 4555,
      "வதன": 4556,
      "ஸகலல": 4557,
      "erகக": 4558,
      "eries": 4559,
      "பபறம": 4560,
      "til": 4561,
      "anti": 4562,
      "இரககறதகக": 4563,
      "inate": 4564,
      "income": 4565,
      "orஆ": 4566,
      "ரமல": 4567,
      "sty": 4568,
      "stra": 4569,
      "strate": 4570,
      "studi": 4571,
      "statesல": 4572,
      "rem": 4573,
      "reach": 4574,
      "reform": 4575,
      "retire": 4576,
      "recommend": 4577,
      "கடசல": 4578,
      "கடதல": 4579,
      "entsகக": 4580,
      "icesஐ": 4581,
      "icide": 4582,
      "iter": 4583,
      "ites": 4584,
      "தரநல": 4585,
      "தரவசசரககஙக": 4586,
      "பரவல": 4587,
      "இநதக": 4588,
      "sequ": 4589,
      "sets": 4590,
      "வரக": 4591,
      "வரர": 4592,
      "வரவஙக": 4593,
      "வரகளகக": 4594,
      "diag": 4595,
      "chem": 4596,
      "illegal": 4597,
      "uresல": 4598,
      "மடஙக": 4599,
      "நனசசன": 4600,
      "unal": 4601,
      "unication": 4602,
      "university": 4603,
      "dead": 4604,
      "நமளம": 4605,
      "சமளகக": 4606,
      "ada": 4607,
      "ady": 4608,
      "adav": 4609,
      "வலயம": 4610,
      "வலயல": 4611,
      "assembly": 4612,
      "பதகக": 4613,
      "resign": 4614,
      "meet": 4615,
      "சனனல": 4616,
      "எனறன": 4617,
      "நறவறற": 4618,
      "கரநட": 4619,
      "conference": 4620,
      "ird": 4621,
      "கலர": 4622,
      "வநதசச": 4623,
      "space": 4624,
      "appl": 4625,
      "option": 4626,
      "தலய": 4627,
      "ables": 4628,
      "ayan": 4629,
      "கறநத": 4630,
      "வதகள": 4631,
      "comb": 4632,
      "comment": 4633,
      "சயயத": 4634,
      "யரட": 4635,
      "வககள": 4636,
      "வனர": 4637,
      "ரணடம": 4638,
      "எடததர": 4639,
      "ples": 4640,
      "அவரகளகடட": 4641,
      "வசசடட": 4642,
      "படடல": 4643,
      "ford": 4644,
      "வடடர": 4645,
      "explo": 4646,
      "Chand": 4647,
      "heart": 4648,
      "perman": 4649,
      "permission": 4650,
      "ageஐ": 4651,
      "udd": 4652,
      "quir": 4653,
      "liz": 4654,
      "track": 4655,
      "சநதசச": 4656,
      "rank": 4657,
      "இபபதன": 4658,
      "பணறததன": 4659,
      "தவபபடம": 4660,
      "side": 4661,
      "பசன": 4662,
      "manual": 4663,
      "நலதத": 4664,
      "ரககரததர": 4665,
      "Statesல": 4666,
      "பகதரகள": 4667,
      "தஙகய": 4668,
      "Deputy": 4669,
      "பனத": 4670,
      "lyஆ": 4671,
      "சசரசச": 4672,
      "centur": 4673,
      "ஆகணமன": 4674,
      "அரசயல": 4675,
      "formal": 4676,
      "formul": 4677,
      "எழதத": 4678,
      "mbol": 4679,
      "கழநதகளம": 4680,
      "governmentல": 4681,
      "creen": 4682,
      "climate": 4683,
      "படசசடட": 4684,
      "BJPகக": 4685,
      "caseஐ": 4686,
      "overse": 4687,
      "officers": 4688,
      "officeல": 4689,
      "Produ": 4690,
      "cycle": 4691,
      "2009": 4692,
      "கவலபபட": 4693,
      "evidence": 4694,
      "estival": 4695,
      "உஙகளடய": 4696,
      "சபபடறத": 4697,
      "USல": 4698,
      "weap": 4699,
      "week": 4700,
      "தறகக": 4701,
      "அதகபட": 4702,
      "Arch": 4703,
      "கரமததல": 4704,
      "Sector": 4705,
      "cribe": 4706,
      "கததடட": 4707,
      "families": 4708,
      "symbol": 4709,
      "surface": 4710,
      "நமககத": 4711,
      "பணணடலம": 4712,
      "நனசசஙக": 4713,
      "தரமபவம": 4714,
      "teams": 4715,
      "domestic": 4716,
      "பரசசனயம": 4717,
      "எடததககடட": 4718,
      "electionsல": 4719,
      "Gods": 4720,
      "Hebrew": 4721,
      "course": 4722,
      "Executive": 4723,
      "ஒரததரககரததர": 4724,
      "Administ": 4725,
      "purpose": 4726,
      "இடததலயம": 4727,
      "கததககடட": 4728,
      "ronic": 4729,
      "settle": 4730,
      "schemeஐ": 4731,
      "அலலஹவட": 4732,
      "நமமளட": 4733,
      "countri": 4734,
      "ஜனத": 4735,
      "வழநதடசச": 4736,
      "அமசசரவ": 4737,
      "incidentஅ": 4738,
      "Forest": 4739,
      "ised": 4740,
      "201920": 4741,
      "Telang": 4742,
      "வரமபத": 4743,
      "accused": 4744,
      "Harsh": 4745,
      "two": 4746,
      "2020ல": 4747,
      "policies": 4748,
      "leadership": 4749,
      "debate": 4750,
      "administrative": 4751,
      "ஏறபடடரகக": 4752,
      "Technical": 4753,
      "Johnson": 4754,
      "trial": 4755,
      "you": 4756,
      "complex": 4757,
      "responsi": 4758,
      "Times": 4759,
      "Timoth": 4760,
      "கறறமசடட": 4761,
      "normal": 4762,
      "require": 4763,
      "display": 4764,
      "different": 4765,
      "பறததவரககம": 4766,
      "micro": 4767,
      "வரவறப": 4768,
      "alliance": 4769,
      "Region": 4770,
      "Prince": 4771,
      "Group": 4772,
      "heaven": 4773,
      "கறறவளகள": 4774,
      "கஷமர": 4775,
      "righte": 4776,
      "payment": 4777,
      "challeng": 4778,
      "Muslim": 4779,
      "Malayalam": 4780,
      "Bollywood": 4781,
      "palm": 4782,
      "citizens": 4783,
      "negative": 4784,
      "inspiration": 4785,
      "influence": 4786,
      "status": 4787,
      "garden": 4788,
      "privilege": 4789,
      "torqueம": 4790,
      "First": 4791,
      "include": 4792,
      "formance": 4793,
      "occasionல": 4794,
      "benefici": 4795,
      "Hyderabad": 4796,
      "Donald": 4797,
      "Facebook": 4798,
      "எனறனறம": 4799,
      "58": 4800,
      "700": 4801,
      "Az": 4802,
      "BI": 4803,
      "Bill": 4804,
      "Cr": 4805,
      "Cy": 4806,
      "DA": 4807,
      "Des": 4808,
      "Dani": 4809,
      "Fe": 4810,
      "Fo": 4811,
      "Govern": 4812,
      "Gang": 4813,
      "Hor": 4814,
      "Hom": 4815,
      "Hall": 4816,
      "Jaw": 4817,
      "Lt": 4818,
      "Lab": 4819,
      "Min": 4820,
      "Main": 4821,
      "Nag": 4822,
      "OD": 4823,
      "Oly": 4824,
      "PR": 4825,
      "Pal": 4826,
      "Photo": 4827,
      "Ric": 4828,
      "Rate": 4829,
      "Sund": 4830,
      "UT": 4831,
      "Ven": 4832,
      "Yadav": 4833,
      "aனன": 4834,
      "aவம": 4835,
      "ball": 4836,
      "bail": 4837,
      "bear": 4838,
      "broad": 4839,
      "ctivity": 4840,
      "crop": 4841,
      "dress": 4842,
      "fine": 4843,
      "fill": 4844,
      "factor": 4845,
      "fellow": 4846,
      "gap": 4847,
      "girl": 4848,
      "hon": 4849,
      "hab": 4850,
      "hard": 4851,
      "harm": 4852,
      "justice": 4853,
      "lic": 4854,
      "las": 4855,
      "mm": 4856,
      "max": 4857,
      "nes": 4858,
      "nation": 4859,
      "oci": 4860,
      "pion": 4861,
      "rall": 4862,
      "sw": 4863,
      "sar": 4864,
      "tol": 4865,
      "tern": 4866,
      "tai": 4867,
      "ஆசய": 4868,
      "ஆஃபஸ": 4869,
      "இதன": 4870,
      "உன": 4871,
      "உயரநத": 4872,
      "எண": 4873,
      "எரசச": 4874,
      "எசசரகக": 4875,
      "எஙககடட": 4876,
      "ஏதத": 4877,
      "ஐக": 4878,
      "கவம": 4879,
      "கதல": 4880,
      "சரககர": 4881,
      "ஞபகம": 4882,
      "ஞசரசச": 4883,
      "னலம": 4884,
      "பஷ": 4885,
      "பசனன": 4886,
      "பசமபத": 4887,
      "மணட": 4888,
      "ரச": 4889,
      "ரதய": 4890,
      "லர": 4891,
      "வஸ": 4892,
      "வனன": 4893,
      "வவத": 4894,
      "வகன": 4895,
      "வசவ": 4896,
      "ஹம": 4897,
      "ஹசன": 4898,
      "erve": 4899,
      "லலல": 4900,
      "oni": 4901,
      "anஐ": 4902,
      "anath": 4903,
      "esககம": 4904,
      "இரககதஙக": 4905,
      "inar": 4906,
      "inspe": 4907,
      "infection": 4908,
      "industry": 4909,
      "insurance": 4910,
      "ention": 4911,
      "பணணப": 4912,
      "பணணரககம": 4913,
      "பணணறன": 4914,
      "alit": 4915,
      "arth": 4916,
      "stri": 4917,
      "rect": 4918,
      "rece": 4919,
      "retail": 4920,
      "களப": 4921,
      "athi": 4922,
      "atest": 4923,
      "ரநதன": 4924,
      "ஙகளலயம": 4925,
      "ented": 4926,
      "அவரய": 4927,
      "அவரகட": 4928,
      "தரததல": 4929,
      "இநதஙக": 4930,
      "சலலறத": 4931,
      "சலலபபடட": 4932,
      "தனஷ": 4933,
      "இரநதவஙக": 4934,
      "dig": 4935,
      "diffic": 4936,
      "பபடமன": 4937,
      "படஙக": 4938,
      "இதறக": 4939,
      "மனர": 4940,
      "chair": 4941,
      "amoun": 4942,
      "ambi": 4943,
      "ely": 4944,
      "வஙகற": 4945,
      "urs": 4946,
      "ingsல": 4947,
      "நடகளட": 4948,
      "கடடள": 4949,
      "கடடபபடட": 4950,
      "இரககறவஙகள": 4951,
      "asw": 4952,
      "பயஙக": 4953,
      "பயததல": 4954,
      "பயறச": 4955,
      "வளபபட": 4956,
      "பததசல": 4957,
      "பததகதத": 4958,
      "uses": 4959,
      "met": 4960,
      "progress": 4961,
      "பலசர": 4962,
      "பலயல": 4963,
      "veget": 4964,
      "கரபபண": 4965,
      "constit": 4966,
      "Independence": 4967,
      "acy": 4968,
      "acade": 4969,
      "ஞசடட": 4970,
      "வநதவஙக": 4971,
      "வநததல": 4972,
      "யடசச": 4973,
      "ளளனர": 4974,
      "opal": 4975,
      "வழய": 4976,
      "வழபப": 4977,
      "வழயல": 4978,
      "ததககளள": 4979,
      "hibi": 4980,
      "aya": 4981,
      "ider": 4982,
      "iden": 4983,
      "கறநதத": 4984,
      "வதறகன": 4985,
      "empower": 4986,
      "பணறதனன": 4987,
      "கடககபபடம": 4988,
      "கழம": 4989,
      "தடதத": 4990,
      "terஆ": 4991,
      "பணணனத": 4992,
      "இரககமபத": 4993,
      "aking": 4994,
      "exper": 4995,
      "பககறஙக": 4996,
      "perform": 4997,
      "ured": 4998,
      "ava": 4999,
      "கககவம": 5000,
      "பலஸல": 5001,
      "பலஸகக": 5002,
      "கடததரககர": 5003,
      "feed": 5004,
      "fective": 5005,
      "ards": 5006,
      "அவஙகளம": 5007,
      "lip": 5008,
      "சநதகம": 5009,
      "அவஙகளககக": 5010,
      "அடபபட": 5011,
      "அடஙகம": 5012,
      "உஙகளககக": 5013,
      "பணறபப": 5014,
      "velation": 5015,
      "rule": 5016,
      "கனறன": 5017,
      "இரபப": 5018,
      "இரபபர": 5019,
      "undai": 5020,
      "2014": 5021,
      "வரமம": 5022,
      "tiesஐ": 5023,
      "associ": 5024,
      "centre": 5025,
      "இறநதரககஙக": 5026,
      "பரமய": 5027,
      "regul": 5028,
      "ults": 5029,
      "லடச": 5030,
      "எழநத": 5031,
      "Short": 5032,
      "Indiaகக": 5033,
      "அதககபபறம": 5034,
      "சலறஙகனன": 5035,
      "கழநதகக": 5036,
      "கழநதகளட": 5037,
      "claim": 5038,
      "commod": 5039,
      "commission": 5040,
      "உளளர": 5041,
      "உளளடட": 5042,
      "கபபறற": 5043,
      "residents": 5044,
      "tity": 5045,
      "statement": 5046,
      "statementல": 5047,
      "risk": 5048,
      "சரயலல": 5049,
      "அஙகய": 5050,
      "வளயற": 5051,
      "உலகததட": 5052,
      "studyல": 5053,
      "டடனர": 5054,
      "Congressல": 5055,
      "contest": 5056,
      "ஆரமபசசஙக": 5057,
      "கலலபபடட": 5058,
      "மடஞசதம": 5059,
      "அதகரகக": 5060,
      "Artic": 5061,
      "Argen": 5062,
      "ateral": 5063,
      "anning": 5064,
      "உரவககபபடட": 5065,
      "கரமபபற": 5066,
      "Second": 5067,
      "current": 5068,
      "policeகக": 5069,
      "Amendment": 5070,
      "inder": 5071,
      "டரவர": 5072,
      "minimum": 5073,
      "மறறஙகள": 5074,
      "பரஞசத": 5075,
      "relation": 5076,
      "capac": 5077,
      "தரமபப": 5078,
      "தணசச": 5079,
      "reports": 5080,
      "readyஆ": 5081,
      "வநதரககன": 5082,
      "ஒரததவஙகளகக": 5083,
      "districtsல": 5084,
      "month": 5085,
      "Singapore": 5086,
      "correct": 5087,
      "postmortem": 5088,
      "Acts": 5089,
      "friendship": 5090,
      "Rahman": 5091,
      "ஆசசனன": 5092,
      "களவகள": 5093,
      "bile": 5094,
      "smart": 5095,
      "App": 5096,
      "கயலகள": 5097,
      "Isaiah": 5098,
      "நயயம": 5099,
      "temper": 5100,
      "Mahindra": 5101,
      "orderஐ": 5102,
      "பனனர": 5103,
      "highlight": 5104,
      "programm": 5105,
      "innov": 5106,
      "சயலபடதத": 5107,
      "books": 5108,
      "பககமம": 5109,
      "transl": 5110,
      "transaction": 5111,
      "points": 5112,
      "limit": 5113,
      "marriage": 5114,
      "moral": 5115,
      "skin": 5116,
      "Abd": 5117,
      "craft": 5118,
      "liter": 5119,
      "debut": 5120,
      "ization": 5121,
      "employment": 5122,
      "announcement": 5123,
      "version": 5124,
      "photos": 5125,
      "generate": 5126,
      "Europeல": 5127,
      "தரநதடககபபடட": 5128,
      "இளஞர": 5129,
      "Bharati": 5130,
      "profit": 5131,
      "Goog": 5132,
      "Phil": 5133,
      "massive": 5134,
      "Hyundai": 5135,
      "clearஆ": 5136,
      "ரதயன": 5137,
      "கரளவல": 5138,
      "Eastern": 5139,
      "Sonia": 5140,
      "question": 5141,
      "authorities": 5142,
      "yearல": 5143,
      "request": 5144,
      "products": 5145,
      "Service": 5146,
      "Transport": 5147,
      "ஆசசரயம": 5148,
      "gift": 5149,
      "Rao": 5150,
      "Zealand": 5151,
      "ஃபரணட": 5152,
      "steps": 5153,
      "unique": 5154,
      "Web": 5155,
      "petrol": 5156,
      "environmental": 5157,
      "Engineer": 5158,
      "custom": 5159,
      "easyஆ": 5160,
      "vaccine": 5161,
      "இஸரலல": 5162,
      "உனனட": 5163,
      "specific": 5164,
      "வததயசமன": 5165,
      "religious": 5166,
      "Bangalore": 5167,
      "Democratic": 5168,
      "interviewல": 5169,
      "Brazil": 5170,
      "Division": 5171,
      "picture": 5172,
      "தலவயட": 5173,
      "iddle": 5174,
      "graduate": 5175,
      "Company": 5176,
      "Authority": 5177,
      "Kolk": 5178,
      "ancient": 5179,
      "reedom": 5180,
      "ஒபபதல": 5181,
      "urrection": 5182,
      "கமலஹசன": 5183,
      "identify": 5184,
      "baptism": 5185,
      "mpic": 5186,
      "sacrific": 5187,
      "கபடன": 5188,
      "storage": 5189,
      "false": 5190,
      "தரநலவல": 5191,
      "கரநடகவல": 5192,
      "amount": 5193,
      "constitu": 5194,
      "250": 5195,
      "49": 5196,
      "59": 5197,
      "64": 5198,
      "Asia": 5199,
      "Alex": 5200,
      "Bro": 5201,
      "Cricket": 5202,
      "Cred": 5203,
      "DE": 5204,
      "Do": 5205,
      "EE": 5206,
      "Econom": 5207,
      "Fore": 5208,
      "Gal": 5209,
      "HD": 5210,
      "Him": 5211,
      "IV": 5212,
      "Il": 5213,
      "Iran": 5214,
      "Kh": 5215,
      "Ki": 5216,
      "Krish": 5217,
      "Land": 5218,
      "LED": 5219,
      "ME": 5220,
      "Mag": 5221,
      "Nat": 5222,
      "Net": 5223,
      "Nep": 5224,
      "Op": 5225,
      "Pul": 5226,
      "Rul": 5227,
      "Sk": 5228,
      "Ser": 5229,
      "Sin": 5230,
      "Sand": 5231,
      "Sho": 5232,
      "Sush": 5233,
      "T20": 5234,
      "Tele": 5235,
      "UK": 5236,
      "Women": 5237,
      "audi": 5238,
      "bit": 5239,
      "bud": 5240,
      "bill": 5241,
      "bath": 5242,
      "cat": 5243,
      "cesல": 5244,
      "cinem": 5245,
      "dol": 5246,
      "drin": 5247,
      "ee": 5248,
      "ech": 5249,
      "etic": 5250,
      "fil": 5251,
      "fig": 5252,
      "fall": 5253,
      "figh": 5254,
      "fail": 5255,
      "festival": 5256,
      "gam": 5257,
      "gment": 5258,
      "gas": 5259,
      "gest": 5260,
      "green": 5261,
      "ile": 5262,
      "iaல": 5263,
      "jan": 5264,
      "kind": 5265,
      "mu": 5266,
      "mal": 5267,
      "mad": 5268,
      "mach": 5269,
      "nic": 5270,
      "nav": 5271,
      "pon": 5272,
      "pap": 5273,
      "pie": 5274,
      "ring": 5275,
      "sun": 5276,
      "session": 5277,
      "software": 5278,
      "ume": 5279,
      "va": 5280,
      "vict": 5281,
      "vitamin": 5282,
      "wise": 5283,
      "zed": 5284,
      "அகக": 5285,
      "அரம": 5286,
      "ஆஸ": 5287,
      "இறத": 5288,
      "இடய": 5289,
      "கவர": 5290,
      "கறஙக": 5291,
      "ஜத": 5292,
      "டஸட": 5293,
      "தடடம": 5294,
      "நச": 5295,
      "நஜ": 5296,
      "நகழசச": 5297,
      "னட": 5298,
      "பசல": 5299,
      "பசய": 5300,
      "மநதர": 5301,
      "யறற": 5302,
      "ரகல": 5303,
      "றபப": 5304,
      "ககரய": 5305,
      "ஙகற": 5306,
      "னனம": 5307,
      "பணமண": 5308,
      "onஐ": 5309,
      "tig": 5310,
      "esன": 5311,
      "esis": 5312,
      "இரககவஙக": 5313,
      "inc": 5314,
      "incid": 5315,
      "inationல": 5316,
      "inik": 5317,
      "eness": 5318,
      "ensive": 5319,
      "அவசயம": 5320,
      "பணணவ": 5321,
      "பணணபபடட": 5322,
      "பணணதகக": 5323,
      "பணணககலமன": 5324,
      "araj": 5325,
      "arrange": 5326,
      "சசதத": 5327,
      "oration": 5328,
      "oryல": 5329,
      "strict": 5330,
      "stock": 5331,
      "react": 5332,
      "களக": 5333,
      "கடவ": 5334,
      "அதறக": 5335,
      "itan": 5336,
      "item": 5337,
      "அவரல": 5338,
      "பரன": 5339,
      "பரவம": 5340,
      "பரததன": 5341,
      "roy": 5342,
      "சலலடடன": 5343,
      "seed": 5344,
      "section": 5345,
      "secret": 5346,
      "selection": 5347,
      "search": 5348,
      "வரஸ": 5349,
      "வரனன": 5350,
      "dim": 5351,
      "dium": 5352,
      "raham": 5353,
      "படபப": 5354,
      "படவஙக": 5355,
      "படதஙக": 5356,
      "படரல": 5357,
      "மனவய": 5358,
      "மனசகக": 5359,
      "chay": 5360,
      "olic": 5361,
      "elல": 5362,
      "மடகக": 5363,
      "thi": 5364,
      "decl": 5365,
      "ஆனவஙக": 5366,
      "cele": 5367,
      "ersஐயம": 5368,
      "எனனடய": 5369,
      "நமபர": 5370,
      "கடடல": 5371,
      "கடடககடடர": 5372,
      "ask": 5373,
      "பதககம": 5374,
      "பதவக": 5375,
      "பயநத": 5376,
      "பயரகக": 5377,
      "வளளம": 5378,
      "ovin": 5379,
      "cian": 5380,
      "proced": 5381,
      "agricultural": 5382,
      "vek": 5383,
      "கலவ": 5384,
      "தமமடய": 5385,
      "logy": 5386,
      "acres": 5387,
      "ets": 5388,
      "etary": 5389,
      "வநதடட": 5390,
      "யடம": 5391,
      "ளளன": 5392,
      "தலயம": 5393,
      "ityல": 5394,
      "வழற": 5395,
      "வழபடட": 5396,
      "மறறமம": 5397,
      "கறகள": 5398,
      "கறனர": 5399,
      "வதகக": 5400,
      "compe": 5401,
      "சயறஙக": 5402,
      "வககணம": 5403,
      "வககபபடட": 5404,
      "imag": 5405,
      "imper": 5406,
      "மலய": 5407,
      "pow": 5408,
      "வனம": 5409,
      "கடககறஙக": 5410,
      "கடககபபடட": 5411,
      "கடககணமன": 5412,
      "கடககதனன": 5413,
      "கடககபபடடத": 5414,
      "plus": 5415,
      "கதவ": 5416,
      "இநதயவ": 5417,
      "ticulture": 5418,
      "வடடத": 5419,
      "நடநததனன": 5420,
      "Chines": 5421,
      "utes": 5422,
      "யனர": 5423,
      "மதலம": 5424,
      "196": 5425,
      "ainல": 5426,
      "tradition": 5427,
      "சநதகக": 5428,
      "effici": 5429,
      "effective": 5430,
      "பணறதனல": 5431,
      "shar": 5432,
      "shop": 5433,
      "நரஙக": 5434,
      "நரபப": 5435,
      "தவபபடட": 5436,
      "size": 5437,
      "பசறத": 5438,
      "tower": 5439,
      "உணமனன": 5440,
      "ails": 5441,
      "ககலய": 5442,
      "centres": 5443,
      "வணடமன": 5444,
      "ஆகறதகக": 5445,
      "ogra": 5446,
      "sound": 5447,
      "workல": 5448,
      "phil": 5449,
      "பரககலம": 5450,
      "ankar": 5451,
      "oke": 5452,
      "command": 5453,
      "communication": 5454,
      "எஙகயம": 5455,
      "Revelation": 5456,
      "வரகளம": 5457,
      "128": 5458,
      "Moham": 5459,
      "அமபத": 5460,
      "பணணலய": 5461,
      "சரயலலஙக": 5462,
      "colleg": 5463,
      "2006": 5464,
      "உலகதத": 5465,
      "uster": 5466,
      "படககத": 5467,
      "படககவம": 5468,
      "Environment": 5469,
      "ரஜவ": 5470,
      "150": 5471,
      "அனபபசச": 5472,
      "oney": 5473,
      "அழஞச": 5474,
      "Army": 5475,
      "அளவ": 5476,
      "அளசசரகக": 5477,
      "servation": 5478,
      "distrib": 5479,
      "critical": 5480,
      "lands": 5481,
      "சடடததன": 5482,
      "shoot": 5483,
      "mium": 5484,
      "ஆகமபத": 5485,
      "ampion": 5486,
      "Rajinik": 5487,
      "type": 5488,
      "minal": 5489,
      "ceremon": 5490,
      "சடரகள": 5491,
      "நடததபபடட": 5492,
      "healthy": 5493,
      "outbreak": 5494,
      "subst": 5495,
      "personnel": 5496,
      "Adv": 5497,
      "Adity": 5498,
      "bless": 5499,
      "ஆணடல": 5500,
      "ஆணடககன": 5501,
      "schoolsல": 5502,
      "renew": 5503,
      "Naduல": 5504,
      "வசரணகக": 5505,
      "ஒனனனன": 5506,
      "கததககட": 5507,
      "treatmentகக": 5508,
      "Vivek": 5509,
      "Associ": 5510,
      "சநதஷமன": 5511,
      "frame": 5512,
      "மசமன": 5513,
      "handle": 5514,
      "attackகக": 5515,
      "பறமய": 5516,
      "Witnessesஓட": 5517,
      "banking": 5518,
      "join": 5519,
      "seatsல": 5520,
      "found": 5521,
      "runs": 5522,
      "Assam": 5523,
      "தததடடஙக": 5524,
      "2019ல": 5525,
      "மரததவமன": 5526,
      "advant": 5527,
      "கமமதன": 5528,
      "Bhag": 5529,
      "தடரப": 5530,
      "Abraham": 5531,
      "உறவ": 5532,
      "ICC": 5533,
      "consider": 5534,
      "congregationல": 5535,
      "ized": 5536,
      "பறநதநள": 5537,
      "basisல": 5538,
      "generation": 5539,
      "osop": 5540,
      "பரமபலம": 5541,
      "201718": 5542,
      "உரமகள": 5543,
      "approval": 5544,
      "201617": 5545,
      "awards": 5546,
      "faithful": 5547,
      "Salman": 5548,
      "suicide": 5549,
      "நயமசச": 5550,
      "organize": 5551,
      "Peri": 5552,
      "ஏறபடற": 5553,
      "strengthen": 5554,
      "youngst": 5555,
      "strongஆ": 5556,
      "Janata": 5557,
      "Space": 5558,
      "population": 5559,
      "மனறவத": 5560,
      "vehicle": 5561,
      "pollution": 5562,
      "fishing": 5563,
      "questions": 5564,
      "பழமயன": 5565,
      "MLA": 5566,
      "reflect": 5567,
      "கடலர": 5568,
      "disease": 5569,
      "differentஆ": 5570,
      "Christmas": 5571,
      "historyல": 5572,
      "Africa": 5573,
      "Redmi": 5574,
      "ஆசரயரகள": 5575,
      "immig": 5576,
      "people": 5577,
      "doctors": 5578,
      "source": 5579,
      "resources": 5580,
      "electricity": 5581,
      "Gujaratல": 5582,
      "Yoga": 5583,
      "continue": 5584,
      "available": 5585,
      "availableஆ": 5586,
      "variant": 5587,
      "choose": 5588,
      "201516": 5589,
      "தபபககச": 5590,
      "survey": 5591,
      "பரநதம": 5592,
      "Arab": 5593,
      "Online": 5594,
      "sidy": 5595,
      "கயமடஞசரககஙக": 5596,
      "Bengaluruல": 5597,
      "Roman": 5598,
      "ஜஸத": 5599,
      "Londonல": 5600,
      "votes": 5601,
      "appeal": 5602,
      "Chairman": 5603,
      "destroy": 5604,
      "average": 5605,
      "Backward": 5606,
      "Suz": 5607,
      "believ": 5608,
      "நகழவல": 5609,
      "physical": 5610,
      "original": 5611,
      "Covid": 5612,
      "famous": 5613,
      "ustainable": 5614,
      "Lucky": 5615,
      "Urban": 5616,
      "satisfy": 5617,
      "applic": 5618,
      "Chandra": 5619,
      "permanent": 5620,
      "quiry": 5621,
      "Administrative": 5622,
      "ஜனதபத": 5623,
      "Telangana": 5624,
      "Timothy": 5625,
      "Crore": 5626,
      "Ltd": 5627,
      "Olympic": 5628,
      "Article": 5629,
      "Credit": 5630,
      "Economic": 5631,
      "budget": 5632,
      "chayat": 5633,
      "Chinese": 5634,
      "Rajinikanth": 5635,
      "94": 5636,
      "AF": 5637,
      "AP": 5638,
      "AS": 5639,
      "Are": 5640,
      "Actor": 5641,
      "Asian": 5642,
      "BC": 5643,
      "Ben": 5644,
      "Bah": 5645,
      "Cre": 5646,
      "Cali": 5647,
      "Camp": 5648,
      "DC": 5649,
      "Dar": 5650,
      "Dig": 5651,
      "Dell": 5652,
      "DNA": 5653,
      "Fish": 5654,
      "Gan": 5655,
      "Gree": 5656,
      "Global": 5657,
      "Girl": 5658,
      "July": 5659,
      "Ko": 5660,
      "Kings": 5661,
      "Mu": 5662,
      "My": 5663,
      "Mand": 5664,
      "Mex": 5665,
      "Match": 5666,
      "Master": 5667,
      "Middle": 5668,
      "NR": 5669,
      "Neh": 5670,
      "Odi": 5671,
      "Oper": 5672,
      "Pass": 5673,
      "Pict": 5674,
      "Pension": 5675,
      "Qu": 5676,
      "Sik": 5677,
      "Safety": 5678,
      "To": 5679,
      "Ter": 5680,
      "Tata": 5681,
      "Ud": 5682,
      "cov": 5683,
      "cup": 5684,
      "core": 5685,
      "cash": 5686,
      "dr": 5687,
      "diction": 5688,
      "eனன": 5689,
      "eep": 5690,
      "flo": 5691,
      "fant": 5692,
      "fuel": 5693,
      "front": 5694,
      "freedom": 5695,
      "gg": 5696,
      "gic": 5697,
      "ged": 5698,
      "hom": 5699,
      "haல": 5700,
      "ially": 5701,
      "jri": 5702,
      "jana": 5703,
      "kal": 5704,
      "kash": 5705,
      "lal": 5706,
      "lam": 5707,
      "lesல": 5708,
      "last": 5709,
      "latest": 5710,
      "mom": 5711,
      "mig": 5712,
      "nd": 5713,
      "oor": 5714,
      "pa": 5715,
      "pm": 5716,
      "pil": 5717,
      "page": 5718,
      "patt": 5719,
      "psalm": 5720,
      "sn": 5721,
      "sent": 5722,
      "som": 5723,
      "sad": 5724,
      "sav": 5725,
      "same": 5726,
      "tension": 5727,
      "ternal": 5728,
      "uch": 5729,
      "uge": 5730,
      "wom": 5731,
      "wine": 5732,
      "wali": 5733,
      "wind": 5734,
      "zz": 5735,
      "அடட": 5736,
      "அறம": 5737,
      "ஆபததன": 5738,
      "ஆகடசச": 5739,
      "உணட": 5740,
      "எஸ": 5741,
      "ஐஸ": 5742,
      "ஒறறம": 5743,
      "ஓயவ": 5744,
      "கஙக": 5745,
      "கதர": 5746,
      "கபபடட": 5747,
      "கவரம": 5748,
      "கசசல": 5749,
      "சமன": 5750,
      "சவல": 5751,
      "சகம": 5752,
      "டசல": 5753,
      "டபஸ": 5754,
      "ணபப": 5755,
      "தணம": 5756,
      "தஞச": 5757,
      "பநத": 5758,
      "பசம": 5759,
      "மகதத": 5760,
      "மகரஷ": 5761,
      "ரபபர": 5762,
      "ரததம": 5763,
      "ஷனகக": 5764,
      "ஸல": 5765,
      "ஹஸ": 5766,
      "ககமன": 5767,
      "நதய": 5768,
      "ரககமன": 5769,
      "ததஙக": 5770,
      "ததறக": 5771,
      "erஐயம": 5772,
      "பணதத": 5773,
      "tify": 5774,
      "esஐயம": 5775,
      "ink": 5776,
      "inth": 5777,
      "independent": 5778,
      "ena": 5779,
      "enge": 5780,
      "enant": 5781,
      "அவசர": 5782,
      "பணணதனன": 5783,
      "பணணபபடத": 5784,
      "altern": 5785,
      "artist": 5786,
      "stress": 5787,
      "stration": 5788,
      "rear": 5789,
      "reet": 5790,
      "atures": 5791,
      "கடகள": 5792,
      "கடபபர": 5793,
      "enter": 5794,
      "icine": 5795,
      "icated": 5796,
      "அவரதன": 5797,
      "தரஙக": 5798,
      "பரததகக": 5799,
      "சலலம": 5800,
      "சலலயரகக": 5801,
      "சலலயரககஙக": 5802,
      "தனததன": 5803,
      "வரணமன": 5804,
      "வரகனறன": 5805,
      "dign": 5806,
      "பபடதனன": 5807,
      "rac": 5808,
      "படகள": 5809,
      "படஙகளகக": 5810,
      "படககல": 5811,
      "இதய": 5812,
      "இதவம": 5813,
      "மனம": 5814,
      "ணடல": 5815,
      "ationம": 5816,
      "illi": 5817,
      "eline": 5818,
      "வஙகயம": 5819,
      "isdom": 5820,
      "omet": 5821,
      "mental": 5822,
      "mentsஅ": 5823,
      "நனகக": 5824,
      "நனககல": 5825,
      "ung": 5826,
      "thing": 5827,
      "them": 5828,
      "things": 5829,
      "சலறதகக": 5830,
      "deல": 5831,
      "defin": 5832,
      "deploy": 5833,
      "delete": 5834,
      "ஆனத": 5835,
      "cep": 5836,
      "cean": 5837,
      "கடடனர": 5838,
      "ததலரநத": 5839,
      "இரககறவஙகளகக": 5840,
      "adh": 5841,
      "adop": 5842,
      "advis": 5843,
      "asல": 5844,
      "சரட": 5845,
      "சரஷ": 5846,
      "சரபப": 5847,
      "சரசரய": 5848,
      "யலரநத": 5849,
      "இலலதத": 5850,
      "cize": 5851,
      "memor": 5852,
      "ists": 5853,
      "agu": 5854,
      "agenci": 5855,
      "teen": 5856,
      "பலபபடதத": 5857,
      "0000": 5858,
      "constitution": 5859,
      "கலக": 5860,
      "கலமனர": 5861,
      "Industry": 5862,
      "los": 5863,
      "look": 5864,
      "accommod": 5865,
      "ஞசடசச": 5866,
      "etyல": 5867,
      "வநததனன": 5868,
      "editor": 5869,
      "spot": 5870,
      "spread": 5871,
      "appan": 5872,
      "தலயல": 5873,
      "னலயம": 5874,
      "abuse": 5875,
      "ayam": 5876,
      "கறபப": 5877,
      "வதசசரககஙக": 5878,
      "சயயம": 5879,
      "image": 5880,
      "மலகள": 5881,
      "essionல": 5882,
      "pound": 5883,
      "update": 5884,
      "emiah": 5885,
      "எடககற": 5886,
      "parliament": 5887,
      "plate": 5888,
      "code": 5889,
      "தடககறத": 5890,
      "rice": 5891,
      "வறபப": 5892,
      "கணடனம": 5893,
      "forward": 5894,
      "இநதயவம": 5895,
      "tics": 5896,
      "வடடட": 5897,
      "akti": 5898,
      "aksh": 5899,
      "Chan": 5900,
      "Chin": 5901,
      "Char": 5902,
      "ககனர": 5903,
      "performance": 5904,
      "ureஅ": 5905,
      "ureல": 5906,
      "எதரபகக": 5907,
      "பலஸகடட": 5908,
      "peak": 5909,
      "dual": 5910,
      "ports": 5911,
      "மதபபல": 5912,
      "1999": 5913,
      "fee": 5914,
      "features": 5915,
      "politi": 5916,
      "quid": 5917,
      "அடபப": 5918,
      "astro": 5919,
      "தவபபடத": 5920,
      "sககளள": 5921,
      "manage": 5922,
      "enceல": 5923,
      "கனற": 5924,
      "anceஐ": 5925,
      "partnership": 5926,
      "achal": 5927,
      "aching": 5928,
      "வரமனம": 5929,
      "Dev": 5930,
      "issu": 5931,
      "issues": 5932,
      "இரககனனம": 5933,
      "cks": 5934,
      "modi": 5935,
      "கஞசமம": 5936,
      "பரயவஙக": 5937,
      "angels": 5938,
      "soul": 5939,
      "சயயணம": 5940,
      "சயயபபடடத": 5941,
      "சயயபபடடர": 5942,
      "105": 5943,
      "108": 5944,
      "Shankar": 5945,
      "theast": 5946,
      "Indiaவ": 5947,
      "graph": 5948,
      "governmentகக": 5949,
      "governmentஓட": 5950,
      "clas": 5951,
      "click": 5952,
      "schedu": 5953,
      "commit": 5954,
      "Unit": 5955,
      "நரமல": 5956,
      "நடககறத": 5957,
      "BJPயம": 5958,
      "ights": 5959,
      "MoU": 5960,
      "early": 5961,
      "பமயல": 5962,
      "வரததயல": 5963,
      "வரததகளல": 5964,
      "speech": 5965,
      "ஆயடசசனன": 5966,
      "அரசஙகதத": 5967,
      "அரசஙகததல": 5968,
      "airport": 5969,
      "aircraft": 5970,
      "ஒரததரட": 5971,
      "leading": 5972,
      "வததடட": 5973,
      "events": 5974,
      "haar": 5975,
      "ellig": 5976,
      "சபபடஙக": 5977,
      "தணணர": 5978,
      "களமபடடஙக": 5979,
      "கலலபபடடர": 5980,
      "தறநத": 5981,
      "அனபபசசரககஙக": 5982,
      "கயழ": 5983,
      "கயலல": 5984,
      "Common": 5985,
      "flag": 5986,
      "பகதயல": 5987,
      "Arjun": 5988,
      "தரஞசதம": 5989,
      "Congressஓட": 5990,
      "ரபயகக": 5991,
      "annel": 5992,
      "உரவககபபடடத": 5993,
      "160": 5994,
      "180": 5995,
      "criti": 5996,
      "crime": 5997,
      "பளளகள": 5998,
      "பளளஙகள": 5999,
      "கததள": 6000,
      "affect": 6001,
      "landல": 6002,
      "சதநதர": 6003,
      "சடடதத": 6004,
      "directionல": 6005,
      "Alli": 6006,
      "valid": 6007,
      "யகவவன": 6008,
      "timeல": 6009,
      "டரஸ": 6010,
      "Cont": 6011,
      "Constitution": 6012,
      "certain": 6013,
      "மறறதத": 6014,
      "Royal": 6015,
      "சடன": 6016,
      "சடசகள": 6017,
      "பரஞசககடட": 6018,
      "பரசசனய": 6019,
      "எடததககஙக": 6020,
      "எடததககடடஙக": 6021,
      "healthcare": 6022,
      "operate": 6023,
      "Exam": 6024,
      "External": 6025,
      "நமபவ": 6026,
      "நமபறம": 6027,
      "clean": 6028,
      "breast": 6029,
      "சகசச": 6030,
      "virus": 6031,
      "Actல": 6032,
      "purல": 6033,
      "வணலம": 6034,
      "Politic": 6035,
      "portion": 6036,
      "porary": 6037,
      "smission": 6038,
      "இழபபட": 6039,
      "ஒனனம": 6040,
      "lave": 6041,
      "வலயலலம": 6042,
      "Note": 6043,
      "highest": 6044,
      "நமமளல": 6045,
      "Officers": 6046,
      "சநதஷதத": 6047,
      "மசததல": 6048,
      "percentage": 6049,
      "lifeல": 6050,
      "inaug": 6051,
      "உடமபல": 6052,
      "இரபபஙகனன": 6053,
      "notification": 6054,
      "informationஐ": 6055,
      "seats": 6056,
      "Sabhaல": 6057,
      "teaching": 6058,
      "50000": 6059,
      "standing": 6060,
      "நடகளககம": 6061,
      "Airport": 6062,
      "patients": 6063,
      "இயககனர": 6064,
      "Directorate": 6065,
      "2018ல": 6066,
      "farmersகக": 6067,
      "தடரபடய": 6068,
      "எழதனத": 6069,
      "matchல": 6070,
      "உறவனர": 6071,
      "சறநத": 6072,
      "directorஆ": 6073,
      "facts": 6074,
      "தரஞசககணமன": 6075,
      "Petrol": 6076,
      "sectorல": 6077,
      "save": 6078,
      "கரணஙகள": 6079,
      "investment": 6080,
      "scene": 6081,
      "கணணல": 6082,
      "headquart": 6083,
      "வணடயததன": 6084,
      "IAF": 6085,
      "ridor": 6086,
      "players": 6087,
      "Genesis": 6088,
      "background": 6089,
      "Acade": 6090,
      "Gosp": 6091,
      "நயமககபபடட": 6092,
      "organise": 6093,
      "automatic": 6094,
      "volution": 6095,
      "January": 6096,
      "confidence": 6097,
      "closeஆ": 6098,
      "discussion": 6099,
      "Imran": 6100,
      "MLAs": 6101,
      "sheep": 6102,
      "refresh": 6103,
      "diseases": 6104,
      "நறறணடல": 6105,
      "Swami": 6106,
      "ஏததககடட": 6107,
      "Hospitalல": 6108,
      "historical": 6109,
      "Navy": 6110,
      "Principal": 6111,
      "ஆசரயர": 6112,
      "கடமபஙகளகக": 6113,
      "Science": 6114,
      "White": 6115,
      "You": 6116,
      "Yogi": 6117,
      "சகதரரகள": 6118,
      "rights": 6119,
      "Railways": 6120,
      "Panchayat": 6121,
      "challenge": 6122,
      "religion": 6123,
      "rupt": 6124,
      "எலலரடய": 6125,
      "Jammu": 6126,
      "withdraw": 6127,
      "பரவயலல": 6128,
      "Aadhaar": 6129,
      "Kejri": 6130,
      "fruits": 6131,
      "silver": 6132,
      "divor": 6133,
      "emotional": 6134,
      "Twitterல": 6135,
      "Watchtower": 6136,
      "bowl": 6137,
      "prison": 6138,
      "relief": 6139,
      "Invest": 6140,
      "Kapoor": 6141,
      "Motor": 6142,
      "magazine": 6143,
      "Defence": 6144,
      "Kannada": 6145,
      "Relief": 6146,
      "Summit": 6147,
      "ஒததழபப": 6148,
      "degree": 6149,
      "மககயததவம": 6150,
      "மடடஙல": 6151,
      "heritage": 6152,
      "Employees": 6153,
      "அலவலகம": 6154,
      "Build": 6155,
      "bridge": 6156,
      "cross": 6157,
      "print": 6158,
      "diagno": 6159,
      "கறநதபட": 6160,
      "righteousness": 6161,
      "beneficiaries": 6162,
      "habit": 6163,
      "maximum": 6164,
      "rallyல": 6165,
      "academic": 6166,
      "Argentin": 6167,
      "temperature": 6168,
      "Google": 6169,
      "Kolkata": 6170,
      "Foreign": 6171,
      "incidents": 6172,
      "dimension": 6173,
      "philosop": 6174,
      "Suzuk": 6175,
      "Califor": 6176,
      "Mexic": 6177,
      "Kejriwal": 6178,
      "110": 6179,
      "51": 6180,
      "52": 6181,
      "5000": 6182,
      "66": 6183,
      "6000": 6184,
      "83": 6185,
      "87": 6186,
      "800": 6187,
      "AC": 6188,
      "Adi": 6189,
      "Bal": 6190,
      "Bor": 6191,
      "Bach": 6192,
      "BCC": 6193,
      "Cle": 6194,
      "Clim": 6195,
      "Dhan": 6196,
      "FC": 6197,
      "Federation": 6198,
      "GO": 6199,
      "Gam": 6200,
      "Great": 6201,
      "Grand": 6202,
      "Ham": 6203,
      "Hum": 6204,
      "Hary": 6205,
      "Hind": 6206,
      "It": 6207,
      "Ji": 6208,
      "Jun": 6209,
      "Jack": 6210,
      "Kur": 6211,
      "Kov": 6212,
      "Kir": 6213,
      "Lad": 6214,
      "Lim": 6215,
      "Langu": 6216,
      "Lake": 6217,
      "Lib": 6218,
      "MC": 6219,
      "Mer": 6220,
      "Mul": 6221,
      "Mod": 6222,
      "Muse": 6223,
      "Municip": 6224,
      "NH": 6225,
      "Nam": 6226,
      "Open": 6227,
      "PG": 6228,
      "Pad": 6229,
      "Phara": 6230,
      "Que": 6231,
      "RS": 6232,
      "Rel": 6233,
      "Rav": 6234,
      "Rai": 6235,
      "She": 6236,
      "Swar": 6237,
      "TI": 6238,
      "Tல": 6239,
      "Tal": 6240,
      "Town": 6241,
      "Tower": 6242,
      "UA": 6243,
      "VP": 6244,
      "Vet": 6245,
      "WD": 6246,
      "Wing": 6247,
      "Willi": 6248,
      "ao": 6249,
      "ave": 6250,
      "bad": 6251,
      "bright": 6252,
      "cru": 6253,
      "ctiv": 6254,
      "crow": 6255,
      "dat": 6256,
      "dark": 6257,
      "drop": 6258,
      "fis": 6259,
      "fest": 6260,
      "fav": 6261,
      "fast": 6262,
      "gin": 6263,
      "gain": 6264,
      "ghan": 6265,
      "grand": 6266,
      "has": 6267,
      "hair": 6268,
      "hold": 6269,
      "iri": 6270,
      "ific": 6271,
      "jav": 6272,
      "jew": 6273,
      "kes": 6274,
      "linder": 6275,
      "map": 6276,
      "mary": 6277,
      "master": 6278,
      "nom": 6279,
      "nov": 6280,
      "nath": 6281,
      "oin": 6282,
      "pul": 6283,
      "pure": 6284,
      "pain": 6285,
      "pension": 6286,
      "rho": 6287,
      "rong": 6288,
      "sor": 6289,
      "sim": 6290,
      "senti": 6291,
      "sense": 6292,
      "screen": 6293,
      "slave": 6294,
      "tom": 6295,
      "uous": 6296,
      "vs": 6297,
      "vac": 6298,
      "vind": 6299,
      "wan": 6300,
      "wat": 6301,
      "wing": 6302,
      "who": 6303,
      "ware": 6304,
      "wide": 6305,
      "witness": 6306,
      "winn": 6307,
      "waste": 6308,
      "yனன": 6309,
      "zation": 6310,
      "ஃபட": 6311,
      "ஃபன": 6312,
      "அஜய": 6313,
      "ஆகடட": 6314,
      "ஆதரவ": 6315,
      "இஸ": 6316,
      "இதத": 6317,
      "இயல": 6318,
      "இசயம": 6319,
      "உகக": 6320,
      "ஊடட": 6321,
      "எக": 6322,
      "எல": 6323,
      "ஏசய": 6324,
      "ஙககட": 6325,
      "சலம": 6326,
      "சஙகர": 6327,
      "சபயல": 6328,
      "ஜனன": 6329,
      "ஞன": 6330,
      "டகட": 6331,
      "ணஙகள": 6332,
      "தலல": 6333,
      "தறம": 6334,
      "தயல": 6335,
      "தவற": 6336,
      "தறன": 6337,
      "பவ": 6338,
      "பதர": 6339,
      "பமல": 6340,
      "பவன": 6341,
      "பகன": 6342,
      "மநலம": 6343,
      "யய": 6344,
      "யலல": 6345,
      "வபப": 6346,
      "வகபப": 6347,
      "வசத": 6348,
      "ஷடட": 6349,
      "ஸதல": 6350,
      "ககணமன": 6351,
      "ககணககன": 6352,
      "ரககன": 6353,
      "தததகக": 6354,
      "erம": 6355,
      "erjee": 6356,
      "onn": 6357,
      "onom": 6358,
      "பபறத": 6359,
      "ane": 6360,
      "anch": 6361,
      "ancial": 6362,
      "இரககடடம": 6363,
      "infl": 6364,
      "eno": 6365,
      "அவரம": 6366,
      "பணணபப": 6367,
      "பணணததன": 6368,
      "பணணபபடம": 6369,
      "alle": 6370,
      "allow": 6371,
      "alty": 6372,
      "சசச": 6373,
      "ori": 6374,
      "reaction": 6375,
      "return": 6376,
      "revenue": 6377,
      "களன": 6378,
      "களவய": 6379,
      "கடயல": 6380,
      "கடபபஙக": 6381,
      "ஙகளக": 6382,
      "ஙகளககம": 6383,
      "அதரசச": 6384,
      "icy": 6385,
      "தரட": 6386,
      "தரடட": 6387,
      "தரலய": 6388,
      "தரவண": 6389,
      "தரடச": 6390,
      "பரக": 6391,
      "பரஷ": 6392,
      "பரயல": 6393,
      "rot": 6394,
      "roleல": 6395,
      "சலலறஙக": 6396,
      "சலலதஙக": 6397,
      "சலலலய": 6398,
      "தனத": 6399,
      "semi": 6400,
      "வரபபம": 6401,
      "இரநதரககர": 6402,
      "dipl": 6403,
      "division": 6404,
      "பபடமம": 6405,
      "றதயம": 6406,
      "rad": 6407,
      "raw": 6408,
      "ரமபத": 6409,
      "படற": 6410,
      "மனவரகள": 6411,
      "ationனன": 6412,
      "ili": 6413,
      "ilk": 6414,
      "olf": 6415,
      "elஐ": 6416,
      "elim": 6417,
      "வஙகல": 6418,
      "urate": 6419,
      "urder": 6420,
      "நடவல": 6421,
      "நடகளம": 6422,
      "மடசச": 6423,
      "மடவகக": 6424,
      "union": 6425,
      "சலத": 6426,
      "சலபம": 6427,
      "dep": 6428,
      "depress": 6429,
      "demon": 6430,
      "detain": 6431,
      "ஆனலம": 6432,
      "ceல": 6433,
      "ceed": 6434,
      "ception": 6435,
      "நமபற": 6436,
      "கடடககடடஙக": 6437,
      "சமதனம": 6438,
      "ador": 6439,
      "பயத": 6440,
      "சரப": 6441,
      "டடஙகனன": 6442,
      "respect": 6443,
      "resurrection": 6444,
      "வளரநத": 6445,
      "metal": 6446,
      "சனனன": 6447,
      "சனனபப": 6448,
      "கமரன": 6449,
      "agg": 6450,
      "agh": 6451,
      "ago": 6452,
      "agesல": 6453,
      "எனகடட": 6454,
      "வடம": 6455,
      "வடதஙக": 6456,
      "ஙகளககன": 6457,
      "teor": 6458,
      "teas": 6459,
      "veter": 6460,
      "கரணமன": 6461,
      "condu": 6462,
      "contract": 6463,
      "convention": 6464,
      "கலகக": 6465,
      "கலதத": 6466,
      "கலகள": 6467,
      "கலயல": 6468,
      "கலசசர": 6469,
      "Instag": 6470,
      "loc": 6471,
      "lot": 6472,
      "அபபஸதல": 6473,
      "வநதம": 6474,
      "வநதபப": 6475,
      "வநதடடர": 6476,
      "edஆ": 6477,
      "sper": 6478,
      "spok": 6479,
      "apt": 6480,
      "தலக": 6481,
      "ityகக": 6482,
      "abilities": 6483,
      "ernetல": 6484,
      "ததககக": 6485,
      "him": 6486,
      "வதக": 6487,
      "யரல": 6488,
      "யரசசம": 6489,
      "வககல": 6490,
      "நலலவ": 6491,
      "poon": 6492,
      "ortality": 6493,
      "emergency": 6494,
      "கடககமன": 6495,
      "எடபபஙக": 6496,
      "ahar": 6497,
      "அவரகளதன": 6498,
      "அவரகளககம": 6499,
      "வசசரநத": 6500,
      "வசசடசச": 6501,
      "riction": 6502,
      "tery": 6503,
      "கணடர": 6504,
      "கணடனர": 6505,
      "host": 6506,
      "hous": 6507,
      "hotel": 6508,
      "கதகக": 6509,
      "மனனற": 6510,
      "மனனபப": 6511,
      "இநதயவன": 6512,
      "ticஆ": 6513,
      "மததர": 6514,
      "வடடலய": 6515,
      "வடடககளள": 6516,
      "exc": 6517,
      "பககலம": 6518,
      "பககவரதத": 6519,
      "ureஐ": 6520,
      "கககறஙக": 6521,
      "எதரகள": 6522,
      "மழகள": 6523,
      "அரகல": 6524,
      "ube": 6525,
      "libr": 6526,
      "liquid": 6527,
      "traditional": 6528,
      "rants": 6529,
      "அடஙக": 6530,
      "ககறவஙக": 6531,
      "veli": 6532,
      "veloc": 6533,
      "நரததகக": 6534,
      "நரபசச": 6535,
      "தவபபடற": 6536,
      "பசறஙக": 6537,
      "aryல": 6538,
      "நலததல": 6539,
      "சமபவஙகள": 6540,
      "anceஆ": 6541,
      "anceகக": 6542,
      "Stal": 6543,
      "Stand": 6544,
      "partyல": 6545,
      "partner": 6546,
      "2010": 6547,
      "சககணககன": 6548,
      "மரன": 6549,
      "assign": 6550,
      "பனர": 6551,
      "பனபறற": 6552,
      "motor": 6553,
      "mobile": 6554,
      "seriesல": 6555,
      "அவரககப": 6556,
      "ஆரமபகல": 6557,
      "பரமல": 6558,
      "works": 6559,
      "workஅ": 6560,
      "workஐ": 6561,
      "லடசககணககன": 6562,
      "சயயறத": 6563,
      "former": 6564,
      "கவனசசடட": 6565,
      "orders": 6566,
      "arts": 6567,
      "கழநதய": 6568,
      "தபபம": 6569,
      "clin": 6570,
      "clone": 6571,
      "committe": 6572,
      "commercial": 6573,
      "மதலட": 6574,
      "Univers": 6575,
      "படசசரகக": 6576,
      "படசசரநதத": 6577,
      "actress": 6578,
      "Revenue": 6579,
      "நடககதஙக": 6580,
      "fix": 6581,
      "five": 6582,
      "பணணககணம": 6583,
      "பணணககடடஙக": 6584,
      "வரததய": 6585,
      "எபபதம": 6586,
      "பததனத": 6587,
      "கலநதககடட": 6588,
      "ationsஓட": 6589,
      "overall": 6590,
      "Prof": 6591,
      "அரசஙகததன": 6592,
      "cylinder": 6593,
      "Bihar": 6594,
      "collab": 6595,
      "2003": 6596,
      "Ang": 6597,
      "Ann": 6598,
      "Anush": 6599,
      "haz": 6600,
      "have": 6601,
      "நடசசடட": 6602,
      "ரஜனம": 6603,
      "உயரட": 6604,
      "உயரவ": 6605,
      "content": 6606,
      "ஆரமபசசடடன": 6607,
      "எவவளவனன": 6608,
      "genetic": 6609,
      "wealth": 6610,
      "கலலபபடடஙக": 6611,
      "தறகடசச": 6612,
      "prepar": 6613,
      "preced": 6614,
      "predict": 6615,
      "Commercial": 6616,
      "interpre": 6617,
      "அதகரககம": 6618,
      "flesh": 6619,
      "அழசச": 6620,
      "arian": 6621,
      "Arun": 6622,
      "பழஙகள": 6623,
      "பழஙகல": 6624,
      "உரவககற": 6625,
      "100ககம": 6626,
      "கலயண": 6627,
      "vert": 6628,
      "cription": 6629,
      "சதநதரம": 6630,
      "ismஐ": 6631,
      "Amit": 6632,
      "urai": 6633,
      "ஆடசகக": 6634,
      "counsel": 6635,
      "direction": 6636,
      "உதவயட": 6637,
      "அதகரசச": 6638,
      "powerful": 6639,
      "politics": 6640,
      "politicsல": 6641,
      "Rajya": 6642,
      "பணணடனம": 6643,
      "2500": 6644,
      "Prakash": 6645,
      "Prasad": 6646,
      "mining": 6647,
      "mineral": 6648,
      "கஷடதத": 6649,
      "கஷடஙகள": 6650,
      "Conference": 6651,
      "certificate": 6652,
      "rated": 6653,
      "இநதயவலய": 6654,
      "Roy": 6655,
      "Rohit": 6656,
      "economyகக": 6657,
      "solid": 6658,
      "calcul": 6659,
      "operations": 6660,
      "problemஆ": 6661,
      "problemsஅ": 6662,
      "followers": 6663,
      "medal": 6664,
      "member": 6665,
      "இனனரததர": 6666,
      "பஸல": 6667,
      "மடவகள": 6668,
      "வவசயகளட": 6669,
      "Corinth": 6670,
      "talk": 6671,
      "talent": 6672,
      "Schedu": 6673,
      "relev": 6674,
      "corpor": 6675,
      "idea": 6676,
      "மடடனன": 6677,
      "கரணமனன": 6678,
      "Adam": 6679,
      "Coast": 6680,
      "pendit": 6681,
      "ஆணடவர": 6682,
      "ஆயடடர": 6683,
      "களவகளகக": 6684,
      "projects": 6685,
      "Policy": 6686,
      "Respon": 6687,
      "guest": 6688,
      "உதரணம": 6689,
      "ககறஙகனன": 6690,
      "temporary": 6691,
      "busyஆ": 6692,
      "meetingsகக": 6693,
      "examination": 6694,
      "courtகக": 6695,
      "techni": 6696,
      "technolog": 6697,
      "Colleg": 6698,
      "Noah": 6699,
      "பரடடஷ": 6700,
      "voice": 6701,
      "funஆ": 6702,
      "மனஷஙகளகக": 6703,
      "lockdown": 6704,
      "attackல": 6705,
      "languages": 6706,
      "Americaல": 6707,
      "kingdom": 6708,
      "பதககபபடடரகக": 6709,
      "teacher": 6710,
      "Agree": 6711,
      "Emergency": 6712,
      "இயகக": 6713,
      "கணடபடசசஙக": 6714,
      "ஆரடர": 6715,
      "complain": 6716,
      "201819": 6717,
      "MPs": 6718,
      "adise": 6719,
      "farmers": 6720,
      "ஃபள": 6721,
      "உணரவ": 6722,
      "உதவத": 6723,
      "உறபபன": 6724,
      "agreement": 6725,
      "நறறககணககன": 6726,
      "Jesusஓட": 6727,
      "download": 6728,
      "கனனய": 6729,
      "பரதச": 6730,
      "பயடவஙக": 6731,
      "protein": 6732,
      "protection": 6733,
      "consum": 6734,
      "societyல": 6735,
      "21ல": 6736,
      "Lokesh": 6737,
      "iveஆ": 6738,
      "trust": 6739,
      "truth": 6740,
      "யசசசடட": 6741,
      "Surve": 6742,
      "மநலததல": 6743,
      "fieldல": 6744,
      "score": 6745,
      "characterஆ": 6746,
      "Pradeshல": 6747,
      "Australian": 6748,
      "Financial": 6749,
      "கரததக": 6750,
      "fluid": 6751,
      "தரநதடதத": 6752,
      "Play": 6753,
      "Western": 6754,
      "futureகக": 6755,
      "marketல": 6756,
      "Phone": 6757,
      "Salem": 6758,
      "magic": 6759,
      "researchers": 6760,
      "organis": 6761,
      "organisation": 6762,
      "rules": 6763,
      "அடயளம": 6764,
      "programmeல": 6765,
      "Madhya": 6766,
      "Jeremiah": 6767,
      "ethnic": 6768,
      "பததகஙகள": 6769,
      "பததகததட": 6770,
      "vehicles": 6771,
      "சமபநதபபடடவஙக": 6772,
      "practical": 6773,
      "கயமடநதவஙக": 6774,
      "patientsகக": 6775,
      "Organ": 6776,
      "large": 6777,
      "Iraqi": 6778,
      "Joint": 6779,
      "summit": 6780,
      "summer": 6781,
      "அமரககவல": 6782,
      "Luke": 6783,
      "Russian": 6784,
      "Services": 6785,
      "Trans": 6786,
      "principl": 6787,
      "African": 6788,
      "equal": 6789,
      "timate": 6790,
      "Diwali": 6791,
      "ஃபரஜ": 6792,
      "resource": 6793,
      "exampleஆ": 6794,
      "CSK": 6795,
      "Scienti": 6796,
      "Yojana": 6797,
      "namic": 6798,
      "பஞசயதத": 6799,
      "கடமபததட": 6800,
      "Dhoni": 6801,
      "custod": 6802,
      "ரஷய": 6803,
      "roomல": 6804,
      "choice": 6805,
      "201314": 6806,
      "Messeng": 6807,
      "seasonல": 6808,
      "Franceல": 6809,
      "Dravid": 6810,
      "governor": 6811,
      "manufacturing": 6812,
      "completeஆ": 6813,
      "professional": 6814,
      "Capital": 6815,
      "வயசனவஙக": 6816,
      "schemes": 6817,
      "கடமபததனர": 6818,
      "newspaper": 6819,
      "அவஙகஅவஙகஅவஙகஅவஙகஅவஙகஅவஙகஅவஙகஅவஙகஅவஙகஅவஙகஅவஙகஅவஙகஅவஙகஅவஙகஅவஙகஅவஙகஅவஙகஅவஙகஅவஙகஅவஙகஅவஙகஅவஙகஅவஙகஅவஙகஅவஙகஅவஙகஅவஙகஅவஙகஅவஙகஅவஙகஅவஙகஅவஙக": 6820,
      "Classes": 6821,
      "democracy": 6822,
      "Certificate": 6823,
      "thought": 6824,
      "apostle": 6825,
      "territory": 6826,
      "contribution": 6827,
      "contribute": 6828,
      "prophecyல": 6829,
      "dynamic": 6830,
      "from": 6831,
      "half": 6832,
      "ஒனற": 6833,
      "sexual": 6834,
      "அடபடடடசச": 6835,
      "Allahஓட": 6836,
      "brothers": 6837,
      "வஙகககஙக": 6838,
      "Banerjee": 6839,
      "Britain": 6840,
      "senior": 6841,
      "sugar": 6842,
      "ஆயரசச": 6843,
      "உயரமன": 6844,
      "chapter": 6845,
      "journalist": 6846,
      "Catholic": 6847,
      "Village": 6848,
      "samples": 6849,
      "chemical": 6850,
      "conferenceல": 6851,
      "weapons": 6852,
      "Sectorல": 6853,
      "Hebrews": 6854,
      "responsibility": 6855,
      "requirements": 6856,
      "heavenly": 6857,
      "Design": 6858,
      "Governor": 6859,
      "ODI": 6860,
      "Venk": 6861,
      "pioneer": 6862,
      "receive": 6863,
      "ambiti": 6864,
      "பததசலததன": 6865,
      "hibition": 6866,
      "experts": 6867,
      "Nepal": 6868,
      "T20I": 6869,
      "dollar": 6870,
      "ஆஸதரலய": 6871,
      "imperial": 6872,
      "மதலமசசர": 6873,
      "Mohammed": 6874,
      "Adityanath": 6875,
      "Vivekan": 6876,
      "Association": 6877,
      "Digital": 6878,
      "Girls": 6879,
      "Odisha": 6880,
      "pilot": 6881,
      "sentence": 6882,
      "ஐஸவரய": 6883,
      "மகரஷடர": 6884,
      "தனததனய": 6885,
      "adopt": 6886,
      "elligence": 6887,
      "criticize": 6888,
      "inaugurate": 6889,
      "Academy": 6890,
      "divorce": 6891,
      "BCCI": 6892,
      "Libr": 6893,
      "Pharaoh": 6894,
      "Swaraj": 6895,
      "William": 6896,
      "conduct": 6897,
      "Instagram": 6898,
      "Anushka": 6899,
      "116": 6900,
      "47": 6901,
      "56": 6902,
      "57": 6903,
      "6ல": 6904,
      "77": 6905,
      "85": 6906,
      "89": 6907,
      "97": 6908,
      "AD": 6909,
      "Aj": 6910,
      "Aw": 6911,
      "Aam": 6912,
      "Ash": 6913,
      "Asi": 6914,
      "Asho": 6915,
      "AII": 6916,
      "BO": 6917,
      "BR": 6918,
      "Bil": 6919,
      "Bel": 6920,
      "Bur": 6921,
      "Big": 6922,
      "Block": 6923,
      "Brown": 6924,
      "Ce": 6925,
      "Cana": 6926,
      "Cultural": 6927,
      "Das": 6928,
      "EF": 6929,
      "ER": 6930,
      "Eze": 6931,
      "Food": 6932,
      "Fire": 6933,
      "Front": 6934,
      "GC": 6935,
      "Gul": 6936,
      "Hit": 6937,
      "Hab": 6938,
      "How": 6939,
      "Ital": 6940,
      "Jal": 6941,
      "Kul": 6942,
      "LC": 6943,
      "LO": 6944,
      "MT": 6945,
      "Mi": 6946,
      "Mit": 6947,
      "Mel": 6948,
      "Mary": 6949,
      "Mach": 6950,
      "Ni": 6951,
      "Nil": 6952,
      "Nig": 6953,
      "NDA": 6954,
      "Ocean": 6955,
      "PL": 6956,
      "PP": 6957,
      "Pu": 6958,
      "PAN": 6959,
      "RT": 6960,
      "River": 6961,
      "RAM": 6962,
      "SD": 6963,
      "SP": 6964,
      "SU": 6965,
      "Sn": 6966,
      "Sim": 6967,
      "Sav": 6968,
      "Sto": 6969,
      "Sang": 6970,
      "Self": 6971,
      "Software": 6972,
      "Tem": 6973,
      "Tour": 6974,
      "Tok": 6975,
      "TDP": 6976,
      "Vin": 6977,
      "Vas": 6978,
      "Wal": 6979,
      "aci": 6980,
      "but": 6981,
      "bour": 6982,
      "bru": 6983,
      "bomb": 6984,
      "cing": 6985,
      "cern": 6986,
      "catt": 6987,
      "ec": 6988,
      "eஆ": 6989,
      "eper": 6990,
      "fty": 6991,
      "gani": 6992,
      "his": 6993,
      "hall": 6994,
      "ij": 6995,
      "iet": 6996,
      "ium": 6997,
      "ify": 6998,
      "ju": 6999,
      "just": 7000,
      "kg": 7001,
      "ko": 7002,
      "lu": 7003,
      "lon": 7004,
      "lig": 7005,
      "length": 7006,
      "mel": 7007,
      "mand": 7008,
      "more": 7009,
      "mates": 7010,
      "made": 7011,
      "murder": 7012,
      "not": 7013,
      "near": 7014,
      "next": 7015,
      "oi": 7016,
      "ote": 7017,
      "push": 7018,
      "pren": 7019,
      "presidential": 7020,
      "rare": 7021,
      "rates": 7022,
      "ses": 7023,
      "sin": 7024,
      "sat": 7025,
      "shi": 7026,
      "swe": 7027,
      "sஉடய": 7028,
      "sessionல": 7029,
      "tree": 7030,
      "ua": 7031,
      "ually": 7032,
      "van": 7033,
      "vic": 7034,
      "vill": 7035,
      "wag": 7036,
      "wid": 7037,
      "wall": 7038,
      "wrest": 7039,
      "wick": 7040,
      "wrong": 7041,
      "yer": 7042,
      "ygen": 7043,
      "za": 7044,
      "zes": 7045,
      "zen": 7046,
      "அஸ": 7047,
      "அபரதம": 7048,
      "அஞசல": 7049,
      "ஆடட": 7050,
      "ஆபப": 7051,
      "ஆவர": 7052,
      "ஆதம": 7053,
      "ஆரவ": 7054,
      "இளம": 7055,
      "உள": 7056,
      "உழ": 7057,
      "எகஸ": 7058,
      "கசச": 7059,
      "கரமப": 7060,
      "கமன": 7061,
      "கணம": 7062,
      "கபச": 7063,
      "சஸ": 7064,
      "சபப": 7065,
      "சனல": 7066,
      "சவன": 7067,
      "சதகக": 7068,
      "டசசர": 7069,
      "ணப": 7070,
      "தச": 7071,
      "பகழ": 7072,
      "மறத": 7073,
      "யண": 7074,
      "யலம": 7075,
      "யளர": 7076,
      "ரபப": 7077,
      "ரஜய": 7078,
      "றதத": 7079,
      "ழஙக": 7080,
      "வசம": 7081,
      "வதல": 7082,
      "வகரம": 7083,
      "வஙகக": 7084,
      "ஹத": 7085,
      "ஹர": 7086,
      "கககறன": 7087,
      "நதயன": 7088,
      "நதபரம": 7089,
      "ததறகக": 7090,
      "ert": 7091,
      "erce": 7092,
      "பணகளட": 7093,
      "பணககர": 7094,
      "ony": 7095,
      "onians": 7096,
      "tified": 7097,
      "tiliz": 7098,
      "anல": 7099,
      "anoin": 7100,
      "escent": 7101,
      "escap": 7102,
      "esஉடய": 7103,
      "இரககவம": 7104,
      "incom": 7105,
      "infe": 7106,
      "instruction": 7107,
      "enல": 7108,
      "அவள": 7109,
      "அவனகக": 7110,
      "alai": 7111,
      "alog": 7112,
      "altar": 7113,
      "arbox": 7114,
      "orities": 7115,
      "ortheast": 7116,
      "stage": 7117,
      "refer": 7118,
      "reverse": 7119,
      "களபப": 7120,
      "களவகக": 7121,
      "ats": 7122,
      "கடன": 7123,
      "கடதம": 7124,
      "கடயர": 7125,
      "கடலட": 7126,
      "அதவட": 7127,
      "leஆ": 7128,
      "தரவகக": 7129,
      "தரளம": 7130,
      "பரஸ": 7131,
      "பரசதத": 7132,
      "பரசத": 7133,
      "rob": 7134,
      "roid": 7135,
      "சலலரககர": 7136,
      "சலலமபத": 7137,
      "sea": 7138,
      "வரடட": 7139,
      "வரஙகள": 7140,
      "வரவர": 7141,
      "வரறத": 7142,
      "வரணம": 7143,
      "இரநதரககம": 7144,
      "பபடறத": 7145,
      "றதலயம": 7146,
      "rah": 7147,
      "ras": 7148,
      "படபபட": 7149,
      "மனறம": 7150,
      "மனமகன": 7151,
      "chain": 7152,
      "chari": 7153,
      "ationஅ": 7154,
      "ationsஅ": 7155,
      "elder": 7156,
      "வஙகய": 7157,
      "வஙகலம": 7158,
      "வஙகணம": 7159,
      "வஙகறதகக": 7160,
      "uri": 7161,
      "uring": 7162,
      "ingஅ": 7163,
      "ingly": 7164,
      "மடககல": 7165,
      "மடசசடட": 7166,
      "மடயதத": 7167,
      "மறடட": 7168,
      "எலலததககம": 7169,
      "mentsல": 7170,
      "நனககறத": 7171,
      "unist": 7172,
      "uncertain": 7173,
      "சலகள": 7174,
      "சலகட": 7175,
      "சலறம": 7176,
      "deter": 7177,
      "ஆனம": 7178,
      "ries": 7179,
      "riev": 7180,
      "river": 7181,
      "எனனசசஙக": 7182,
      "நமபத": 7183,
      "கடடய": 7184,
      "கடடலம": 7185,
      "கடடததல": 7186,
      "கடடறஙக": 7187,
      "கடடடம": 7188,
      "கடடறதகக": 7189,
      "சமமத": 7190,
      "adol": 7191,
      "additional": 7192,
      "வலவச": 7193,
      "பதயல": 7194,
      "பதககக": 7195,
      "பதபபம": 7196,
      "ateஐ": 7197,
      "பயடடன": 7198,
      "பயதடட": 7199,
      "சரனன": 7200,
      "யலயம": 7201,
      "reserv": 7202,
      "வமரசச": 7203,
      "வளண": 7204,
      "வளம": 7205,
      "வளகக": 7206,
      "வளளகக": 7207,
      "அநதத": 7208,
      "பததம": 7209,
      "பததய": 7210,
      "பததஙக": 7211,
      "பததஙகனன": 7212,
      "usல": 7213,
      "usகக": 7214,
      "usion": 7215,
      "meaning": 7216,
      "ulate": 7217,
      "ultimate": 7218,
      "prophet": 7219,
      "கமசசர": 7220,
      "agan": 7221,
      "aging": 7222,
      "agency": 7223,
      "aggress": 7224,
      "வடன": 7225,
      "வடகளல": 7226,
      "பலவன": 7227,
      "நறஞச": 7228,
      "நறததட": 7229,
      "நறததம": 7230,
      "veil": 7231,
      "கரர": 7232,
      "கரபப": 7233,
      "கரகள": 7234,
      "contra": 7235,
      "consci": 7236,
      "consequ": 7237,
      "concern": 7238,
      "irth": 7239,
      "Inspe": 7240,
      "Indo": 7241,
      "Initi": 7242,
      "loyal": 7243,
      "அபபவ": 7244,
      "வநததம": 7245,
      "edge": 7246,
      "ape": 7247,
      "தலகவல": 7248,
      "ityஅ": 7249,
      "வழககம": 7250,
      "வழவகக": 7251,
      "வழககல": 7252,
      "hib": 7253,
      "iday": 7254,
      "umph": 7255,
      "கறய": 7256,
      "கறயம": 7257,
      "கறககம": 7258,
      "கறவன": 7259,
      "வதபப": 7260,
      "சயப": 7261,
      "சயற": 7262,
      "சயவஙக": 7263,
      "சயறன": 7264,
      "யரஙக": 7265,
      "யரகடடயம": 7266,
      "வககற": 7267,
      "வககபப": 7268,
      "பறஙகள": 7269,
      "பறறத": 7270,
      "poss": 7271,
      "கடககறதகக": 7272,
      "parentsகக": 7273,
      "ahல": 7274,
      "planning": 7275,
      "அவரகளயம": 7276,
      "cooperation": 7277,
      "வசசரககம": 7278,
      "தடல": 7279,
      "தடரம": 7280,
      "படடன": 7281,
      "படடடட": 7282,
      "படடயல": 7283,
      "படடயட": 7284,
      "படடரநதஙக": 7285,
      "வறக": 7286,
      "வறபன": 7287,
      "பணணனதல": 7288,
      "மனனசச": 7289,
      "tices": 7290,
      "மததணம": 7291,
      "வடடககட": 7292,
      "aker": 7293,
      "exchange": 7294,
      "expendit": 7295,
      "Che": 7296,
      "Chhat": 7297,
      "பககல": 7298,
      "பககதத": 7299,
      "பககணம": 7300,
      "hear": 7301,
      "எதரபர": 7302,
      "பணணடடஙகள": 7303,
      "கடததம": 7304,
      "கடததரககம": 7305,
      "190": 7306,
      "feature": 7307,
      "அரண": 7308,
      "gearbox": 7309,
      "quar": 7310,
      "மடயமனன": 7311,
      "live": 7312,
      "மககளம": 7313,
      "மககளககம": 7314,
      "சநதம": 7315,
      "சநதசசர": 7316,
      "சநதசசஙக": 7317,
      "ransom": 7318,
      "இறகக": 7319,
      "இபபத": 7320,
      "எதயம": 7321,
      "எதககக": 7322,
      "எதயவத": 7323,
      "aik": 7324,
      "நரல": 7325,
      "பசணமன": 7326,
      "tool": 7327,
      "manager": 7328,
      "arya": 7329,
      "நலவத": 7330,
      "சமபவதத": 7331,
      "இரபபன": 7332,
      "ishw": 7333,
      "anceம": 7334,
      "பகவன": 7335,
      "தககதல": 7336,
      "2014ல": 7337,
      "tiesஅ": 7338,
      "Devi": 7339,
      "இரநதசசனன": 7340,
      "assass": 7341,
      "பனற": 7342,
      "பனதம": 7343,
      "அதகமகம": 7344,
      "சரநதவஙக": 7345,
      "motion": 7346,
      "oreல": 7347,
      "ஆரமபம": 7348,
      "ஆரமபககத": 7349,
      "இறநதரககஙகனன": 7350,
      "otal": 7351,
      "ஆகயர": 7352,
      "உடகரநத": 7353,
      "workersகக": 7354,
      "லடசதத": 7355,
      "சயயறதகக": 7356,
      "கவனககல": 7357,
      "வஙகளல": 7358,
      "வஙகளயம": 7359,
      "102": 7360,
      "103": 7361,
      "104": 7362,
      "Shakti": 7363,
      "theat": 7364,
      "aji": 7365,
      "awan": 7366,
      "தபபசசடடஙக": 7367,
      "clari": 7368,
      "ககபபடடளளத": 7369,
      "கடமபததல": 7370,
      "bodi": 7371,
      "boost": 7372,
      "ரகளட": 7373,
      "சனற": 7374,
      "Real": 7375,
      "வரகளட": 7376,
      "வரகளன": 7377,
      "fulfill": 7378,
      "126": 7379,
      "உரளகக": 7380,
      "உரவககம": 7381,
      "யகவவ": 7382,
      "பமப": 7383,
      "பமயட": 7384,
      "சரயலலம": 7385,
      "officially": 7386,
      "Prover": 7387,
      "Prophet": 7388,
      "Bibl": 7389,
      "colle": 7390,
      "collap": 7391,
      "2007": 7392,
      "2007ல": 7393,
      "Anand": 7394,
      "Anura": 7395,
      "வததத": 7396,
      "ever": 7397,
      "evil": 7398,
      "object": 7399,
      "estimate": 7400,
      "ellite": 7401,
      "attach": 7402,
      "neigh": 7403,
      "உஙகளய": 7404,
      "சபபடவஙக": 7405,
      "தணணய": 7406,
      "தணணல": 7407,
      "roll": 7408,
      "156": 7409,
      "1500": 7410,
      "கலலர": 7411,
      "preci": 7412,
      "மடஞசடட": 7413,
      "Communist": 7414,
      "அழகக": 7415,
      "பகதகள": 7416,
      "Art": 7417,
      "Arvind": 7418,
      "அமமவ": 7419,
      "அமமவகக": 7420,
      "பபரவம": 7421,
      "தரஞசத": 7422,
      "தரஞசககடட": 7423,
      "தரஞசககணம": 7424,
      "தரஞசககஙக": 7425,
      "servic": 7426,
      "இயசவ": 7427,
      "16ல": 7428,
      "130": 7429,
      "panல": 7430,
      "policeல": 7431,
      "affection": 7432,
      "ismன": 7433,
      "counts": 7434,
      "நமபகககள": 7435,
      "investigationல": 7436,
      "அதகரஙக": 7437,
      "அதகரகளம": 7438,
      "priest": 7439,
      "Courts": 7440,
      "Rajput": 7441,
      "வரஷஙகளல": 7442,
      "typ": 7443,
      "minority": 7444,
      "கஷடபபடறஙக": 7445,
      "170": 7446,
      "Conf": 7447,
      "teamல": 7448,
      "ativeஆ": 7449,
      "charges": 7450,
      "Chirac": 7451,
      "transmission": 7452,
      "சடகக": 7453,
      "நடததடட": 7454,
      "Godகக": 7455,
      "தவயலலஙக": 7456,
      "reportersகடட": 7457,
      "Marathi": 7458,
      "selling": 7459,
      "ஆளஙகள": 7460,
      "உலகததலயம": 7461,
      "itect": 7462,
      "பயரல": 7463,
      "Corridor": 7464,
      "ஆகதனன": 7465,
      "வரதகள": 7466,
      "subject": 7467,
      "subsidy": 7468,
      "talks": 7469,
      "medium": 7470,
      "Scholar": 7471,
      "சகதரகள": 7472,
      "கறறஙகள": 7473,
      "personality": 7474,
      "Additional": 7475,
      "Actress": 7476,
      "partyகக": 7477,
      "Coord": 7478,
      "Cooperation": 7479,
      "schools": 7480,
      "familyஓட": 7481,
      "IDS": 7482,
      "ஆயடடன": 7483,
      "projectsகக": 7484,
      "Poll": 7485,
      "Results": 7486,
      "Appe": 7487,
      "வசரணகள": 7488,
      "temple": 7489,
      "Level": 7490,
      "casesல": 7491,
      "ரனஸ": 7492,
      "பணணரககன": 7493,
      "மகனம": 7494,
      "இலலயனன": 7495,
      "marketing": 7496,
      "வலயற": 7497,
      "அலலஹவ": 7498,
      "பணறரனன": 7499,
      "Teach": 7500,
      "systemஐ": 7501,
      "systemல": 7502,
      "innings": 7503,
      "கடககலனன": 7504,
      "describe": 7505,
      "amental": 7506,
      "elders": 7507,
      "educational": 7508,
      "சநதஷததயம": 7509,
      "Southern": 7510,
      "Manufactur": 7511,
      "fraud": 7512,
      "மசததகக": 7513,
      "மனஷஙக": 7514,
      "percentஆ": 7515,
      "sons": 7516,
      "Pakistani": 7517,
      "translate": 7518,
      "banks": 7519,
      "movement": 7520,
      "incidentல": 7521,
      "Commissioner": 7522,
      "bench": 7523,
      "note": 7524,
      "accidentஅ": 7525,
      "runsல": 7526,
      "tificates": 7527,
      "Assistance": 7528,
      "Partnership": 7529,
      "limited": 7530,
      "நடகளலயம": 7531,
      "skills": 7532,
      "இயறக": 7533,
      "letterல": 7534,
      "இநதயவடய": 7535,
      "Pakistanல": 7536,
      "வரமபல": 7537,
      "accord": 7538,
      "வஷயததப": 7539,
      "electronic": 7540,
      "farming": 7541,
      "millions": 7542,
      "சஞசரககஙக": 7543,
      "வணமனலம": 7544,
      "மனசரம": 7545,
      "நடநதரககனன": 7546,
      "மரயதககரய": 7547,
      "உறபதத": 7548,
      "கவனசசககடட": 7549,
      "engineல": 7550,
      "films": 7551,
      "பரதபல": 7552,
      "detailஆ": 7553,
      "consult": 7554,
      "studentsஐ": 7555,
      "congregations": 7556,
      "Meteor": 7557,
      "Petrole": 7558,
      "truck": 7559,
      "decisions": 7560,
      "Statesகக": 7561,
      "Northern": 7562,
      "funding": 7563,
      "fundamental": 7564,
      "insul": 7565,
      "roleஅ": 7566,
      "conditionல": 7567,
      "உடலகள": 7568,
      "Australiaவட": 7569,
      "Universityல": 7570,
      "selfish": 7571,
      "experienceஆ": 7572,
      "Bengalல": 7573,
      "எஙகளட": 7574,
      "எஙகளடய": 7575,
      "2017ல": 7576,
      "இளஞன": 7577,
      "futureல": 7578,
      "tourist": 7579,
      "buildings": 7580,
      "signific": 7581,
      "வசசககணமன": 7582,
      "recovery": 7583,
      "organic": 7584,
      "Germanyல": 7585,
      "சரமம": 7586,
      "learning": 7587,
      "வணடயதலல": 7588,
      "strengthஅ": 7589,
      "positionல": 7590,
      "prices": 7591,
      "படடரஙக": 7592,
      "CEO": 7593,
      "popul": 7594,
      "partiesம": 7595,
      "worldல": 7596,
      "Keralaல": 7597,
      "Order": 7598,
      "Organi": 7599,
      "campaignல": 7600,
      "benefits": 7601,
      "authority": 7602,
      "கணடபடககல": 7603,
      "extend": 7604,
      "ஸகலகக": 7605,
      "steady": 7606,
      "ambul": 7607,
      "define": 7608,
      "prayer": 7609,
      "Councilல": 7610,
      "CPWD": 7611,
      "Marketing": 7612,
      "copy": 7613,
      "copper": 7614,
      "equip": 7615,
      "தளளபட": 7616,
      "times": 7617,
      "வளரசசகக": 7618,
      "violence": 7619,
      "scientists": 7620,
      "footage": 7621,
      "Raje": 7622,
      "oxid": 7623,
      "oxide": 7624,
      "sources": 7625,
      "ancing": 7626,
      "ancest": 7627,
      "children": 7628,
      "யகவவடய": 7629,
      "Senior": 7630,
      "Scripturesல": 7631,
      "secular": 7632,
      "எடககபபடடரகக": 7633,
      "Engineering": 7634,
      "ladesh": 7635,
      "மரநதகள": 7636,
      "qualities": 7637,
      "objection": 7638,
      "Latin": 7639,
      "Music": 7640,
      "வரபபகத": 7641,
      "மனதரகளட": 7642,
      "Bangladesh": 7643,
      "eastern": 7644,
      "எலலரயம": 7645,
      "candidateஆ": 7646,
      "James": 7647,
      "Tribal": 7648,
      "Tribunal": 7649,
      "பஙகளபப": 7650,
      "வசசரபபஙக": 7651,
      "perfectஆ": 7652,
      "Georg": 7653,
      "fruit": 7654,
      "squad": 7655,
      "ஊழல": 7656,
      "அதகககவ": 7657,
      "appear": 7658,
      "newspaperல": 7659,
      "தழலளரகள": 7660,
      "recognised": 7661,
      "Babyl": 7662,
      "Golden": 7663,
      "Tiruv": 7664,
      "Twitter": 7665,
      "happiness": 7666,
      "simpleஆ": 7667,
      "allocate": 7668,
      "changes": 7669,
      "ullah": 7670,
      "discipline": 7671,
      "soldiers": 7672,
      "Buddhist": 7673,
      "jailகக": 7674,
      "kiel": 7675,
      "scoo": 7676,
      "vessel": 7677,
      "எலமப": 7678,
      "injuries": 7679,
      "Metrology": 7680,
      "Person": 7681,
      "document": 7682,
      "nutri": 7683,
      "எரபரள": 7684,
      "circum": 7685,
      "coupleகக": 7686,
      "Children": 7687,
      "awareness": 7688,
      "Workers": 7689,
      "Highways": 7690,
      "Ahmed": 7691,
      "Details": 7692,
      "Time": 7693,
      "Turkey": 7694,
      "audit": 7695,
      "bottom": 7696,
      "loving": 7697,
      "lakhs": 7698,
      "uddin": 7699,
      "அதகபடச": 7700,
      "Regional": 7701,
      "challengesஐ": 7702,
      "citizenship": 7703,
      "Febru": 7704,
      "Labour": 7705,
      "Sunday": 7706,
      "broadcast": 7707,
      "lasting": 7708,
      "ரதயவம": 7709,
      "strike": 7710,
      "chairman": 7711,
      "aswamy": 7712,
      "பயஙகரமன": 7713,
      "identity": 7714,
      "empowerment": 7715,
      "தடததடடஙக": 7716,
      "Secondary": 7717,
      "Abdullah": 7718,
      "இளஞரகளகக": 7719,
      "Bharatiya": 7720,
      "Bangaloreல": 7721,
      "Alexander": 7722,
      "Opposition": 7723,
      "Rules": 7724,
      "kindness": 7725,
      "distribute": 7726,
      "Periyar": 7727,
      "Greek": 7728,
      "moment": 7729,
      "கவரமணட": 7730,
      "politician": 7731,
      "schedule": 7732,
      "கயழதத": 7733,
      "Control": 7734,
      "Examination": 7735,
      "Investment": 7736,
      "Suzuki": 7737,
      "Californ": 7738,
      "Climate": 7739,
      "Ladakh": 7740,
      "Limited": 7741,
      "Language": 7742,
      "Museum": 7743,
      "whole": 7744,
      "டகடரகள": 7745,
      "தரவணணம": 7746,
      "spokes": 7747,
      "velihood": 7748,
      "Stalin": 7749,
      "மரனங": 7750,
      "Corinthians": 7751,
      "உறபபனரகள": 7752,
      "Organisation": 7753,
      "Ezekiel": 7754,
      "satellite": 7755,
      "wicked": 7756,
      "வளளககழம": 7757,
      "assassination": 7758,
      "லடசததககம": 7759,
      "clarify": 7760,
      "உரளககழஙக": 7761,
      "Proverbs": 7762,
      "collapse": 7763,
      "Manufacturing": 7764,
      "Petroleum": 7765,
      "03": 7766,
      "214": 7767,
      "3r": 7768,
      "350": 7769,
      "370": 7770,
      "43": 7771,
      "4000": 7772,
      "68": 7773,
      "625": 7774,
      "7000": 7775,
      "7500": 7776,
      "AT": 7777,
      "AY": 7778,
      "Ath": 7779,
      "Ari": 7780,
      "Aud": 7781,
      "Avi": 7782,
      "AAP": 7783,
      "AIDS": 7784,
      "Bomb": 7785,
      "Cல": 7786,
      "Cra": 7787,
      "Cel": 7788,
      "Cir": 7789,
      "Cru": 7790,
      "Creat": 7791,
      "Culture": 7792,
      "Citi": 7793,
      "Cudd": 7794,
      "Dom": 7795,
      "Dub": 7796,
      "Dow": 7797,
      "EU": 7798,
      "EV": 7799,
      "Er": 7800,
      "Ero": 7801,
      "Eco": 7802,
      "Earth": 7803,
      "FI": 7804,
      "Four": 7805,
      "Ford": 7806,
      "Free": 7807,
      "FIR": 7808,
      "GR": 7809,
      "Ga": 7810,
      "Gi": 7811,
      "Gl": 7812,
      "Gup": 7813,
      "Genti": 7814,
      "HO": 7815,
      "Hous": 7816,
      "Happ": 7817,
      "Hills": 7818,
      "IO": 7819,
      "Ir": 7820,
      "Ja": 7821,
      "Je": 7822,
      "Jh": 7823,
      "Jin": 7824,
      "Jai": 7825,
      "Kel": 7826,
      "Kis": 7827,
      "Kath": 7828,
      "Ly": 7829,
      "Lic": 7830,
      "Light": 7831,
      "LTT": 7832,
      "Liter": 7833,
      "Laksh": 7834,
      "MB": 7835,
      "MW": 7836,
      "Mis": 7837,
      "Mas": 7838,
      "Mid": 7839,
      "Mant": 7840,
      "Mong": 7841,
      "Major": 7842,
      "Mortality": 7843,
      "NS": 7844,
      "NT": 7845,
      "Na": 7846,
      "Naw": 7847,
      "Nok": 7848,
      "Numb": 7849,
      "Os": 7850,
      "Ox": 7851,
      "Pop": 7852,
      "Pay": 7853,
      "Pot": 7854,
      "Pune": 7855,
      "Presidential": 7856,
      "Qual": 7857,
      "RO": 7858,
      "Ru": 7859,
      "Rat": 7860,
      "Rana": 7861,
      "Rober": 7862,
      "SH": 7863,
      "Sov": 7864,
      "Sid": 7865,
      "Sport": 7866,
      "Span": 7867,
      "Selection": 7868,
      "Solar": 7869,
      "Scot": 7870,
      "SBI": 7871,
      "TC": 7872,
      "Tan": 7873,
      "Tro": 7874,
      "Tom": 7875,
      "Up": 7876,
      "Vo": 7877,
      "Vis": 7878,
      "Vict": 7879,
      "Veer": 7880,
      "Vitamin": 7881,
      "Wu": 7882,
      "Wall": 7883,
      "Well": 7884,
      "WHO": 7885,
      "ault": 7886,
      "acid": 7887,
      "bact": 7888,
      "bilities": 7889,
      "brown": 7890,
      "bird": 7891,
      "cof": 7892,
      "cult": 7893,
      "cord": 7894,
      "cens": 7895,
      "crown": 7896,
      "dஆ": 7897,
      "dar": 7898,
      "dro": 7899,
      "dry": 7900,
      "eur": 7901,
      "eco": 7902,
      "fat": 7903,
      "fle": 7904,
      "fran": 7905,
      "gon": 7906,
      "gate": 7907,
      "gran": 7908,
      "gather": 7909,
      "gender": 7910,
      "govin": 7911,
      "hin": 7912,
      "hil": 7913,
      "hala": 7914,
      "iant": 7915,
      "kn": 7916,
      "kim": 7917,
      "kot": 7918,
      "mind": 7919,
      "mpt": 7920,
      "municip": 7921,
      "nerஆ": 7922,
      "oகக": 7923,
      "oon": 7924,
      "oled": 7925,
      "ps": 7926,
      "pit": 7927,
      "pho": 7928,
      "pone": 7929,
      "psy": 7930,
      "pond": 7931,
      "paid": 7932,
      "rh": 7933,
      "rine": 7934,
      "sist": 7935,
      "sion": 7936,
      "sens": 7937,
      "sustainable": 7938,
      "tag": 7939,
      "tsp": 7940,
      "task": 7941,
      "uate": 7942,
      "utine": 7943,
      "vation": 7944,
      "vul": 7945,
      "vest": 7946,
      "vice": 7947,
      "vital": 7948,
      "wo": 7949,
      "wல": 7950,
      "wet": 7951,
      "wish": 7952,
      "writ": 7953,
      "wisdom": 7954,
      "xic": 7955,
      "yn": 7956,
      "ஃபல": 7957,
      "அஙகள": 7958,
      "ஆதர": 7959,
      "ஆபர": 7960,
      "ஆநதர": 7961,
      "ஆபததல": 7962,
      "ஆபகன": 7963,
      "ஊரகக": 7964,
      "எவ": 7965,
      "எவள": 7966,
      "எசசர": 7967,
      "ஏமறறம": 7968,
      "ஏரயல": 7969,
      "ஒள": 7970,
      "ஒவ": 7971,
      "ஒபபட": 7972,
      "கஜ": 7973,
      "கறம": 7974,
      "கபபடதத": 7975,
      "கஃபட": 7976,
      "ஙசன": 7977,
      "சவம": 7978,
      "ஜட": 7979,
      "ஜகக": 7980,
      "ஜயம": 7981,
      "ஞயறற": 7982,
      "ஞசசச": 7983,
      "டலல": 7984,
      "டவஙக": 7985,
      "டபள": 7986,
      "தபபட": 7987,
      "தயரகக": 7988,
      "நரமப": 7989,
      "நசம": 7990,
      "நகஸ": 7991,
      "நபள": 7992,
      "நபபத": 7993,
      "பவதத": 7994,
      "மபல": 7995,
      "மகர": 7996,
      "மயன": 7997,
      "மகநத": 7998,
      "ரக": 7999,
      "ரஙக": 8000,
      "ரஸட": 8001,
      "றல": 8002,
      "லகக": 8003,
      "ளல": 8004,
      "வலலம": 8005,
      "வததர": 8006,
      "வபரம": 8007,
      "வபபஙக": 8008,
      "வகதத": 8009,
      "ஸமல": 8010,
      "ஸதனல": 8011,
      "ஸநகஸ": 8012,
      "ஹநத": 8013,
      "கககற": 8014,
      "நதகள": 8015,
      "ரககலம": 8016,
      "ததவ": 8017,
      "டடல": 8018,
      "னனலம": 8019,
      "erd": 8020,
      "erஓட": 8021,
      "ervo": 8022,
      "ont": 8023,
      "onன": 8024,
      "பபனம": 8025,
      "tise": 8026,
      "any": 8027,
      "ansகக": 8028,
      "anticip": 8029,
      "esககன": 8030,
      "இரககக": 8031,
      "இரககல": 8032,
      "இரககலல": 8033,
      "இரககதனன": 8034,
      "இரககவஙகளகக": 8035,
      "inion": 8036,
      "ined": 8037,
      "inesஐ": 8038,
      "instru": 8039,
      "inquiry": 8040,
      "அவரககம": 8041,
      "alleg": 8042,
      "alalit": 8043,
      "alert": 8044,
      "alonians": 8045,
      "aro": 8046,
      "arge": 8047,
      "argu": 8048,
      "ardian": 8049,
      "orஐ": 8050,
      "orகக": 8051,
      "oram": 8052,
      "orge": 8053,
      "oriesல": 8054,
      "ரமநதபரம": 8055,
      "stop": 8056,
      "store": 8057,
      "stone": 8058,
      "stationல": 8059,
      "story": 8060,
      "storm": 8061,
      "stationகக": 8062,
      "reb": 8063,
      "redi": 8064,
      "repe": 8065,
      "reck": 8066,
      "reward": 8067,
      "repent": 8068,
      "களககம": 8069,
      "atல": 8070,
      "attin": 8071,
      "atform": 8072,
      "கடததன": 8073,
      "கடநர": 8074,
      "கடசசடட": 8075,
      "ஙகளலம": 8076,
      "ஒரவர": 8077,
      "அதவ": 8078,
      "icop": 8079,
      "icial": 8080,
      "leன": 8081,
      "left": 8082,
      "itate": 8083,
      "தரன": 8084,
      "தரவஙக": 8085,
      "தரவதத": 8086,
      "தரததடட": 8087,
      "தரவசசரகக": 8088,
      "தரவசசரககர": 8089,
      "பரகல": 8090,
      "பரதட": 8091,
      "பரடம": 8092,
      "பரகஷ": 8093,
      "பரஷன": 8094,
      "பரனஸ": 8095,
      "பரடடனர": 8096,
      "rock": 8097,
      "root": 8098,
      "routine": 8099,
      "சலலவ": 8100,
      "சலலரகக": 8101,
      "சலலஙகள": 8102,
      "sect": 8103,
      "seph": 8104,
      "secre": 8105,
      "வரவ": 8106,
      "வரயம": 8107,
      "வரகறத": 8108,
      "இரநதரககஙக": 8109,
      "இரநததல": 8110,
      "disch": 8111,
      "பபடலம": 8112,
      "பபடறஙகனன": 8113,
      "றதம": 8114,
      "raj": 8115,
      "rati": 8116,
      "radi": 8117,
      "race": 8118,
      "raid": 8119,
      "rape": 8120,
      "படததன": 8121,
      "படவன": 8122,
      "இதககன": 8123,
      "இதககக": 8124,
      "மனபபனம": 8125,
      "chance": 8126,
      "champion": 8127,
      "older": 8128,
      "ams": 8129,
      "வஙகரகக": 8130,
      "urb": 8131,
      "uresஐ": 8132,
      "urban": 8133,
      "isம": 8134,
      "நடகளகக": 8135,
      "andல": 8136,
      "மடநத": 8137,
      "oms": 8138,
      "மறன": 8139,
      "மறவ": 8140,
      "மறவகக": 8141,
      "mentனன": 8142,
      "நனவக": 8143,
      "unami": 8144,
      "unpreced": 8145,
      "unveil": 8146,
      "deleg": 8147,
      "ஆனதல": 8148,
      "ஆனமக": 8149,
      "ried": 8150,
      "ersன": 8151,
      "நமஷம": 8152,
      "நமககல": 8153,
      "கடடக": 8154,
      "கடடண": 8155,
      "கடடசச": 8156,
      "கடடஙகள": 8157,
      "கடடவஙக": 8158,
      "கடடரககஙக": 8159,
      "கடடபபடடத": 8160,
      "கடடககஙக": 8161,
      "கடடயரககஙக": 8162,
      "ததலய": 8163,
      "சமக": 8164,
      "சமயல": 8165,
      "இரககறதனல": 8166,
      "adult": 8167,
      "admon": 8168,
      "admission": 8169,
      "வலத": 8170,
      "asகக": 8171,
      "asan": 8172,
      "asion": 8173,
      "assi": 8174,
      "பதடட": 8175,
      "பதவகக": 8176,
      "பதககடட": 8177,
      "பயண": 8178,
      "பயயம": 8179,
      "பயஙகர": 8180,
      "பயரநதன": 8181,
      "சரத": 8182,
      "வமல": 8183,
      "இலலனல": 8184,
      "வளபபடதத": 8185,
      "வளநடகளல": 8186,
      "வளசசம": 8187,
      "வளசசதத": 8188,
      "பததரகக": 8189,
      "பததரம": 8190,
      "metro": 8191,
      "meters": 8192,
      "ulam": 8193,
      "prox": 8194,
      "proof": 8195,
      "probe": 8196,
      "provin": 8197,
      "provoc": 8198,
      "proportion": 8199,
      "prosper": 8200,
      "istration": 8201,
      "சனனம": 8202,
      "சனனஙகள": 8203,
      "கமபன": 8204,
      "கமசசரககஙக": 8205,
      "agiri": 8206,
      "வடசச": 8207,
      "வடவஙக": 8208,
      "tee": 8209,
      "tegra": 8210,
      "பலத": 8211,
      "பலர": 8212,
      "பலவட": 8213,
      "நறகக": 8214,
      "நறவற": 8215,
      "நறககன": 8216,
      "கரகட": 8217,
      "கரததல": 8218,
      "const": 8219,
      "conut": 8220,
      "constru": 8221,
      "conven": 8222,
      "context": 8223,
      "concept": 8224,
      "irsல": 8225,
      "irrig": 8226,
      "Inc": 8227,
      "Institution": 8228,
      "Integ": 8229,
      "தமதம": 8230,
      "தமபஙக": 8231,
      "access": 8232,
      "வநதலம": 8233,
      "வநதடம": 8234,
      "வநதடடன": 8235,
      "மதரதன": 8236,
      "edral": 8237,
      "spar": 8238,
      "apuram": 8239,
      "opposit": 8240,
      "வழத": 8241,
      "வழசச": 8242,
      "வழநடதத": 8243,
      "absor": 8244,
      "ernet": 8245,
      "hid": 8246,
      "2022": 8247,
      "uma": 8248,
      "கறவ": 8249,
      "கறசச": 8250,
      "கறயத": 8251,
      "கறசசரகக": 8252,
      "கறககறத": 8253,
      "வதலம": 8254,
      "coming": 8255,
      "சயறர": 8256,
      "வககங": 8257,
      "வகககள": 8258,
      "வககலம": 8259,
      "images": 8260,
      "impact": 8261,
      "மலன": 8262,
      "பறவகள": 8263,
      "essalonians": 8264,
      "நலலதனன": 8265,
      "pock": 8266,
      "வனஸ": 8267,
      "upgra": 8268,
      "கடககறன": 8269,
      "கடககபபடடளளத": 8270,
      "எடககறத": 8271,
      "param": 8272,
      "partic": 8273,
      "platform": 8274,
      "நமமதய": 8275,
      "coord": 8276,
      "cooled": 8277,
      "எநதநத": 8278,
      "கழவ": 8279,
      "கழயம": 8280,
      "வசசட": 8281,
      "தடறத": 8282,
      "தடககம": 8283,
      "வறடச": 8284,
      "கணடல": 8285,
      "கணடகக": 8286,
      "வயதத": 8287,
      "வயதன": 8288,
      "கதகள": 8289,
      "tick": 8290,
      "மததடட": 8291,
      "மததயல": 8292,
      "மதததட": 8293,
      "மததவஙகளகக": 8294,
      "akar": 8295,
      "akur": 8296,
      "akhand": 8297,
      "excell": 8298,
      "expand": 8299,
      "நடநததல": 8300,
      "ficit": 8301,
      "Chem": 8302,
      "Chak": 8303,
      "Church": 8304,
      "பககறதகக": 8305,
      "பககறன": 8306,
      "பககறஙகனன": 8307,
      "ககனம": 8308,
      "urea": 8309,
      "ureஆ": 8310,
      "ureம": 8311,
      "allur": 8312,
      "avati": 8313,
      "ending": 8314,
      "பலஸர": 8315,
      "useகக": 8316,
      "duction": 8317,
      "பணணடடதல": 8318,
      "மதய": 8319,
      "மதஙகளல": 8320,
      "கடததத": 8321,
      "மழக": 8322,
      "polling": 8323,
      "quaran": 8324,
      "quote": 8325,
      "நளன": 8326,
      "அவஙகளய": 8327,
      "ainment": 8328,
      "like": 8329,
      "living": 8330,
      "livelihood": 8331,
      "அவஙகளககளள": 8332,
      "eft": 8333,
      "மமபல": 8334,
      "பணறனன": 8335,
      "பணறஙகள": 8336,
      "பணறவஙகளகக": 8337,
      "எதரகக": 8338,
      "shay": 8339,
      "shell": 8340,
      "vely": 8341,
      "asters": 8342,
      "நரதத": 8343,
      "பசற": 8344,
      "பசவஙக": 8345,
      "பசறன": 8346,
      "பசனம": 8347,
      "toss": 8348,
      "toxic": 8349,
      "அபபடபபடட": 8350,
      "anta": 8351,
      "antனன": 8352,
      "antsம": 8353,
      "enceஅ": 8354,
      "மணவரகளகக": 8355,
      "இரவத": 8356,
      "Stadi": 8357,
      "Studi": 8358,
      "Street": 8359,
      "பகஷ": 8360,
      "undation": 8361,
      "achin": 8362,
      "illa": 8363,
      "தககல": 8364,
      "தககள": 8365,
      "தககதலல": 8366,
      "Deep": 8367,
      "மரடட": 8368,
      "பணணடடஙகனன": 8369,
      "assistant": 8370,
      "சரநதர": 8371,
      "mos": 8372,
      "moth": 8373,
      "mood": 8374,
      "mock": 8375,
      "தனனடய": 8376,
      "ஆரமபகக": 8377,
      "centஆ": 8378,
      "center": 8379,
      "intelligence": 8380,
      "இறநதவஙக": 8381,
      "ulty": 8382,
      "atha": 8383,
      "iesஅ": 8384,
      "iesஐ": 8385,
      "வளவககம": 8386,
      "உடஞச": 8387,
      "தமழல": 8388,
      "தமழநடட": 8389,
      "சயயணமன": 8390,
      "கவனஙக": 8391,
      "pherd": 8392,
      "எழநதர": 8393,
      "106": 8394,
      "Shar": 8395,
      "plea": 8396,
      "pleas": 8397,
      "வஷயததயம": 8398,
      "எடததத": 8399,
      "எடததரகக": 8400,
      "எடததடடஙக": 8401,
      "grains": 8402,
      "governments": 8403,
      "governmentம": 8404,
      "ஏறககடட": 8405,
      "தபபசச": 8406,
      "cluster": 8407,
      "communities": 8408,
      "communic": 8409,
      "ககபபடடன": 8410,
      "bound": 8411,
      "boot": 8412,
      "bodies": 8413,
      "எஙகலலம": 8414,
      "நரமசச": 8415,
      "சனய": 8416,
      "சனககழம": 8417,
      "ignore": 8418,
      "Reform": 8419,
      "Review": 8420,
      "Republic": 8421,
      "Reactor": 8422,
      "தரயமன": 8423,
      "alian": 8424,
      "alities": 8425,
      "alize": 8426,
      "இரநதஙகனன": 8427,
      "disaster": 8428,
      "tiveஆ": 8429,
      "Mount": 8430,
      "earing": 8431,
      "army": 8432,
      "ationsககன": 8433,
      "overcome": 8434,
      "offices": 8435,
      "Prote": 8436,
      "Process": 8437,
      "அரசஙகஙகள": 8438,
      "அரசஙகமம": 8439,
      "airy": 8440,
      "அஙகதன": 8441,
      "பபஙகனன": 8442,
      "2004": 8443,
      "2001ல": 8444,
      "படககலம": 8445,
      "படககணம": 8446,
      "படககறஙக": 8447,
      "பசசனன": 8448,
      "Governmentஓட": 8449,
      "fertiliz": 8450,
      "attend": 8451,
      "attention": 8452,
      "ney": 8453,
      "ssue": 8454,
      "சபபடலம": 8455,
      "யரககனன": 8456,
      "உயரழ": 8457,
      "உயரழநத": 8458,
      "களமப": 8459,
      "USH": 8460,
      "USகக": 8461,
      "ஆரமபசசரககஙக": 8462,
      "hospitalsல": 8463,
      "weather": 8464,
      "கலலற": 8465,
      "அனபபசசர": 8466,
      "அனபபசசஙக": 8467,
      "premium": 8468,
      "preaching": 8469,
      "மடஞசரகக": 8470,
      "Delta": 8471,
      "கயசசல": 8472,
      "interim": 8473,
      "interesting": 8474,
      "flict": 8475,
      "அழத": 8476,
      "அழதத": 8477,
      "பகதகளல": 8478,
      "பகதகளம": 8479,
      "aria": 8480,
      "Arm": 8481,
      "பழகக": 8482,
      "தரஞசககடடஙக": 8483,
      "சலறதல": 8484,
      "அறவ": 8485,
      "அறவட": 8486,
      "அறவத": 8487,
      "அறபதமன": 8488,
      "அறகறகள": 8489,
      "servicesஐ": 8490,
      "criter": 8491,
      "ரபயல": 8492,
      "பபடததடட": 8493,
      "பபடததபபடட": 8494,
      "உரவககன": 8495,
      "ministers": 8496,
      "restore": 8497,
      "Delhiகக": 8498,
      "169": 8499,
      "கலயணததகக": 8500,
      "very": 8501,
      "distress": 8502,
      "criminal": 8503,
      "tsunami": 8504,
      "panel": 8505,
      "landஐ": 8506,
      "சதரமன": 8507,
      "supportம": 8508,
      "Amaz": 8509,
      "sympt": 8510,
      "இரணடம": 8511,
      "பணணரனன": 8512,
      "இபபடததன": 8513,
      "களடன": 8514,
      "கடயதனன": 8515,
      "நமபககய": 8516,
      "Alb": 8517,
      "survi": 8518,
      "surpri": 8519,
      "powerஐ": 8520,
      "powerல": 8521,
      "mier": 8522,
      "priority": 8523,
      "prizes": 8524,
      "timeஅ": 8525,
      "Rajnath": 8526,
      "பணணடவம": 8527,
      "Centres": 8528,
      "tyஆ": 8529,
      "டரனஸ": 8530,
      "pressible": 8531,
      "கஷடததல": 8532,
      "teamம": 8533,
      "teamஓட": 8534,
      "ஏனனறல": 8535,
      "கடசசசச": 8536,
      "பபடடரககனன": 8537,
      "Chidam": 8538,
      "plot": 8539,
      "solar": 8540,
      "பரஞசககடடஙக": 8541,
      "பரஞசககணம": 8542,
      "பபடடதக": 8543,
      "எடததககலம": 8544,
      "11ல": 8545,
      "newsஅ": 8546,
      "related": 8547,
      "elections": 8548,
      "தயணபப": 8549,
      "healthஅ": 8550,
      "healthyஆ": 8551,
      "கடசயல": 8552,
      "warகக": 8553,
      "warning": 8554,
      "sell": 8555,
      "Departmentல": 8556,
      "Departmentsகக": 8557,
      "Express": 8558,
      "output": 8559,
      "memberஆ": 8560,
      "இனனரதத": 8561,
      "பஸட": 8562,
      "பயரபபஙக": 8563,
      "Corn": 8564,
      "எழதறர": 8565,
      "monetary": 8566,
      "taluk": 8567,
      "breach": 8568,
      "சகமன": 8569,
      "correspond": 8570,
      "ushman": 8571,
      "மடடட": 8572,
      "postpone": 8573,
      "friendஆ": 8574,
      "blend": 8575,
      "pendingல": 8576,
      "tests": 8577,
      "groups": 8578,
      "familyஅ": 8579,
      "projectல": 8580,
      "projectகக": 8581,
      "Rescue": 8582,
      "carbon": 8583,
      "porting": 8584,
      "மயறசகள": 8585,
      "கயலகக": 8586,
      "மடடஙகத": 8587,
      "மடடஙகறஙக": 8588,
      "வசரணல": 8589,
      "Islam": 8590,
      "publicஆ": 8591,
      "publicகக": 8592,
      "நயய": 8593,
      "busines": 8594,
      "Mahaj": 8595,
      "here": 8596,
      "herjee": 8597,
      "orderஅ": 8598,
      "நமமளகக": 8599,
      "இனஃ": 8600,
      "இனற": 8601,
      "inning": 8602,
      "மனவயம": 8603,
      "கடககலமன": 8604,
      "Official": 8605,
      "destin": 8606,
      "nationalist": 8607,
      "சநதஷபபடடஙக": 8608,
      "trainingம": 8609,
      "Mano": 8610,
      "எஙகளககக": 8611,
      "planet": 8612,
      "lifeஐ": 8613,
      "ika": 8614,
      "ஜனஸ": 8615,
      "ஜனஙகள": 8616,
      "எடககப": 8617,
      "financing": 8618,
      "Districtல": 8619,
      "campல": 8620,
      "மவடடஙகள": 8621,
      "மவடடஙகளல": 8622,
      "வசஙக": 8623,
      "வசரகக": 8624,
      "வஙகனஙக": 8625,
      "சலறஙகள": 8626,
      "controlல": 8627,
      "IPS": 8628,
      "congrat": 8629,
      "Commissionல": 8630,
      "Thir": 8631,
      "Thessalonians": 8632,
      "Thakur": 8633,
      "languagesல": 8634,
      "ஸடஷனகக": 8635,
      "serviceல": 8636,
      "modest": 8637,
      "notice": 8638,
      "பகமபத": 8639,
      "பகமபம": 8640,
      "seatsஐ": 8641,
      "companyல": 8642,
      "companions": 8643,
      "ஜயசசத": 8644,
      "ஜயசசரககர": 8645,
      "founder": 8646,
      "Trade": 8647,
      "menஐ": 8648,
      "march": 8649,
      "மரததவர": 8650,
      "Email": 8651,
      "draft": 8652,
      "skill": 8653,
      "களளயட": 8654,
      "letters": 8655,
      "developing": 8656,
      "ஆரபபடட": 8657,
      "spiritualஆ": 8658,
      "Bhut": 8659,
      "Bhai": 8660,
      "Harry": 8661,
      "Harris": 8662,
      "situationஅ": 8663,
      "Khanம": 8664,
      "missionary": 8665,
      "ஃபஙசன": 8666,
      "உணரநத": 8667,
      "கஞசபரம": 8668,
      "288": 8669,
      "hammad": 8670,
      "judges": 8671,
      "passion": 8672,
      "கனனட": 8673,
      "சபபடடகக": 8674,
      "debt": 8675,
      "tedஆ": 8676,
      "connectivity": 8677,
      "தரஞசககலம": 8678,
      "Media": 8679,
      "Medium": 8680,
      "dayல": 8681,
      "sectorகக": 8682,
      "employe": 8683,
      "employees": 8684,
      "Suresh": 8685,
      "cityயட": 8686,
      "loveஅ": 8687,
      "வமனம": 8688,
      "scen": 8689,
      "versesஐ": 8690,
      "பரலக": 8691,
      "dedicated": 8692,
      "issueஅ": 8693,
      "IAS": 8694,
      "photograph": 8695,
      "இரககஙகளனன": 8696,
      "பகஸதனககம": 8697,
      "flowகக": 8698,
      "turb": 8699,
      "atureல": 8700,
      "தரநதடகக": 8701,
      "வததயசமம": 8702,
      "உமமடய": 8703,
      "accountல": 8704,
      "mostly": 8705,
      "baram": 8706,
      "அவனட": 8707,
      "researchல": 8708,
      "கணடடட": 8709,
      "கணடடறஙக": 8710,
      "கணடடடம": 8711,
      "Andre": 8712,
      "Android": 8713,
      "affair": 8714,
      "Germany": 8715,
      "ibility": 8716,
      "messages": 8717,
      "மளகததள": 8718,
      "reasons": 8719,
      "Chinaகக": 8720,
      "300ககம": 8721,
      "30000": 8722,
      "Madurai": 8723,
      "Madras": 8724,
      "auto": 8725,
      "volunt": 8726,
      "சமபதசச": 8727,
      "பறபபனன": 8728,
      "201112": 8729,
      "கலநதககடடர": 8730,
      "Educational": 8731,
      "Spain": 8732,
      "holy": 8733,
      "holiday": 8734,
      "popular": 8735,
      "articles": 8736,
      "confid": 8737,
      "கயமடநதவஙகள": 8738,
      "battery": 8739,
      "cards": 8740,
      "fisher": 8741,
      "sanitation": 8742,
      "architect": 8743,
      "townகக": 8744,
      "Iraqல": 8745,
      "Josh": 8746,
      "Joseph": 8747,
      "MSME": 8748,
      "bodyல": 8749,
      "normalஆ": 8750,
      "penalty": 8751,
      "refuge": 8752,
      "recently": 8753,
      "groundwater": 8754,
      "Israelன": 8755,
      "Israelites": 8756,
      "SEC": 8757,
      "cricketல": 8758,
      "மறநதட": 8759,
      "கரததரடய": 8760,
      "abadல": 8761,
      "forcement": 8762,
      "Hospitalகக": 8763,
      "prayers": 8764,
      "visitல": 8765,
      "Maharashtraல": 8766,
      "CPI": 8767,
      "Market": 8768,
      "copies": 8769,
      "equity": 8770,
      "வறமய": 8771,
      "institutions": 8772,
      "இலலதவஙக": 8773,
      "peopleகக": 8774,
      "இறவனடய": 8775,
      "கடமபஙகள": 8776,
      "football": 8777,
      "opportunityஐ": 8778,
      "Akshay": 8779,
      "Ground": 8780,
      "ancesல": 8781,
      "resourcesஐ": 8782,
      "வளளததல": 8783,
      "exampleஅ": 8784,
      "Karnatak": 8785,
      "Fundல": 8786,
      "Scriptures": 8787,
      "Youth": 8788,
      "gestion": 8789,
      "கஷமரல": 8790,
      "சதரண": 8791,
      "secution": 8792,
      "எடககபபடடத": 8793,
      "மததவஙகளககம": 8794,
      "கடமபததகக": 8795,
      "Beij": 8796,
      "goods": 8797,
      "golden": 8798,
      "ixel": 8799,
      "antha": 8800,
      "qualify": 8801,
      "surveill": 8802,
      "surveyல": 8803,
      "Messiah": 8804,
      "brain": 8805,
      "easy": 8806,
      "further": 8807,
      "furnit": 8808,
      "horror": 8809,
      "vaccination": 8810,
      "டஸகணட": 8811,
      "தகதயன": 8812,
      "expression": 8813,
      "ughts": 8814,
      "வததயசததல": 8815,
      "Schemeல": 8816,
      "congregationஓட": 8817,
      "Arabi": 8818,
      "Black": 8819,
      "eastல": 8820,
      "lateஆ": 8821,
      "பதனகழம": 8822,
      "representativ": 8823,
      "results": 8824,
      "positiveஆ": 8825,
      "protected": 8826,
      "Hero": 8827,
      "Patel": 8828,
      "pictures": 8829,
      "suspend": 8830,
      "suspect": 8831,
      "slowஆ": 8832,
      "citizen": 8833,
      "Rajasthanல": 8834,
      "professionals": 8835,
      "wickets": 8836,
      "Aadmi": 8837,
      "BS6": 8838,
      "George": 8839,
      "London": 8840,
      "Peop": 8841,
      "Satan": 8842,
      "network": 8843,
      "northern": 8844,
      "divine": 8845,
      "Companies": 8846,
      "collegeல": 8847,
      "Houseல": 8848,
      "Budgetல": 8849,
      "resolutionஐ": 8850,
      "Uttarakhand": 8851,
      "democratic": 8852,
      "Auto": 8853,
      "Kamal": 8854,
      "burden": 8855,
      "daught": 8856,
      "destru": 8857,
      "happy": 8858,
      "arantee": 8859,
      "street": 8860,
      "thoughts": 8861,
      "apostles": 8862,
      "coastல": 8863,
      "regional": 8864,
      "prophecy": 8865,
      "Ayushman": 8866,
      "Cancer": 8867,
      "Motors": 8868,
      "Mukherjee": 8869,
      "Pandit": 8870,
      "Step": 8871,
      "fansகக": 8872,
      "multiply": 8873,
      "sulf": 8874,
      "scaleல": 8875,
      "wheel": 8876,
      "tisgarh": 8877,
      "potassi": 8878,
      "எதரககடசகள": 8879,
      "siteஅ": 8880,
      "Superint": 8881,
      "guidance": 8882,
      "feelingsஅ": 8883,
      "Farmers": 8884,
      "brief": 8885,
      "biggest": 8886,
      "behave": 8887,
      "patron": 8888,
      "western": 8889,
      "அணணன": 8890,
      "மஸலம": 8891,
      "Interim": 8892,
      "சயயலனன": 8893,
      "ministryல": 8894,
      "Prabhas": 8895,
      "passengers": 8896,
      "ஆசசரயபபடட": 8897,
      "troops": 8898,
      "Govt": 8899,
      "Trust": 8900,
      "borderல": 8901,
      "trillion": 8902,
      "www": 8903,
      "யளளர": 8904,
      "tility": 8905,
      "strain": 8906,
      "strategy": 8907,
      "studies": 8908,
      "reforms": 8909,
      "universityல": 8910,
      "Production": 8911,
      "Archae": 8912,
      "Daniel": 8913,
      "Foundation": 8914,
      "Horticulture": 8915,
      "Jawahar": 8916,
      "Rich": 8917,
      "toll": 8918,
      "ஆஃபஸகக": 8919,
      "ஹமவரக": 8920,
      "digital": 8921,
      "vegetables": 8922,
      "சரயலலய": 8923,
      "Philip": 8924,
      "ஃபரணடஸ": 8925,
      "sacrifice": 8926,
      "constituency": 8927,
      "Himachal": 8928,
      "Sushma": 8929,
      "drinking": 8930,
      "fighter": 8931,
      "machine": 8932,
      "victory": 8933,
      "அரமயன": 8934,
      "declare": 8935,
      "compete": 8936,
      "imagine": 8937,
      "effectiveஆ": 8938,
      "centresல": 8939,
      "ograph": 8940,
      "சடடததனபட": 8941,
      "ceremonyல": 8942,
      "201617ல": 8943,
      "Covid19": 8944,
      "Muhammad": 8945,
      "Nehru": 8946,
      "Picture": 8947,
      "Sikkim": 8948,
      "covenant": 8949,
      "pattern": 8950,
      "தஞசவர": 8951,
      "ஹஸபடல": 8952,
      "memorial": 8953,
      "flagship": 8954,
      "Political": 8955,
      "automatically": 8956,
      "bowlல": 8957,
      "diagnose": 8958,
      "கறநதபடசம": 8959,
      "beneficiariesகக": 8960,
      "Argentina": 8961,
      "Mexico": 8962,
      "Human": 8963,
      "Hindus": 8964,
      "Italian": 8965,
      "Jackson": 8966,
      "Kovind": 8967,
      "Modern": 8968,
      "Padma": 8969,
      "Queen": 8970,
      "Taluk": 8971,
      "crowd": 8972,
      "fiscal": 8973,
      "simil": 8974,
      "இஸலம": 8975,
      "உககநத": 8976,
      "ஷடடங": 8977,
      "anchor": 8978,
      "semifinal": 8979,
      "eliminate": 8980,
      "housing": 8981,
      "velocity": 8982,
      "Universities": 8983,
      "collabor": 8984,
      "பழஙகலததல": 8985,
      "Scheduled": 8986,
      "Response": 8987,
      "techniques": 8988,
      "Survey": 8989,
      "மநலததலளள": 8990,
      "Dravidar": 8991,
      "Library": 8992,
      "Instagramல": 8993,
      "Awake": 8994,
      "Niger": 8995,
      "SUV": 8996,
      "Tokyo": 8997,
      "cattle": 8998,
      "அஸஸமல": 8999,
      "escape": 9000,
      "rievances": 9001,
      "adolescent": 9002,
      "வககபபதவ": 9003,
      "Chhattisgarh": 9004,
      "Biblical": 9005,
      "Anurag": 9006,
      "Confederation": 9007,
      "Meteorological": 9008,
      "selfishness": 9009,
      "nutrition": 9010,
      "February": 9011,
      "California": 9012,
      "தரவணணமல": 9013,
      "spokesperson": 9014,
      "3rd": 9015,
      "AYUSH": 9016,
      "Audit": 9017,
      "Bombay": 9018,
      "Creator": 9019,
      "Cuddalore": 9020,
      "Kisan": 9021,
      "LTTE": 9022,
      "Mantri": 9023,
      "Nokia": 9024,
      "Robert": 9025,
      "Soviet": 9026,
      "Spanish": 9027,
      "bacter": 9028,
      "vulner": 9029,
      "ஆபரகம": 9030,
      "ஒவவரதத": 9031,
      "ஞயறறககழம": 9032,
      "alalitha": 9033,
      "discharge": 9034,
      "unprecedented": 9035,
      "tegration": 9036,
      "surprise": 9037,
      "Chidambaram": 9038,
      "businessல": 9039,
      "voluntary": 9040,
      "furniture": 9041,
      "potassium": 9042,
      "Jawaharlal": 9043,
      "05": 9044,
      "1ஐ": 9045,
      "1st": 9046,
      "118": 9047,
      "299": 9048,
      "2nd": 9049,
      "53": 9050,
      "5th": 9051,
      "5speed": 9052,
      "63": 9053,
      "67": 9054,
      "71": 9055,
      "72": 9056,
      "8000": 9057,
      "93": 9058,
      "95": 9059,
      "98": 9060,
      "9ல": 9061,
      "AH": 9062,
      "AL": 9063,
      "Av": 9064,
      "Aid": 9065,
      "Agency": 9066,
      "ATM": 9067,
      "Aishw": 9068,
      "Ba": 9069,
      "By": 9070,
      "Bre": 9071,
      "Bri": 9072,
      "Bus": 9073,
      "Bay": 9074,
      "Bod": 9075,
      "Bob": 9076,
      "Brand": 9077,
      "Beth": 9078,
      "Branch": 9079,
      "Cam": 9080,
      "Cri": 9081,
      "Cho": 9082,
      "Cell": 9083,
      "Cases": 9084,
      "DV": 9085,
      "Den": 9086,
      "Dal": 9087,
      "Dagg": 9088,
      "EC": 9089,
      "Ear": 9090,
      "Eve": 9091,
      "Eliz": 9092,
      "FS": 9093,
      "Fa": 9094,
      "Flo": 9095,
      "Fac": 9096,
      "Finn": 9097,
      "Father": 9098,
      "Full": 9099,
      "GT": 9100,
      "Guru": 9101,
      "GDP": 9102,
      "Gopal": 9103,
      "Grievances": 9104,
      "Hon": 9105,
      "Hel": 9106,
      "Hour": 9107,
      "Iல": 9108,
      "Ire": 9109,
      "Jon": 9110,
      "Jul": 9111,
      "Jav": 9112,
      "Jason": 9113,
      "Ka": 9114,
      "Ken": 9115,
      "Kat": 9116,
      "Kha": 9117,
      "Key": 9118,
      "Knight": 9119,
      "Ling": 9120,
      "List": 9121,
      "Life": 9122,
      "MK": 9123,
      "Mam": 9124,
      "Mur": 9125,
      "Mac": 9126,
      "Mak": 9127,
      "Mail": 9128,
      "Mang": 9129,
      "Mali": 9130,
      "Mally": 9131,
      "Million": 9132,
      "Make": 9133,
      "Miz": 9134,
      "Maur": 9135,
      "Milk": 9136,
      "NO": 9137,
      "NU": 9138,
      "Non": 9139,
      "Nal": 9140,
      "Nic": 9141,
      "Nir": 9142,
      "NCP": 9143,
      "Naid": 9144,
      "Nagar": 9145,
      "OS": 9146,
      "Oil": 9147,
      "Ori": 9148,
      "Out": 9149,
      "One": 9150,
      "PC": 9151,
      "PF": 9152,
      "Pr": 9153,
      "Ps": 9154,
      "Pல": 9155,
      "Pon": 9156,
      "Pent": 9157,
      "Pil": 9158,
      "Pur": 9159,
      "Pion": 9160,
      "Path": 9161,
      "Pris": 9162,
      "Park": 9163,
      "Price": 9164,
      "PTI": 9165,
      "RR": 9166,
      "Ren": 9167,
      "Rad": 9168,
      "Ray": 9169,
      "Rak": 9170,
      "Rice": 9171,
      "Riv": 9172,
      "Right": 9173,
      "Ruk": 9174,
      "SR": 9175,
      "ST": 9176,
      "Sc": 9177,
      "Sl": 9178,
      "Sas": 9179,
      "Set": 9180,
      "Spo": 9181,
      "Siv": 9182,
      "Sign": 9183,
      "Srin": 9184,
      "Select": 9185,
      "Sale": 9186,
      "Saint": 9187,
      "Sense": 9188,
      "Saul": 9189,
      "Scul": 9190,
      "Six": 9191,
      "Sidd": 9192,
      "Sustainable": 9193,
      "Sachin": 9194,
      "Tex": 9195,
      "Tend": 9196,
      "Than": 9197,
      "Treat": 9198,
      "Trin": 9199,
      "Terror": 9200,
      "Total": 9201,
      "Uz": 9202,
      "UGC": 9203,
      "Vers": 9204,
      "Vad": 9205,
      "Vid": 9206,
      "Vision": 9207,
      "Vide": 9208,
      "VIP": 9209,
      "Wa": 9210,
      "Wind": 9211,
      "Xia": 9212,
      "Your": 9213,
      "aar": 9214,
      "bb": 9215,
      "bhar": 9216,
      "bread": 9217,
      "bles": 9218,
      "birth": 9219,
      "burea": 9220,
      "cis": 9221,
      "cod": 9222,
      "cure": 9223,
      "cav": 9224,
      "cry": 9225,
      "cill": 9226,
      "cular": 9227,
      "caste": 9228,
      "dic": 9229,
      "dup": 9230,
      "dental": 9231,
      "dairy": 9232,
      "edi": 9233,
      "far": 9234,
      "fare": 9235,
      "fts": 9236,
      "flock": 9237,
      "flood": 9238,
      "favo": 9239,
      "gent": 9240,
      "gun": 9241,
      "gall": 9242,
      "gang": 9243,
      "giv": 9244,
      "guru": 9245,
      "greed": 9246,
      "hur": 9247,
      "hate": 9248,
      "hap": 9249,
      "hop": 9250,
      "hub": 9251,
      "hman": 9252,
      "hite": 9253,
      "ias": 9254,
      "ires": 9255,
      "iya": 9256,
      "ilet": 9257,
      "iency": 9258,
      "jet": 9259,
      "jah": 9260,
      "kh": 9261,
      "kit": 9262,
      "ln": 9263,
      "lan": 9264,
      "lor": 9265,
      "lak": 9266,
      "mail": 9267,
      "might": 9268,
      "mated": 9269,
      "money": 9270,
      "nar": 9271,
      "nur": 9272,
      "nine": 9273,
      "nail": 9274,
      "nadu": 9275,
      "nament": 9276,
      "northeast": 9277,
      "osல": 9278,
      "otic": 9279,
      "oath": 9280,
      "pi": 9281,
      "pல": 9282,
      "pun": 9283,
      "pas": 9284,
      "past": 9285,
      "pens": 9286,
      "pura": 9287,
      "pip": 9288,
      "pump": 9289,
      "presidents": 9290,
      "qf": 9291,
      "rar": 9292,
      "rator": 9293,
      "render": 9294,
      "rrh": 9295,
      "sle": 9296,
      "sort": 9297,
      "sman": 9298,
      "scri": 9299,
      "saf": 9300,
      "sister": 9301,
      "script": 9302,
      "tort": 9303,
      "tari": 9304,
      "take": 9305,
      "trop": 9306,
      "tables": 9307,
      "uction": 9308,
      "uff": 9309,
      "vit": 9310,
      "vam": 9311,
      "wers": 9312,
      "wage": 9313,
      "want": 9314,
      "wild": 9315,
      "whel": 9316,
      "whit": 9317,
      "white": 9318,
      "yஅ": 9319,
      "yam": 9320,
      "yth": 9321,
      "yak": 9322,
      "yog": 9323,
      "zer": 9324,
      "zon": 9325,
      "zone": 9326,
      "zens": 9327,
      "அனன": 9328,
      "அசச": 9329,
      "அயம": 9330,
      "அகர": 9331,
      "அமல": 9332,
      "அடம": 9333,
      "அபஷ": 9334,
      "ஆழ": 9335,
      "ஆனன": 9336,
      "ஆவஙக": 9337,
      "ஆவல": 9338,
      "ஆமம": 9339,
      "ஆளம": 9340,
      "ஆறற": 9341,
      "ஆதரம": 9342,
      "ஆககறத": 9343,
      "ஆசபபடட": 9344,
      "ஆழம": 9345,
      "ஆபபள": 9346,
      "ஆஜர": 9347,
      "ஈமன": 9348,
      "உபய": 9349,
      "உறச": 9350,
      "எம": 9351,
      "எதல": 9352,
      "எதலயம": 9353,
      "ஏர": 9354,
      "ஏல": 9355,
      "ஏஙக": 9356,
      "ஏமறற": 9357,
      "கதம": 9358,
      "கவத": 9359,
      "கததர": 9360,
      "கஃப": 9361,
      "கஜல": 9362,
      "கததனஙக": 9363,
      "சபர": 9364,
      "சவர": 9365,
      "ஜவ": 9366,
      "ஜதய": 9367,
      "ஜலலல": 9368,
      "ஞர": 9369,
      "ஞபக": 9370,
      "ஞரகள": 9371,
      "டத": 9372,
      "டகள": 9373,
      "டஞச": 9374,
      "டககட": 9375,
      "டஜன": 9376,
      "டலலல": 9377,
      "தவகக": 9378,
      "தயன": 9379,
      "தயரம": 9380,
      "தகயல": 9381,
      "தநதத": 9382,
      "தஙகக": 9383,
      "தவறன": 9384,
      "தவதகள": 9385,
      "தகலக": 9386,
      "நப": 9387,
      "நழ": 9388,
      "நவ": 9389,
      "நஷ": 9390,
      "நவர": 9391,
      "நணட": 9392,
      "நயன": 9393,
      "நயக": 9394,
      "நககடடஙக": 9395,
      "நகபபடட": 9396,
      "பவட": 9397,
      "பமகக": 9398,
      "மயம": 9399,
      "மமத": 9400,
      "மகண": 9401,
      "மகழசச": 9402,
      "யஸ": 9403,
      "யனன": 9404,
      "யளளத": 9405,
      "ர3": 9406,
      "ரபயம": 9407,
      "ரஹத": 9408,
      "றவ": 9409,
      "றஞச": 9410,
      "றசகக": 9411,
      "றவஙகளகக": 9412,
      "லடட": 9413,
      "ளயம": 9414,
      "ளகள": 9415,
      "வணண": 9416,
      "வவதத": 9417,
      "வரககட": 9418,
      "ஷக": 9419,
      "ஷல": 9420,
      "ஸன": 9421,
      "ஸபச": 9422,
      "ககவம": 9423,
      "ககடய": 9424,
      "நதமழகள": 9425,
      "ததக": 9426,
      "ததயடட": 9427,
      "eran": 9428,
      "erககம": 9429,
      "erஆவம": 9430,
      "பணததட": 9431,
      "ona": 9432,
      "onகக": 9433,
      "onஓட": 9434,
      "பபனல": 9435,
      "anaல": 9436,
      "ancy": 9437,
      "analy": 9438,
      "esனன": 9439,
      "eshi": 9440,
      "esha": 9441,
      "inஐ": 9442,
      "inம": 9443,
      "inde": 9444,
      "inator": 9445,
      "inated": 9446,
      "institute": 9447,
      "inherit": 9448,
      "informal": 9449,
      "integration": 9450,
      "ener": 9451,
      "ensi": 9452,
      "ended": 9453,
      "அவறற": 9454,
      "பணணஙகள": 9455,
      "பணணணம": 9456,
      "பணணவன": 9457,
      "பணணடம": 9458,
      "பணணபபடடர": 9459,
      "பணணபபடவஙக": 9460,
      "almentஆ": 9461,
      "arti": 9462,
      "arur": 9463,
      "சசசன": 9464,
      "ora": 9465,
      "stஆ": 9466,
      "stableஆ": 9467,
      "revi": 9468,
      "remark": 9469,
      "replace": 9470,
      "rebel": 9471,
      "revolution": 9472,
      "களத": 9473,
      "களரசச": 9474,
      "ato": 9475,
      "atra": 9476,
      "attra": 9477,
      "attit": 9478,
      "atma": 9479,
      "attempt": 9480,
      "tionனன": 9481,
      "கடகம": 9482,
      "கடகளல": 9483,
      "கடபபம": 9484,
      "ஒரவள": 9485,
      "ஒரநளம": 9486,
      "அதய": 9487,
      "அதலயம": 9488,
      "அதரஷ": 9489,
      "ently": 9490,
      "ica": 9491,
      "ican": 9492,
      "lease": 9493,
      "least": 9494,
      "ita": 9495,
      "ithi": 9496,
      "itaries": 9497,
      "itely": 9498,
      "அவரக": 9499,
      "அவரடட": 9500,
      "அவரடம": 9501,
      "தரல": 9502,
      "தரதர": 9503,
      "தரவல": 9504,
      "தரகளகக": 9505,
      "தரபபர": 9506,
      "தரயதத": 9507,
      "பரப": 9508,
      "பரதன": 9509,
      "பரததர": 9510,
      "பரபபம": 9511,
      "பரவயல": 9512,
      "பரபஞச": 9513,
      "பரவசசடசச": 9514,
      "இநதயர": 9515,
      "rog": 9516,
      "ros": 9517,
      "roman": 9518,
      "rovers": 9519,
      "rough": 9520,
      "சலலகக": 9521,
      "சலலசச": 9522,
      "சலலவர": 9523,
      "சலலபபட": 9524,
      "சலலவன": 9525,
      "சலலதனன": 9526,
      "சலலவஙகள": 9527,
      "சலலபபன": 9528,
      "சலலனமன": 9529,
      "தனர": 9530,
      "see": 9531,
      "sectionல": 9532,
      "segment": 9533,
      "வரச": 9534,
      "வரததகக": 9535,
      "வரதகக": 9536,
      "வரதனன": 9537,
      "வரவறற": 9538,
      "இரநததனல": 9539,
      "diar": 9540,
      "diab": 9541,
      "dish": 9542,
      "digarh": 9543,
      "dioxide": 9544,
      "பபடததல": 9545,
      "ray": 9546,
      "rain": 9547,
      "racial": 9548,
      "racy": 9549,
      "rass": 9550,
      "raise": 9551,
      "படணம": 9552,
      "படபடட": 9553,
      "இதலயம": 9554,
      "மனறத": 9555,
      "மனமரநத": 9556,
      "chro": 9557,
      "channel": 9558,
      "ணடமன": 9559,
      "ationஓட": 9560,
      "ationsல": 9561,
      "ily": 9562,
      "amend": 9563,
      "amalai": 9564,
      "elo": 9565,
      "elam": 9566,
      "elig": 9567,
      "eless": 9568,
      "வஙகப": 9569,
      "வஙகயதத": 9570,
      "urance": 9571,
      "urga": 9572,
      "ingன": 9573,
      "ingம": 9574,
      "iso": 9575,
      "ison": 9576,
      "andon": 9577,
      "andum": 9578,
      "மடச": 9579,
      "மடலம": 9580,
      "மடசசட": 9581,
      "மடஞசரசச": 9582,
      "omas": 9583,
      "ombo": 9584,
      "மறகள": 9585,
      "மறயட": 9586,
      "மறடமன": 9587,
      "mentன": 9588,
      "mentsஐ": 9589,
      "mentsம": 9590,
      "நனசசடட": 9591,
      "நனககத": 9592,
      "una": 9593,
      "unemployment": 9594,
      "tha": 9595,
      "thr": 9596,
      "thik": 9597,
      "third": 9598,
      "சலவம": 9599,
      "degra": 9600,
      "defect": 9601,
      "defa": 9602,
      "devil": 9603,
      "determ": 9604,
      "detai": 9605,
      "ஆனதம": 9606,
      "ஆனதகக": 9607,
      "erson": 9608,
      "எனனத": 9609,
      "எனனவ": 9610,
      "எனனசச": 9611,
      "எனனசசனன": 9612,
      "நமபல": 9613,
      "கடடதல": 9614,
      "கடடபபடதத": 9615,
      "கடடககறன": 9616,
      "கடடககறம": 9617,
      "சமஹ": 9618,
      "சமபப": 9619,
      "சமபர": 9620,
      "சமபததய": 9621,
      "இரககறன": 9622,
      "இரககறததன": 9623,
      "இரககறவஙகளட": 9624,
      "adapt": 9625,
      "வலர": 9626,
      "வலஙககள": 9627,
      "வலநறததம": 9628,
      "asம": 9629,
      "asset": 9630,
      "பதகவல": 9631,
      "பதககத": 9632,
      "ateகக": 9633,
      "பயயத": 9634,
      "பயடடம": 9635,
      "பயததட": 9636,
      "பயரகள": 9637,
      "பயபபடற": 9638,
      "பயயமன": 9639,
      "சரல": 9640,
      "சரததகக": 9641,
      "சரசசன": 9642,
[...]
